<pad>	0
<unk>	0
<s>	0
</s>	0
して	-0
され	-1
した	-2
った	-3
する	-4
ある	-5
いる	-6
20	-7
19	-8
から	-9
って	-10
こと	-11
である	-12
された	-13
として	-14
いた	-15
では	-16
には	-17
によ	-18
ている	-19
られ	-20
とな	-21
その	-22
リー	-23
など	-24
この	-25
ない	-26
日本	-27
ール	-28
10	-29
ラン	-30
ため	-31
とい	-32
スト	-33
であ	-34
ター	-35
ック	-36
200	-37
している	-38
イン	-39
いて	-40
201	-41
よう	-42
ット	-43
年に	-44
という	-45
にな	-46
また	-47
される	-48
もの	-49
ング	-50
ート	-51
、19	-52
ュー	-53
まで	-54
ティ	-55
ーム	-56
18	-57
ディ	-58
われ	-59
されている	-60
▁19	-61
ード	-62
00	-63
ント	-64
日に	-65
12	-66
これ	-67
っている	-68
ショ	-69
大学	-70
にお	-71
ライ	-72
おり	-73
▁-	-74
による	-75
ことが	-76
11	-77
ていた	-78
リア	-79
となった	-80
であった	-81
でき	-82
、「	-83
していた	-84
かった	-85
ース	-86
より	-87
)、	-88
プロ	-89
ンド	-90
により	-91
バー	-92
それ	-93
がある	-94
によって	-95
。19	-96
年の	-97
的な	-98
202	-99
との	-100
リカ	-101
アル	-102
とも	-103
ける	-104
学校	-105
ション	-106
であり	-107
ジャ	-108
でも	-109
ファ	-110
れた	-111
ーク	-112
れる	-113
ーズ	-114
▁(	-115
を受	-116
られる	-117
なく	-118
ップ	-119
レー	-120
につ	-121
)。	-122
er	-123
放送	-124
にも	-125
られた	-126
時代	-127
15	-128
に対	-129
現在	-130
ンの	-131
しか	-132
での	-133
アメ	-134
となる	-135
だった	-136
フィ	-137
アメリカ	-138
への	-139
なかった	-140
17	-141
16	-142
スタ	-143
を行	-144
コン	-145
の一	-146
東京	-147
チャ	-148
めた	-149
世界	-150
▁201	-151
について	-152
in	-153
ロー	-154
において	-155
カー	-156
ことを	-157
キャ	-158
的に	-159
その後	-160
スの	-161
月に	-162
行われ	-163
an	-164
昭和	-165
リン	-166
作品	-167
あり	-168
on	-169
させ	-170
ステ	-171
フォ	-172
の中	-173
ラー	-174
える	-175
研究	-176
になった	-177
場合	-178
人の	-179
多く	-180
タイ	-181
選手	-182
あった	-183
ルー	-184
ジョ	-185
30	-186
ランド	-187
しかし	-188
使用	-189
けて	-190
シャ	-191
シュ	-192
とは	-193
できる	-194
などの	-195
or	-196
▁200	-197
テレ	-198
14	-199
オー	-200
サー	-201
されて	-202
活動	-203
にある	-204
けた	-205
およ	-206
映画	-207
マン	-208
13	-209
日本の	-210
会社	-211
後に	-212
クラ	-213
める	-214
ジェ	-215
っていた	-216
ベル	-217
すること	-218
当時	-219
テレビ	-220
フラン	-221
ために	-222
アン	-223
を持	-224
および	-225
とする	-226
になる	-227
ウェ	-228
リス	-229
』(	-230
ように	-231
番組	-232
存在	-233
可能	-234
イル	-235
代表	-236
ージ	-237
en	-238
しい	-239
ッド	-240
んだ	-241
国の	-242
ーン	-243
ar	-244
後の	-245
めて	-246
に入	-247
発表	-248
▁S	-249
と呼	-250
概要	-251
フェ	-252
えた	-253
ブル	-254
んで	-255
に関	-256
日の	-257
年には	-258
ような	-259
れば	-260
なる	-261
たち	-262
スター	-263
チーム	-264
エン	-265
以下	-266
25	-267
となり	-268
られている	-269
取り	-270
シア	-271
、200	-272
同年	-273
開発	-274
ヴィ	-275
ヴァ	-276
▁概要	-277
地域	-278
セン	-279
出身	-280
ニュー	-281
年から	-282
ニア	-283
したが	-284
パー	-285
大き	-286
のは	-287
サン	-288
試合	-289
発売	-290
における	-291
されていた	-292
に出	-293
at	-294
ルト	-295
レイ	-296
レン	-297
ナー	-298
アー	-299
以降	-300
ルの	-301
記録	-302
サイ	-303
al	-304
さら	-305
ダー	-306
平成	-307
▁202	-308
シーズ	-309
es	-310
年代	-311
▁)	-312
者の	-313
と同	-314
なお	-315
リーグ	-316
大会	-317
▁『	-318
時間	-319
開催	-320
歴史	-321
もある	-322
開始	-323
すると	-324
、『	-325
なが	-326
初の	-327
つの	-328
コー	-329
24	-330
オン	-331
イツ	-332
関係	-333
リーズ	-334
参加	-335
のみ	-336
メン	-337
21	-338
ウィ	-339
とした	-340
にて	-341
からの	-342
を務	-343
、201	-344
明治	-345
鉄道	-346
▁C	-347
ドラ	-348
50	-349
ゲーム	-350
らの	-351
23	-352
アルバ	-353
||	-354
シーズン	-355
トル	-356
ックス	-357
登場	-358
22	-359
しま	-360
音楽	-361
利用	-362
となっている	-363
」(	-364
ドイツ	-365
いない	-366
所属	-367
ビュー	-368
ic	-369
さらに	-370
事業	-371
アイ	-372
目の	-373
シリーズ	-374
am	-375
と呼ば	-376
まれ	-377
他の	-378
部の	-379
時に	-380
きた	-381
ニー	-382
上の	-383
監督	-384
バス	-385
国際	-386
委員	-387
ともに	-388
▁M	-389
マー	-390
だけ	-391
グラ	-392
しており	-393
199	-394
人物	-395
社会	-396
チェ	-397
28	-398
26	-399
シング	-400
▁A	-401
位置	-402
ょう	-403
都市	-404
ナル	-405
影響	-406
考え	-407
27	-408
一般	-409
アルバム	-410
▁20	-411
問題	-412
卒業	-413
。200	-414
必要	-415
カル	-416
引き	-417
行われた	-418
りの	-419
こう	-420
多くの	-421
is	-422
ウン	-423
優勝	-424
上げ	-425
it	-426
キー	-427
以下の	-428
かつ	-429
世紀	-430
スク	-431
イギ	-432
結果	-433
ブラ	-434
ながら	-435
文化	-436
ンは	-437
スペ	-438
29	-439
教育	-440
これは	-441
うち	-442
があり	-443
」「	-444
ラク	-445
ほか	-446
間の	-447
レス	-448
デル	-449
ポー	-450
自身	-451
に対して	-452
なら	-453
現在の	-454
、199	-455
変更	-456
計画	-457
イス	-458
えて	-459
クト	-460
▁T	-461
設置	-462
ループ	-463
。201	-464
まり	-465
大阪	-466
選挙	-467
担当	-468
▁"	-469
▁199	-470
地方	-471
を経	-472
中心	-473
000	-474
エル	-475
▁は	-476
に移	-477
80	-478
一方	-479
通り	-480
ジオ	-481
出場	-482
政府	-483
を受け	-484
経済	-485
多い	-486
he	-487
フト	-488
出演	-489
40	-490
のため	-491
ッチ	-492
数の	-493
と共	-494
60	-495
la	-496
戦争	-497
獲得	-498
を見	-499
れて	-500
いく	-501
情報	-502
フランス	-503
le	-504
、2	-505
調査	-506
しく	-507
設立	-508
▁B	-509
シー	-510
家の	-511
人が	-512
女性	-513
ころ	-514
建設	-515
31	-516
わせ	-517
グループ	-518
の大	-519
▁この	-520
アニ	-521
の名	-522
▁「	-523
そして	-524
クロ	-525
▁P	-526
ーション	-527
制作	-528
リスト	-529
としては	-530
モン	-531
ると	-532
就任	-533
ものの	-534
事件	-535
イト	-536
政治	-537
を含	-538
することが	-539
ことから	-540
ジョン	-541
主義	-542
をも	-543
ロッ	-544
中国	-545
同じ	-546
ことで	-547
ビー	-548
リング	-549
契約	-550
ジュ	-551
ソン	-552
シン	-553
内の	-554
ジア	-555
re	-556
ウス	-557
かけて	-558
間に	-559
ネル	-560
ドル	-561
70	-562
マイ	-563
機関	-564
高等	-565
特に	-566
ou	-567
デビュー	-568
施設	-569
とともに	-570
地区	-571
ただ	-572
教授	-573
または	-574
議員	-575
ールド	-576
人口	-577
収録	-578
システ	-579
構成	-580
、3	-581
中央	-582
までの	-583
軍の	-584
を持つ	-585
100	-586
、18	-587
システム	-588
からは	-589
ヴェ	-590
公開	-591
販売	-592
ネット	-593
自分	-594
意味	-595
ol	-596
()	-597
ion	-598
すべ	-599
ぞれ	-600
決定	-601
があった	-602
技術	-603
部分	-604
それぞれ	-605
とき	-606
われる	-607
ので	-608
ほど	-609
起こ	-610
前に	-611
を得	-612
自動	-613
▁の	-614
者が	-615
st	-616
としての	-617
デン	-618
タン	-619
最終	-620
学部	-621
を行う	-622
及び	-623
発生	-624
付け	-625
らず	-626
テン	-627
メンバー	-628
になり	-629
以外	-630
ロン	-631
については	-632
に関する	-633
わり	-634
合衆	-635
イギリス	-636
だが	-637
路線	-638
させる	-639
▁F	-640
終了	-641
株式	-642
果た	-643
、1	-644
▁L	-645
スコ	-646
などを	-647
km	-648
ようになった	-649
ハン	-650
なり	-651
シングル	-652
者は	-653
▁また	-654
ッカー	-655
当初	-656
スは	-657
マル	-658
。「	-659
前の	-660
アニメ	-661
議会	-662
に対する	-663
▁D	-664
最も	-665
メント	-666
ロシア	-667
れている	-668
デー	-669
攻撃	-670
と呼ばれる	-671
)」	-672
バイ	-673
評価	-674
と言	-675
を通	-676
かつて	-677
ことは	-678
中に	-679
力を	-680
トリ	-681
航空	-682
el	-683
ではなく	-684
場所	-685
バル	-686
ハイ	-687
と共に	-688
後は	-689
198	-690
アメリカ合衆	-691
組織	-692
リース	-693
期の	-694
ジャー	-695
年度	-696
▁R	-697
状態	-698
高校	-699
月の	-700
採用	-701
ではない	-702
▁第	-703
年間	-704
あた	-705
んど	-706
実施	-707
製造	-708
オリ	-709
日から	-710
車両	-711
、198	-712
選手権	-713
経歴	-714
▁18	-715
を果た	-716
構造	-717
際に	-718
子の	-719
まま	-720
初めて	-721
ro	-722
述べ	-723
トラ	-724
プラ	-725
野球	-726
しない	-727
企業	-728
パン	-729
部に	-730
▁G	-731
勝利	-732
体の	-733
委員会	-734
中の	-735
タル	-736
ことも	-737
本作	-738
et	-739
以上	-740
センター	-741
に就任	-742
当時の	-743
機能	-744
チャン	-745
とされる	-746
合わせ	-747
イタ	-748
管理	-749
クラブ	-750
を経て	-751
共和	-752
ダイ	-753
プリ	-754
っており	-755
交通	-756
45	-757
まれた	-758
を結	-759
られて	-760
カン	-761
時点	-762
生産	-763
挙げ	-764
ものである	-765
特徴	-766
ジン	-767
生活	-768
ヨー	-769
を出	-770
ミュー	-771
戦で	-772
するため	-773
といった	-774
に分	-775
いは	-776
ch	-777
スー	-778
に加	-779
株式会社	-780
モデル	-781
高い	-782
最高	-783
を受けた	-784
されており	-785
ディア	-786
最大	-787
まった	-788
ダン	-789
内容	-790
用い	-791
ケット	-792
メート	-793
リリース	-794
のが	-795
ところ	-796
スを	-797
ガー	-798
道路	-799
と考え	-800
ラクター	-801
とし	-802
キング	-803
全国	-804
バン	-805
時代の	-806
などが	-807
運動	-808
ただし	-809
、20	-810
彼は	-811
人は	-812
イタリア	-813
。199	-814
主に	-815
シェ	-816
大きな	-817
を獲得	-818
重要	-819
ロック	-820
▁I	-821
発見	-822
独立	-823
に伴	-824
第一	-825
年まで	-826
il	-827
テー	-828
日には	-829
月には	-830
そこ	-831
▁歴史	-832
部隊	-833
ッシュ	-834
全て	-835
協会	-836
ザー	-837
らか	-838
いで	-839
つか	-840
させた	-841
ろう	-842
197	-843
ボール	-844
高等学校	-845
自由	-846
デザ	-847
ダム	-848
製作	-849
▁t	-850
▁198	-851
ティー	-852
特別	-853
トン	-854
om	-855
プレ	-856
ガン	-857
ッツ	-858
ホーム	-859
")	-860
じて	-861
なった	-862
ドラマ	-863
を務めた	-864
名は	-865
キャラクター	-866
▁日本	-867
アク	-868
学者	-869
目的	-870
決勝	-871
記念	-872
江戸	-873
指定	-874
地の	-875
バンド	-876
組み	-877
ライブ	-878
彼女	-879
線の	-880
提供	-881
名の	-882
ブリ	-883
教会	-884
ボー	-885
、197	-886
じた	-887
しば	-888
ほと	-889
を記録	-890
通常	-891
東京都	-892
ビア	-893
入り	-894
成功	-895
公式	-896
出身の	-897
市の	-898
まれる	-899
にした	-900
ハー	-901
for	-902
ほとんど	-903
▁経歴	-904
ウォ	-905
設計	-906
運営	-907
35	-908
を中心	-909
最初の	-910
死去	-911
..	-912
えば	-913
事務	-914
らは	-915
へと	-916
のように	-917
女子	-918
ra	-919
そう	-920
が行われ	-921
を与	-922
小学校	-923
これらの	-924
規模	-925
予定	-926
結婚	-927
中学校	-928
第二	-929
列車	-930
を行った	-931
カップ	-932
に向	-933
サッカー	-934
▁H	-935
ビル	-936
指導	-937
テル	-938
▁E	-939
設定	-940
▁W	-941
かけ	-942
のような	-943
専門	-944
ウル	-945
ユー	-946
ファン	-947
ing	-948
インド	-949
ーター	-950
科学	-951
導入	-952
を含む	-953
京都	-954
48	-955
数は	-956
海道	-957
の一部	-958
コミ	-959
活躍	-960
セル	-961
国内	-962
が出	-963
リオ	-964
▁N	-965
常に	-966
学生	-967
のために	-968
新た	-969
由来	-970
レース	-971
すべて	-972
としている	-973
サービ	-974
帝国	-975
ラジオ	-976
編成	-977
作曲	-978
異なる	-979
de	-980
、4	-981
コード	-982
理由	-983
スカ	-984
as	-985
時期	-986
可能性	-987
ライン	-988
度の	-989
連合	-990
ジー	-991
FC	-992
、202	-993
自動車	-994
よりも	-995
連続	-996
運行	-997
完全	-998
様々	-999
基本	-1000
の主	-1001
ロッパ	-1002
支援	-1003
搭載	-1004
196	-1005
ユニ	-1006
にと	-1007
ストラ	-1008
漫画	-1009
▁m	-1010
ポーツ	-1011
を開始	-1012
レク	-1013
ソフト	-1014
オリン	-1015
ヨーロッパ	-1016
amp	-1017
されたが	-1018
タイトル	-1019
戦闘	-1020
向け	-1021
対象	-1022
ミー	-1023
これを	-1024
再び	-1025
海軍	-1026
経営	-1027
ピック	-1028
労働	-1029
存在する	-1030
に対し	-1031
に参加	-1032
ワー	-1033
であるが	-1034
of	-1035
わる	-1036
ギー	-1037
立ち	-1038
新聞	-1039
引退	-1040
アナ	-1041
lt	-1042
であったが	-1043
環境	-1044
メートル	-1045
飛行	-1046
人気	-1047
内に	-1048
生まれ	-1049
われた	-1050
小説	-1051
,000	-1052
インター	-1053
を作	-1054
を用	-1055
スが	-1056
を取	-1057
の一つ	-1058
廃止	-1059
周辺	-1060
状況	-1061
警察	-1062
わった	-1063
に基	-1064
かれた	-1065
裁判	-1066
を示	-1067
ミュージ	-1068
のち	-1069
イベ	-1070
方法	-1071
発売された	-1072
展開	-1073
デザイン	-1074
用の	-1075
▁3	-1076
に選	-1077
候補	-1078
55	-1079
ニング	-1080
スポーツ	-1081
を使用	-1082
統領	-1083
、196	-1084
フリー	-1085
会議	-1086
以来	-1087
物の	-1088
成績	-1089
プレイ	-1090
▁ア	-1091
朝鮮	-1092
になっている	-1093
大きく	-1094
いった	-1095
us	-1096
。18	-1097
総合	-1098
ジャン	-1099
データ	-1100
(18	-1101
彼の	-1102
を使	-1103
ここ	-1104
様々な	-1105
文字	-1106
連邦	-1107
運転	-1108
ac	-1109
いず	-1110
大正	-1111
指揮	-1112
ノー	-1113
英語	-1114
地に	-1115
の中で	-1116
に基づ	-1117
場合は	-1118
ディング	-1119
にあた	-1120
フレ	-1121
NA	-1122
撮影	-1123
企画	-1124
ローマ	-1125
切り	-1126
していたが	-1127
と同じ	-1128
来歴	-1129
民主	-1130
スタン	-1131
楽曲	-1132
表記	-1133
ht	-1134
さん	-1135
団体	-1136
社の	-1137
舞台	-1138
かか	-1139
競技	-1140
▁2	-1141
ヤー	-1142
ヨーク	-1143
36	-1144
人を	-1145
建築	-1146
▁197	-1147
月から	-1148
天皇	-1149
登録	-1150
の上	-1151
オープ	-1152
ダル	-1153
行政	-1154
の後	-1155
配信	-1156
44	-1157
関連	-1158
に出場	-1159
アメリカ合衆国	-1160
期間	-1161
公園	-1162
美術	-1163
北海道	-1164
パイ	-1165
。『	-1166
大統領	-1167
サイト	-1168
大戦	-1169
主張	-1170
国民	-1171
時の	-1172
いに	-1173
を始	-1174
国家	-1175
いの	-1176
移籍	-1177
32	-1178
まる	-1179
と思	-1180
gt	-1181
▁地	-1182
トロ	-1183
37	-1184
ゅう	-1185
イベント	-1186
38	-1187
においては	-1188
会長	-1189
の地	-1190
報告	-1191
できない	-1192
に進	-1193
しまう	-1194
いずれ	-1195
表現	-1196
、5	-1197
を取り	-1198
のア	-1199
BS	-1200
.5	-1201
mu	-1202
までは	-1203
以上の	-1204
プレー	-1205
).	-1206
フォー	-1207
トゥ	-1208
現在は	-1209
同様	-1210
宇宙	-1211
自治	-1212
ラム	-1213
完成	-1214
▁来歴	-1215
あるいは	-1216
形成	-1217
ウム	-1218
演奏	-1219
することを	-1220
工業	-1221
▁1	-1222
▁J	-1223
形式	-1224
47	-1225
入れ	-1226
するが	-1227
名称	-1228
産業	-1229
出した	-1230
年は	-1231
的には	-1232
ッグ	-1233
にあった	-1234
イド	-1235
46	-1236
イング	-1237
シャル	-1238
33	-1239
ent	-1240
▁なお	-1241
変化	-1242
立て	-1243
出版	-1244
営業	-1245
のうち	-1246
の下	-1247
▁O	-1248
かな	-1249
ベン	-1250
ER	-1251
支配	-1252
を目	-1253
に位置	-1254
認め	-1255
整備	-1256
フル	-1257
ことができる	-1258
と述べ	-1259
事を	-1260
42	-1261
オリンピック	-1262
スーパー	-1263
キャン	-1264
参照	-1265
共和国	-1266
ed	-1267
ファー	-1268
ウンド	-1269
自然	-1270
IC	-1271
デュー	-1272
アフ	-1273
打ち	-1274
スペイン	-1275
によると	-1276
に至	-1277
カード	-1278
。20	-1279
いている	-1280
られていた	-1281
39	-1282
アジア	-1283
わた	-1284
確認	-1285
ければ	-1286
比較	-1287
クリ	-1288
FA	-1289
ot	-1290
陸軍	-1291
社長	-1292
新しい	-1293
対戦	-1294
カリ	-1295
ディー	-1296
トー	-1297
大臣	-1298
子供	-1299
and	-1300
▁c	-1301
ワールド	-1302
発表した	-1303
ひと	-1304
ニューヨーク	-1305
は以下の	-1306
によれば	-1307
を受賞	-1308
ig	-1309
どう	-1310
ことに	-1311
はこの	-1312
丁目	-1313
ラス	-1314
乗り	-1315
市立	-1316
CD	-1317
メー	-1318
銀行	-1319
▁of	-1320
チュ	-1321
じる	-1322
電気	-1323
定の	-1324
41	-1325
かい	-1326
部門	-1327
ほぼ	-1328
発展	-1329
ホール	-1330
開催された	-1331
試験	-1332
小さ	-1333
等の	-1334
ルス	-1335
人々	-1336
を受けて	-1337
II	-1338
のある	-1339
輸送	-1340
するために	-1341
クス	-1342
物語	-1343
出来	-1344
90	-1345
支持	-1346
共同	-1347
出し	-1348
を除	-1349
▁その	-1350
側の	-1351
批判	-1352
43	-1353
だったが	-1354
劇場	-1355
ヴォ	-1356
ギュ	-1357
の戦	-1358
に従	-1359
文学	-1360
中で	-1361
形で	-1362
に伴い	-1363
番号	-1364
持ち	-1365
自身の	-1366
エンジン	-1367
などで	-1368
じめ	-1369
われている	-1370
広島	-1371
トラン	-1372
細胞	-1373
に属	-1374
行動	-1375
男性	-1376
当初は	-1377
言葉	-1378
AN	-1379
人間	-1380
工場	-1381
トップ	-1382
らが	-1383
58	-1384
やす	-1385
クレ	-1386
49	-1387
当た	-1388
mula	-1389
のもの	-1390
合併	-1391
ッジ	-1392
勝ち	-1393
を行い	-1394
せる	-1395
▁本	-1396
言語	-1397
わず	-1398
ベース	-1399
住民	-1400
ポート	-1401
点を	-1402
formula	-1403
発行	-1404
ゴール	-1405
名を	-1406
現代	-1407
次世界	-1408
に戻	-1409
ポン	-1410
距離	-1411
ピー	-1412
拡大	-1413
▁生	-1414
もと	-1415
になって	-1416
ティング	-1417
いため	-1418
日まで	-1419
法人	-1420
写真	-1421
事故	-1422
34	-1423
種類	-1424
効果	-1425
古屋	-1426
上が	-1427
神社	-1428
平均	-1429
掲載	-1430
AR	-1431
ST	-1432
過去	-1433
復帰	-1434
芸術	-1435
チャー	-1436
非常に	-1437
発表された	-1438
反対	-1439
対応	-1440
ation	-1441
に所属	-1442
に改	-1443
病院	-1444
保護	-1445
来の	-1446
を担当	-1447
運用	-1448
、6	-1449
上で	-1450
▁196	-1451
▁大	-1452
映像	-1453
ピア	-1454
56	-1455
プト	-1456
一方で	-1457
カナ	-1458
クライ	-1459
ズム	-1460
政策	-1461
家族	-1462
を表	-1463
」、	-1464
込み	-1465
相手	-1466
強い	-1467
ライト	-1468
追加	-1469
りに	-1470
。198	-1471
なければ	-1472
取締	-1473
▁その後	-1474
iv	-1475
条件	-1476
、)	-1477
作戦	-1478
州の	-1479
見られる	-1480
はその	-1481
次世界大戦	-1482
成立	-1483
が生	-1484
者を	-1485
キュ	-1486
。202	-1487
一の	-1488
一部	-1489
したため	-1490
通信	-1491
せず	-1492
指す	-1493
ールの	-1494
付近	-1495
制度	-1496
ワーク	-1497
IN	-1498
装置	-1499
福岡	-1500
横浜	-1501
プロデュー	-1502
初代	-1503
個人	-1504
大な	-1505
性を	-1506
編集	-1507
そのため	-1508
正式	-1509
に任	-1510
よく	-1511
全体	-1512
近く	-1513
せん	-1514
AT	-1515
議院	-1516
名古屋	-1517
を務め	-1518
受け	-1519
紹介	-1520
だけで	-1521
政権	-1522
をつ	-1523
マーク	-1524
59	-1525
博士	-1526
間で	-1527
セント	-1528
に生	-1529
製品	-1530
知られる	-1531
パリ	-1532
としても	-1533
ストー	-1534
メディア	-1535
空港	-1536
▁V	-1537
の子	-1538
57	-1539
ワン	-1540
限定	-1541
ピン	-1542
元年	-1543
▁が	-1544
のか	-1545
バラ	-1546
と同様	-1547
にとって	-1548
所の	-1549
ルド	-1550
かれ	-1551
以降は	-1552
たい	-1553
ロンド	-1554
を開	-1555
らす	-1556
ベスト	-1557
説明	-1558
後半	-1559
デオ	-1560
したもの	-1561
型の	-1562
メイン	-1563
ナン	-1564
ow	-1565
テーマ	-1566
ter	-1567
un	-1568
54	-1569
(19	-1570
タイム	-1571
こともある	-1572
が行われた	-1573
ジェクト	-1574
らない	-1575
下の	-1576
アップ	-1577
分類	-1578
を描	-1579
方面	-1580
の影響	-1581
公演	-1582
増加	-1583
万円	-1584
ON	-1585
52	-1586
実際	-1587
韓国	-1588
キシ	-1589
有名	-1590
太郎	-1591
オリジ	-1592
続き	-1593
不明	-1594
歳の	-1595
コロ	-1596
んでいる	-1597
表示	-1598
方式	-1599
最後の	-1600
サービス	-1601
▁K	-1602
せた	-1603
らく	-1604
シャー	-1605
直接	-1606
とう	-1607
の第	-1608
いが	-1609
司令	-1610
高速	-1611
以外の	-1612
主な	-1613
レーション	-1614
最初	-1615
取締役	-1616
かり	-1617
ur	-1618
指摘	-1619
51	-1620
観光	-1621
それを	-1622
ec	-1623
ファイ	-1624
アラ	-1625
ナイ	-1626
人民	-1627
地を	-1628
マス	-1629
書き	-1630
ウェー	-1631
im	-1632
JR	-1633
かに	-1634
重要な	-1635
は大	-1636
ルム	-1637
を中心に	-1638
チン	-1639
オブ	-1640
記述	-1641
世の	-1642
フロ	-1643
、7	-1644
オープン	-1645
が多い	-1646
位の	-1647
▁2019	-1648
経験	-1649
に転	-1650
んな	-1651
子が	-1652
できた	-1653
体は	-1654
図書	-1655
登場する	-1656
サル	-1657
内で	-1658
ミニ	-1659
競馬	-1660
人に	-1661
俳優	-1662
」、「	-1663
系統	-1664
軍は	-1665
に変更	-1666
)3	-1667
ウト	-1668
//	-1669
ズの	-1670
時代に	-1671
-1	-1672
しよう	-1673
以前	-1674
方向	-1675
▁と	-1676
BC	-1677
スタジオ	-1678
ペン	-1679
島の	-1680
グラム	-1681
安全	-1682
例えば	-1683
次の	-1684
ガル	-1685
、10	-1686
性の	-1687
500	-1688
▁d	-1689
続け	-1690
53	-1691
化した	-1692
ッション	-1693
HK	-1694
繰り	-1695
ことがある	-1696
工事	-1697
定義	-1698
ケー	-1699
時点で	-1700
事実	-1701
いを	-1702
ツアー	-1703
出された	-1704
上に	-1705
ロード	-1706
放送された	-1707
連載	-1708
ad	-1709
代目	-1710
を発	-1711
オフ	-1712
の長	-1713
千葉	-1714
▁4	-1715
台湾	-1716
統合	-1717
▁2021	-1718
cm	-1719
ます	-1720
川県	-1721
("	-1722
にして	-1723
ブルク	-1724
九州	-1725
別の	-1726
id	-1727
明らか	-1728
ゴル	-1729
初期	-1730
軍事	-1731
um	-1732
国立	-1733
であると	-1734
令和	-1735
動物	-1736
雑誌	-1737
しょう	-1738
を挙げ	-1739
。197	-1740
内閣	-1741
市民	-1742
しまった	-1743
主要	-1744
をは	-1745
os	-1746
を有	-1747
誕生	-1748
系の	-1749
が進	-1750
えられた	-1751
移動	-1752
IS	-1753
行為	-1754
th	-1755
▁2020	-1756
地元	-1757
呼ば	-1758
協力	-1759
被害	-1760
イント	-1761
を求	-1762
ub	-1763
地下	-1764
▁2022	-1765
▁6	-1766
方の	-1767
od	-1768
を果たした	-1769
tp	-1770
艦隊	-1771
アカ	-1772
市場	-1773
チョ	-1774
記載	-1775
部は	-1776
ブランド	-1777
店舗	-1778
本の	-1779
ケン	-1780
に関して	-1781
つつ	-1782
理事	-1783
キン	-1784
を引き	-1785
程度	-1786
することで	-1787
▁2017	-1788
装備	-1789
大学の	-1790
、"	-1791
トレ	-1792
▁s	-1793
コース	-1794
パート	-1795
を受ける	-1796
ビデオ	-1797
、8	-1798
プロジェクト	-1799
モー	-1800
http	-1801
形態	-1802
▁2016	-1803
▁2018	-1804
ントン	-1805
地球	-1806
://	-1807
。2	-1808
アンド	-1809
広く	-1810
貢献	-1811
em	-1812
アフリカ	-1813
創設	-1814
反応	-1815
子は	-1816
までに	-1817
2000	-1818
王座	-1819
開業	-1820
分野	-1821
▁人物	-1822
められた	-1823
いだ	-1824
規定	-1825
▁2010	-1826
▁しかし	-1827
所有	-1828
能力	-1829
ちゃ	-1830
標準	-1831
付き	-1832
県の	-1833
んでいた	-1834
フラ	-1835
いなかった	-1836
スティ	-1837
グレ	-1838
長の	-1839
ゆる	-1840
いくつか	-1841
区間	-1842
ギリ	-1843
所在	-1844
するなど	-1845
にかけて	-1846
原因	-1847
||0	-1848
(15	-1849
業務	-1850
ir	-1851
条約	-1852
タイプ	-1853
を継	-1854
位に	-1855
ポジ	-1856
レコード	-1857
伝統	-1858
リスの	-1859
自分の	-1860
配置	-1861
結成	-1862
ムー	-1863
理論	-1864
などに	-1865
投票	-1866
ブレ	-1867
アの	-1868
されていない	-1869
を置	-1870
.0	-1871
したり	-1872
ストーリー	-1873
太平	-1874
いずれも	-1875
は以下の通り	-1876
リエ	-1877
くる	-1878
たちは	-1879
ドゥ	-1880
障害	-1881
ミュ	-1882
かれている	-1883
ag	-1884
大学院	-1885
▁b	-1886
すぐ	-1887
とされている	-1888
機の	-1889
法律	-1890
ステージ	-1891
)4	-1892
を卒業	-1893
達成	-1894
グラン	-1895
mm	-1896
コンピ	-1897
側に	-1898
セット	-1899
▁U	-1900
AS	-1901
」。	-1902
購入	-1903
が必要	-1904
の実	-1905
▁2015	-1906
少年	-1907
ならない	-1908
解説	-1909
競走	-1910
はない	-1911
分の	-1912
川の	-1913
ールズ	-1914
種の	-1915
革命	-1916
女優	-1917
研究所	-1918
数が	-1919
は一	-1920
ミュージック	-1921
報道	-1922
▁2023	-1923
ランダ	-1924
パス	-1925
受賞	-1926
町の	-1927
者に	-1928
』『	-1929
化学	-1930
ゴン	-1931
ネス	-1932
▁2014	-1933
▁&	-1934
ヘン	-1935
外国	-1936
を手	-1937
選択	-1938
作家	-1939
イズ	-1940
発電	-1941
もあり	-1942
メーカー	-1943
語の	-1944
スキー	-1945
愛知	-1946
をもって	-1947
維持	-1948
オリジナル	-1949
AM	-1950
国道	-1951
ており	-1952
商品	-1953
ことになった	-1954
クル	-1955
改正	-1956
ゲン	-1957
ワード	-1958
車の	-1959
成長	-1960
続く	-1961
カナダ	-1962
バック	-1963
生物	-1964
防衛	-1965
死亡	-1966
スケ	-1967
とその	-1968
住宅	-1969
近い	-1970
アメリカの	-1971
▁略	-1972
▁エ	-1973
えている	-1974
ごと	-1975
派遣	-1976
を決	-1977
NHK	-1978
1,	-1979
ラル	-1980
▁2024	-1981
を持ち	-1982
わらず	-1983
事務所	-1984
主演	-1985
に出演	-1986
が発生	-1987
)・	-1988
▁2012	-1989
医療	-1990
ミン	-1991
少なく	-1992
建て	-1993
宗教	-1994
独自	-1995
現役	-1996
(16	-1997
原作	-1998
の手	-1999
メージ	-2000
の前	-2001
バート	-2002
デジ	-2003
。196	-2004
精神	-2005
理学	-2006
いていた	-2007
▁あ	-2008
パラ	-2009
▁2011	-2010
を残	-2011
名が	-2012
年ぶ	-2013
▁the	-2014
クション	-2015
賞を受賞	-2016
年より	-2017
新たな	-2018
OR	-2019
、9	-2020
戦の	-2021
AC	-2022
ゼン	-2023
フォル	-2024
ギャ	-2025
のための	-2026
▁2013	-2027
隣接	-2028
作業	-2029
いわ	-2030
を収	-2031
植物	-2032
系列	-2033
統一	-2034
ニック	-2035
図書館	-2036
々の	-2037
時には	-2038
追い	-2039
組合	-2040
世帯	-2041
息子	-2042
にあたる	-2043
役割	-2044
人公	-2045
県立	-2046
レギュ	-2047
さま	-2048
バッ	-2049
神戸	-2050
破壊	-2051
要素	-2052
派の	-2053
がない	-2054
リート	-2055
党の	-2056
テスト	-2057
資料	-2058
ボル	-2059
もう	-2060
オス	-2061
予選	-2062
をした	-2063
民族	-2064
イングランド	-2065
グリ	-2066
背景	-2067
海外	-2068
コーチ	-2069
リーン	-2070
していない	-2071
普通	-2072
オール	-2073
を獲得した	-2074
エー	-2075
オル	-2076
可能な	-2077
昇格	-2078
集団	-2079
名誉	-2080
将軍	-2081
生の	-2082
が高	-2083
もので	-2084
ポイント	-2085
関東	-2086
機構	-2087
を務める	-2088
オーストラ	-2089
だと	-2090
シティ	-2091
ストン	-2092
処理	-2093
フォン	-2094
リアム	-2095
ケル	-2096
料理	-2097
げる	-2098
イー	-2099
沖縄	-2100
商業	-2101
を利用	-2102
きっ	-2103
色の	-2104
▁p	-2105
ia	-2106
でもある	-2107
設け	-2108
っても	-2109
複数の	-2110
ジョージ	-2111
▁2009	-2112
刊行	-2113
観測	-2114
まだ	-2115
、17	-2116
OS	-2117
コンピュー	-2118
セス	-2119
オーストラリア	-2120
を生	-2121
キリスト	-2122
げた	-2123
減少	-2124
基準	-2125
太平洋	-2126
ようになる	-2127
oc	-2128
ロンドン	-2129
ut	-2130
の中心	-2131
と称	-2132
▁中	-2133
オランダ	-2134
兄弟	-2135
提案	-2136
が設置	-2137
安定	-2138
ソ連	-2139
面積	-2140
▁略歴	-2141
代の	-2142
東北	-2143
学科	-2144
を迎	-2145
VD	-2146
紀元	-2147
連盟	-2148
実現	-2149
たちの	-2150
リック	-2151
となって	-2152
ap	-2153
シル	-2154
ネー	-2155
を記録した	-2156
を集	-2157
流れ	-2158
神奈	-2159
そこで	-2160
が始	-2161
ay	-2162
惑星	-2163
多数	-2164
法の	-2165
▁を	-2166
体が	-2167
朝日	-2168
電話	-2169
▁地理	-2170
電子	-2171
イギリスの	-2172
The	-2173
ワイ	-2174
リティ	-2175
方が	-2176
同時に	-2177
建物	-2178
新潟	-2179
名前	-2180
首相	-2181
ロス	-2182
会の	-2183
チャンピ	-2184
なか	-2185
ことになる	-2186
実験	-2187
称は	-2188
仕事	-2189
得点	-2190
責任	-2191
制限	-2192
力の	-2193
メラ	-2194
当選	-2195
を行っている	-2196
べき	-2197
に応	-2198
アド	-2199
体制	-2200
ボン	-2201
人で	-2202
を起こ	-2203
ポジション	-2204
メイ	-2205
地は	-2206
出す	-2207
ットの	-2208
長は	-2209
一部の	-2210
が多く	-2211
参戦	-2212
塁打	-2213
用いられる	-2214
制御	-2215
治療	-2216
者として	-2217
▁2008	-2218
ウェア	-2219
をと	-2220
ナム	-2221
述の	-2222
nd	-2223
に行	-2224
レギュラー	-2225
、、	-2226
ニュ	-2227
開幕	-2228
ニコ	-2229
するという	-2230
比べ	-2231
静岡	-2232
US	-2233
速度	-2234
を超	-2235
禁止	-2236
▁小	-2237
王国	-2238
広が	-2239
2010	-2240
登板	-2241
軌道	-2242
体を	-2243
歳で	-2244
停止	-2245
ポール	-2246
トラック	-2247
ツィ	-2248
段階	-2249
史上	-2250
農業	-2251
に置	-2252
してきた	-2253
▁km	-2254
キロ	-2255
以後	-2256
ヴァン	-2257
と語	-2258
知られている	-2259
エイ	-2260
本部	-2261
共産	-2262
好き	-2263
範囲	-2264
を発表	-2265
フィリ	-2266
デイ	-2267
ガス	-2268
チュー	-2269
他に	-2270
フォード	-2271
位を	-2272
文書	-2273
しなかった	-2274
本社	-2275
▁※	-2276
氏の	-2277
式の	-2278
ヒット	-2279
山の	-2280
詳細	-2281
まと	-2282
これが	-2283
▁マ	-2284
要求	-2285
解散	-2286
を採用	-2287
エネル	-2288
スタッ	-2289
メダル	-2290
▁7	-2291
ッセ	-2292
りを	-2293
拠点	-2294
代わり	-2295
99	-2296
太陽	-2297
ランキング	-2298
作用	-2299
アメリカ合衆国の	-2300
に終	-2301
ビン	-2302
交流	-2303
とみ	-2304
もあった	-2305
されていたが	-2306
博物	-2307
議院議員	-2308
チャンピオン	-2309
カラ	-2310
時は	-2311
op	-2312
ホー	-2313
1.	-2314
歌手	-2315
に通	-2316
学の	-2317
展示	-2318
活動を	-2319
合わせて	-2320
記の	-2321
仕様	-2322
▁St	-2323
年頃	-2324
が開	-2325
プル	-2326
▁17	-2327
ミア	-2328
会員	-2329
場で	-2330
ドリ	-2331
判断	-2332
EC	-2333
クー	-2334
に至る	-2335
生まれた	-2336
失敗	-2337
おらず	-2338
を設立	-2339
全ての	-2340
した後	-2341
-0	-2342
ウィリアム	-2343
父親	-2344
▁2007	-2345
欧州	-2346
貴族	-2347
▁f	-2348
しくは	-2349
皇帝	-2350
が見	-2351
日本語	-2352
含まれ	-2353
最大の	-2354
。1	-2355
(17	-2356
ウェイ	-2357
2020	-2358
接続	-2359
クラス	-2360
わけ	-2361
トリック	-2362
の高	-2363
ようになり	-2364
チェン	-2365
エネルギー	-2366
指名	-2367
改革	-2368
米国	-2369
しながら	-2370
が発	-2371
強く	-2372
に位置する	-2373
が存在	-2374
ないため	-2375
めている	-2376
は無	-2377
県道	-2378
。3	-2379
フランスの	-2380
訓練	-2381
きっかけ	-2382
復活	-2383
kg	-2384
相当	-2385
を取得	-2386
落ち	-2387
プログラム	-2388
レベル	-2389
日付	-2390
となっていた	-2391
新たに	-2392
を通じて	-2393
ソー	-2394
目に	-2395
ダウン	-2396
回の	-2397
地で	-2398
、12	-2399
ユダ	-2400
到着	-2401
コーナー	-2402
感染	-2403
アナウン	-2404
通算	-2405
を参照	-2406
ホテル	-2407
が一	-2408
かれる	-2409
イメージ	-2410
資金	-2411
場の	-2412
著作	-2413
▁5	-2414
。」	-2415
レンジ	-2416
呼び	-2417
エア	-2418
優秀	-2419
脚本	-2420
中華	-2421
分離	-2422
食べ	-2423
ラスト	-2424
紀元前	-2425
AA	-2426
投手	-2427
コミュ	-2428
をはじめ	-2429
子を	-2430
のに	-2431
学園	-2432
プロデューサー	-2433
そのまま	-2434
主人公	-2435
ers	-2436
大阪府	-2437
埼玉	-2438
▁前	-2439
ソロ	-2440
近代	-2441
ri	-2442
首都	-2443
スタート	-2444
期に	-2445
替え	-2446
行われる	-2447
自己	-2448
関西	-2449
対策	-2450
ニュース	-2451
▁10	-2452
ッカ	-2453
中継	-2454
メジャー	-2455
同盟	-2456
イスラ	-2457
メル	-2458
量の	-2459
なし	-2460
プライ	-2461
本塁打	-2462
2011	-2463
)1	-2464
を送	-2465
シャン	-2466
することができる	-2467
EN	-2468
グル	-2469
声優	-2470
記事	-2471
読み	-2472
コミュニ	-2473
を占	-2474
少ない	-2475
と対戦	-2476
インタ	-2477
山口	-2478
教師	-2479
をする	-2480
300	-2481
ていたが	-2482
しているが	-2483
を訪	-2484
富士	-2485
いち	-2486
動き	-2487
保存	-2488
ザン	-2489
宣言	-2490
ても	-2491
少女	-2492
スタイル	-2493
に対応	-2494
CM	-2495
機械	-2496
すべての	-2497
団の	-2498
まず	-2499
スピ	-2500
あまり	-2501
ヒト	-2502
南部	-2503
ひとつ	-2504
推進	-2505
ユダヤ	-2506
デジタル	-2507
ブン	-2508
ブロ	-2509
階級	-2510
2009	-2511
AP	-2512
ショー	-2513
クリス	-2514
ヘル	-2515
2008	-2516
ちな	-2517
防御	-2518
領域	-2519
いう	-2520
デュ	-2521
ソング	-2522
延長	-2523
交換	-2524
毎年	-2525
たちが	-2526
BA	-2527
ak	-2528
ov	-2529
作品の	-2530
けん	-2531
を示す	-2532
主催	-2533
博物館	-2534
かん	-2535
意見	-2536
ユニット	-2537
エンジ	-2538
られており	-2539
ルート	-2540
こととなった	-2541
逮捕	-2542
強化	-2543
スタッフ	-2544
福島	-2545
区域	-2546
帰国	-2547
命令	-2548
曜日	-2549
同じく	-2550
ショナル	-2551
男子	-2552
ミング	-2553
政治家	-2554
らを	-2555
区の	-2556
裁判所	-2557
!!	-2558
なっている	-2559
ard	-2560
れない	-2561
初期の	-2562
ce	-2563
TV	-2564
と見	-2565
に敗	-2566
▁8	-2567
のこと	-2568
ポリ	-2569
供給	-2570
og	-2571
あって	-2572
TO	-2573
が大	-2574
やま	-2575
先発	-2576
基礎	-2577
You	-2578
を開始した	-2579
合計	-2580
ストリア	-2581
温泉	-2582
しばしば	-2583
周年	-2584
形の	-2585
性が	-2586
長野	-2587
コンピュータ	-2588
フジ	-2589
St	-2590
と結婚	-2591
の研究	-2592
傾向	-2593
(1	-2594
▁/	-2595
スラ	-2596
テク	-2597
幕府	-2598
長い	-2599
ものが	-2600
児島	-2601
学院	-2602
定期	-2603
えられる	-2604
クライナ	-2605
チャート	-2606
古代	-2607
生徒	-2608
電車	-2609
75	-2610
検討	-2611
ばれた	-2612
勤務	-2613
困難	-2614
ための	-2615
パーク	-2616
▁2006	-2617
ウクライナ	-2618
フィン	-2619
ティスト	-2620
限り	-2621
専用	-2622
の発	-2623
地上	-2624
認定	-2625
2012	-2626
員が	-2627
それは	-2628
スコット	-2629
シーン	-2630
とも呼ば	-2631
ールは	-2632
2014	-2633
ノル	-2634
で行われた	-2635
民主党	-2636
ドイツの	-2637
2007	-2638
ノン	-2639
建造	-2640
戦では	-2641
と考えられている	-2642
地震	-2643
オペ	-2644
員の	-2645
できなかった	-2646
再開	-2647
▁に	-2648
からも	-2649
注目	-2650
郵便	-2651
DVD	-2652
を加	-2653
者である	-2654
執筆	-2655
を意味	-2656
89	-2657
ポーランド	-2658
2015	-2659
リーの	-2660
これにより	-2661
を学	-2662
ニャ	-2663
知事	-2664
確保	-2665
対立	-2666
海岸	-2667
計算	-2668
推定	-2669
共通	-2670
わって	-2671
ベルク	-2672
に取り	-2673
いくつかの	-2674
兵庫	-2675
長官	-2676
ゲスト	-2677
することは	-2678
特殊	-2679
違い	-2680
を一	-2681
演出	-2682
レッド	-2683
▁カ	-2684
チー	-2685
かかわらず	-2686
取引	-2687
江戸時代	-2688
更新	-2689
を退	-2690
市長	-2691
画家	-2692
連絡	-2693
タウン	-2694
2013	-2695
憲法	-2696
起用	-2697
課程	-2698
面に	-2699
ゼル	-2700
当て	-2701
部屋	-2702
AL	-2703
av	-2704
ラグ	-2705
、11	-2706
せて	-2707
月号	-2708
価格	-2709
:00	-2710
▁生涯	-2711
々に	-2712
操作	-2713
軍が	-2714
交渉	-2715
ちゃん	-2716
パル	-2717
父の	-2718
性能	-2719
ラの	-2720
十分	-2721
行き	-2722
分布	-2723
ブレー	-2724
全日本	-2725
ab	-2726
を進	-2727
込む	-2728
。(	-2729
資格	-2730
作詞	-2731
陸上	-2732
化された	-2733
原子	-2734
機器	-2735
日より	-2736
を図	-2737
76	-2738
人と	-2739
▁formula	-2740
くり	-2741
エレ	-2742
に移籍	-2743
鹿児島	-2744
においても	-2745
力が	-2746
大陸	-2747
続けた	-2748
年にかけて	-2749
HE	-2750
IT	-2751
コル	-2752
繰り返	-2753
だけでなく	-2754
線が	-2755
2016	-2756
後も	-2757
遺伝	-2758
アイドル	-2759
ドン	-2760
弁護	-2761
命名	-2762
2018	-2763
ークス	-2764
ほう	-2765
ゴー	-2766
長崎	-2767
日本では	-2768
らし	-2769
を解	-2770
判定	-2771
2006	-2772
かう	-2773
市に	-2774
いい	-2775
家庭	-2776
施行	-2777
改造	-2778
論文	-2779
ヴァー	-2780
のを	-2781
挑戦	-2782
か月	-2783
南北	-2784
意識	-2785
2019	-2786
▁9	-2787
権を	-2788
製の	-2789
神奈川県	-2790
PS	-2791
おお	-2792
率は	-2793
こうした	-2794
加入	-2795
奈良	-2796
世は	-2797
既に	-2798
フォルニア	-2799
の間	-2800
を結ぶ	-2801
機に	-2802
売り	-2803
プロ野球	-2804
家は	-2805
スマ	-2806
普及	-2807
もし	-2808
っと	-2809
もしくは	-2810
ブルー	-2811
作成	-2812
部長	-2813
のである	-2814
殺害	-2815
機会	-2816
、16	-2817
ハウス	-2818
回転	-2819
ざま	-2820
に入り	-2821
異なり	-2822
このような	-2823
なわ	-2824
なども	-2825
68	-2826
掛け	-2827
児童	-2828
OM	-2829
視聴	-2830
ウイル	-2831
単位	-2832
枚目の	-2833
設立された	-2834
エリア	-2835
が存在する	-2836
進出	-2837
ダイヤ	-2838
リンク	-2839
しても	-2840
公開された	-2841
-2	-2842
カリフォルニア	-2843
です	-2844
アーティスト	-2845
に由来	-2846
地域の	-2847
ものは	-2848
アカデ	-2849
学会	-2850
に見	-2851
消費	-2852
ブラジ	-2853
方針	-2854
と呼ぶ	-2855
のほか	-2856
自治体	-2857
ことが多い	-2858
に就任した	-2859
▁in	-2860
らい	-2861
カイ	-2862
西部	-2863
62	-2864
KO	-2865
歴任	-2866
ったが	-2867
が可能	-2868
空間	-2869
小さな	-2870
つけ	-2871
▁()	-2872
になると	-2873
設備	-2874
統治	-2875
するための	-2876
思想	-2877
当時は	-2878
』、『	-2879
ネットワーク	-2880
に合	-2881
愛知県	-2882
サス	-2883
を得た	-2884
したこと	-2885
を実施	-2886
ピアノ	-2887
ロール	-2888
含まれる	-2889
準備	-2890
唯一の	-2891
2005	-2892
生き	-2893
目標	-2894
64	-2895
士の	-2896
ルは	-2897
検査	-2898
コール	-2899
)2	-2900
族の	-2901
概念	-2902
マク	-2903
2017	-2904
以降の	-2905
ソード	-2906
と述べている	-2907
人である	-2908
ロット	-2909
▁2005	-2910
▁上	-2911
任務	-2912
ターの	-2913
リード	-2914
結合	-2915
についても	-2916
亡く	-2917
に指定	-2918
執行	-2919
▁、	-2920
しん	-2921
制定	-2922
公共	-2923
隊の	-2924
使われる	-2925
披露	-2926
0.	-2927
中止	-2928
同社	-2929
多数の	-2930
li	-2931
比較的	-2932
込んだ	-2933
が入	-2934
リーは	-2935
ct	-2936
物を	-2937
にわた	-2938
アント	-2939
規模な	-2940
RE	-2941
香港	-2942
ティン	-2943
かる	-2944
は全	-2945
動画	-2946
)10	-2947
ケーション	-2948
第三	-2949
自ら	-2950
レット	-2951
88	-2952
▁東	-2953
単独	-2954
思い	-2955
シナ	-2956
危険	-2957
ジアム	-2958
このため	-2959
マリ	-2960
ルイ	-2961
est	-2962
)7	-2963
管轄	-2964
分析	-2965
オーストリア	-2966
度は	-2967
認識	-2968
在籍	-2969
ブロック	-2970
理解	-2971
際には	-2972
ID	-2973
キャリア	-2974
sp	-2975
ne	-2976
にもかかわらず	-2977
の元	-2978
に貢献	-2979
ボード	-2980
▁駅	-2981
PC	-2982
チャンネル	-2983
ごろ	-2984
アリ	-2985
を達成	-2986
▁\	-2987
実行	-2988
スキ	-2989
に成功	-2990
インターネット	-2991
に変	-2992
撤退	-2993
ベルト	-2994
メキシ	-2995
向上	-2996
と改	-2997
LE	-2998
道の	-2999
周囲	-3000
キリスト教	-3001
アウト	-3002
総選挙	-3003
と呼ばれ	-3004
レオ	-3005
否定	-3006
ビエ	-3007
レント	-3008
、2010	-3009
IV	-3010
議論	-3011
を搭載	-3012
適用	-3013
面の	-3014
バージョン	-3015
共に	-3016
と同様に	-3017
63	-3018
なわち	-3019
上げた	-3020
すなわち	-3021
振り	-3022
を下	-3023
プレイヤー	-3024
からなる	-3025
ナイト	-3026
村の	-3027
78	-3028
で開催された	-3029
ポルト	-3030
チームの	-3031
週間	-3032
2021	-3033
サイド	-3034
▁。	-3035
平和	-3036
北部	-3037
岡山	-3038
権利	-3039
もなく	-3040
が残	-3041
ヒー	-3042
承認	-3043
王の	-3044
せい	-3045
を抱	-3046
局の	-3047
期待	-3048
許可	-3049
師団	-3050
民国	-3051
行う	-3052
を提供	-3053
判決	-3054
アナウンサー	-3055
とされた	-3056
65	-3057
▁a	-3058
健康	-3059
練習	-3060
しゃ	-3061
点で	-3062
がっ	-3063
2.	-3064
更に	-3065
のカ	-3066
ロイ	-3067
マラ	-3068
第二次世界大戦	-3069
っていたが	-3070
さまざま	-3071
。4	-3072
-3	-3073
98	-3074
ine	-3075
の場合	-3076
に基づく	-3077
の新	-3078
物質	-3079
公立	-3080
https	-3081
球団	-3082
駆逐	-3083
彼らは	-3084
市街	-3085
諸島	-3086
貨物	-3087
2022	-3088
77	-3089
仙台	-3090
継続	-3091
番組の	-3092
ページ	-3093
フェン	-3094
不足	-3095
大型	-3096
さを	-3097
立つ	-3098
のもと	-3099
最終的に	-3100
エリ	-3101
についての	-3102
大使	-3103
植民	-3104
録音	-3105
ジャパン	-3106
使用される	-3107
その他の	-3108
月まで	-3109
95	-3110
伝説	-3111
ツェ	-3112
犯罪	-3113
侵攻	-3114
)5	-3115
ミネ	-3116
軍を	-3117
するもの	-3118
なければならない	-3119
モード	-3120
が無	-3121
旅客	-3122
の名前	-3123
最後に	-3124
テイ	-3125
半島	-3126
戦後	-3127
衆議院議員	-3128
に当た	-3129
コンサ	-3130
に次	-3131
依頼	-3132
きょう	-3133
かつては	-3134
ズは	-3135
ヶ月	-3136
えられ	-3137
61	-3138
側は	-3139
ドー	-3140
ナショナル	-3141
eb	-3142
ペル	-3143
金属	-3144
価値	-3145
アカデミー	-3146
を失	-3147
で構成	-3148
の結果	-3149
リズム	-3150
AD	-3151
フィー	-3152
を演	-3153
コント	-3154
旅行	-3155
神経	-3156
交差	-3157
審査	-3158
ヤン	-3159
過ぎ	-3160
集落	-3161
試合に出場	-3162
作品は	-3163
)6	-3164
岐阜	-3165
東部	-3166
やが	-3167
ッサ	-3168
古墳	-3169
に住	-3170
試み	-3171
が開始	-3172
1000	-3173
▁新	-3174
本格	-3175
調整	-3176
良い	-3177
に帰	-3178
ミル	-3179
力は	-3180
実際に	-3181
ターン	-3182
ウッド	-3183
したという	-3184
となっており	-3185
経緯	-3186
線を	-3187
衛門	-3188
400	-3189
していく	-3190
なくなった	-3191
ベイ	-3192
ワシ	-3193
市出身	-3194
区別	-3195
スティー	-3196
札幌	-3197
月より	-3198
を奪	-3199
セー	-3200
下に	-3201
押し	-3202
母親	-3203
保険	-3204
率いる	-3205
の三	-3206
負け	-3207
規制	-3208
メキシコ	-3209
数と	-3210
テキ	-3211
改善	-3212
彼女は	-3213
がな	-3214
位は	-3215
に分類	-3216
190	-3217
始めた	-3218
フィールド	-3219
にする	-3220
マイル	-3221
阪神	-3222
でに	-3223
学区	-3224
ってきた	-3225
シカ	-3226
城県	-3227
ミサ	-3228
とされ	-3229
ケース	-3230
それぞれの	-3231
統計	-3232
)12	-3233
...	-3234
回復	-3235
クター	-3236
を知	-3237
じられた	-3238
)8	-3239
すれば	-3240
買収	-3241
合成	-3242
芸能	-3243
、2009	-3244
ind	-3245
処分	-3246
熊本	-3247
途中	-3248
みの	-3249
民間	-3250
来た	-3251
講師	-3252
を目指	-3253
ちょう	-3254
国勢	-3255
度目の	-3256
ジュニア	-3257
▁16	-3258
のサ	-3259
ガイ	-3260
拡張	-3261
方に	-3262
秋田	-3263
ごとに	-3264
イルランド	-3265
br	-3266
これに	-3267
じょう	-3268
カメラ	-3269
改良	-3270
徳川	-3271
と同時に	-3272
ul	-3273
したのは	-3274
としていた	-3275
に達	-3276
だろう	-3277
テレビドラマ	-3278
ることが	-3279
2)	-3280
プロレス	-3281
▁g	-3282
所に	-3283
特定の	-3284
可能性がある	-3285
アス	-3286
▁で	-3287
世代	-3288
!」	-3289
証明	-3290
ist	-3291
コンサート	-3292
エスト	-3293
酸化	-3294
づけ	-3295
ウィン	-3296
ヴァイ	-3297
完全に	-3298
されると	-3299
ポジションは	-3300
ピソード	-3301
務省	-3302
を果たす	-3303
土地	-3304
朝の	-3305
通称	-3306
しの	-3307
るが	-3308
えない	-3309
なかったが	-3310
外交	-3311
国勢調査	-3312
美術館	-3313
これら	-3314
、2008	-3315
▁本作	-3316
ティブ	-3317
いわゆる	-3318
さまざまな	-3319
ie	-3320
拒否	-3321
に属する	-3322
医師	-3323
用語	-3324
移転	-3325
と一	-3326
▁12	-3327
スウェー	-3328
に着	-3329
創業	-3330
日は	-3331
ムの	-3332
ブラック	-3333
多かった	-3334
編入	-3335
の意	-3336
を指す	-3337
コス	-3338
ホル	-3339
使用された	-3340
シュタ	-3341
レート	-3342
、2007	-3343
必要がある	-3344
年代に	-3345
たと	-3346
翌年	-3347
を始め	-3348
気候	-3349
崩壊	-3350
▁2000	-3351
に渡	-3352
を重	-3353
のない	-3354
その後は	-3355
のちに	-3356
、2011	-3357
エド	-3358
)9	-3359
立場	-3360
!』	-3361
ドロ	-3362
市内	-3363
すべき	-3364
ヘッド	-3365
固定	-3366
ブラン	-3367
継承	-3368
は約	-3369
を投	-3370
藩主	-3371
やすい	-3372
、2006	-3373
すぎ	-3374
遺跡	-3375
カレ	-3376
従来の	-3377
その後も	-3378
続いて	-3379
ときに	-3380
体育	-3381
燃料	-3382
ワールドカップ	-3383
相互	-3384
鈴木	-3385
シップ	-3386
UN	-3387
に任命	-3388
と名	-3389
がっこう	-3390
を用いて	-3391
発言	-3392
を結成	-3393
ニン	-3394
インタビュー	-3395
リュー	-3396
97	-3397
イエ	-3398
形状	-3399
▁and	-3400
ess	-3401
▁de	-3402
2004	-3403
GP	-3404
結局	-3405
マリア	-3406
インディ	-3407
96	-3408
会社の	-3409
じゃ	-3410
させて	-3411
ッキー	-3412
られない	-3413
司令官	-3414
金融	-3415
存在した	-3416
修道	-3417
西洋	-3418
の世界	-3419
を提	-3420
っていない	-3421
次郎	-3422
されているが	-3423
で放送	-3424
ob	-3425
貿易	-3426
その他	-3427
の小	-3428
が起こ	-3429
ドライ	-3430
研究科	-3431
代わりに	-3432
過程	-3433
積極	-3434
低下	-3435
シュー	-3436
86	-3437
ベト	-3438
に近い	-3439
シーズンは	-3440
を守	-3441
ice	-3442
したと	-3443
がいる	-3444
アリー	-3445
初回	-3446
ネイ	-3447
文献	-3448
負傷	-3449
SS	-3450
▁天	-3451
レッ	-3452
を設置	-3453
デス	-3454
ラブ	-3455
に留	-3456
潜水	-3457
らすじ	-3458
を保	-3459
ive	-3460
低い	-3461
スリ	-3462
初頭	-3463
▁三	-3464
ビジ	-3465
などがある	-3466
ツァ	-3467
ok	-3468
多様	-3469
すでに	-3470
の両	-3471
行った	-3472
やがて	-3473
独自の	-3474
外部	-3475
翻訳	-3476
、15	-3477
それが	-3478
の娘	-3479
曲の	-3480
支払	-3481
▁2004	-3482
リリースされた	-3483
▁v	-3484
りつ	-3485
原則	-3486
名義	-3487
を終	-3488
ミス	-3489
絵画	-3490
)11	-3491
カール	-3492
作の	-3493
コンビ	-3494
収入	-3495
地帯	-3496
特定	-3497
注意	-3498
グランプリ	-3499
パク	-3500
田中	-3501
乗車	-3502
反乱	-3503
サッカー選手	-3504
72	-3505
ずつ	-3506
は日本	-3507
億円	-3508
一郎	-3509
の出	-3510
複数	-3511
最初に	-3512
ph	-3513
過ご	-3514
-6	-3515
こともあり	-3516
前半	-3517
古い	-3518
死去した	-3519
戦略	-3520
抵抗	-3521
武器	-3522
投資	-3523
、2012	-3524
と評	-3525
、190	-3526
ロボ	-3527
TBS	-3528
ベー	-3529
オーディ	-3530
判明	-3531
語で	-3532
フランク	-3533
アマ	-3534
数を	-3535
歩兵	-3536
東日本	-3537
UE	-3538
▁同	-3539
鎌倉	-3540
▁In	-3541
を主	-3542
サラ	-3543
.1	-3544
▁高	-3545
実業	-3546
興行	-3547
遺産	-3548
さい	-3549
へ向	-3550
自身が	-3551
アイルランド	-3552
モスク	-3553
の国	-3554
毎日	-3555
衛星	-3556
解放	-3557
ものを	-3558
ること	-3559
カタ	-3560
。10	-3561
に入った	-3562
を意味する	-3563
性格	-3564
電力	-3565
にあり	-3566
カラー	-3567
▁北	-3568
の北	-3569
三郎	-3570
モリ	-3571
早く	-3572
トレー	-3573
73	-3574
だい	-3575
基地	-3576
テナ	-3577
扱い	-3578
に関しては	-3579
.2	-3580
ではないか	-3581
スタジアム	-3582
セイ	-3583
会場	-3584
レーベル	-3585
学習	-3586
版の	-3587
合い	-3588
2023	-3589
広い	-3590
ハード	-3591
東京大学	-3592
アプリ	-3593
楽器	-3594
であるため	-3595
のメンバー	-3596
兵器	-3597
捜査	-3598
をリリース	-3599
の本	-3600
85	-3601
の内	-3602
信号	-3603
シック	-3604
作られた	-3605
どち	-3606
のマ	-3607
町村	-3608
、2013	-3609
エジ	-3610
長く	-3611
たび	-3612
末に	-3613
かれて	-3614
年からは	-3615
満た	-3616
あら	-3617
吉田	-3618
者も	-3619
キュー	-3620
できず	-3621
ハリ	-3622
フット	-3623
付けられた	-3624
ボク	-3625
選出	-3626
▁主な	-3627
ソナ	-3628
、2000	-3629
を除く	-3630
ならず	-3631
||0||	-3632
リーグの	-3633
ゲル	-3634
すぐに	-3635
ほどの	-3636
art	-3637
後には	-3638
政府は	-3639
をしている	-3640
元の	-3641
広告	-3642
現象	-3643
」)	-3644
まつ	-3645
取得	-3646
つまり	-3647
66	-3648
伊勢	-3649
に加え	-3650
大きい	-3651
確立	-3652
なって	-3653
RO	-3654
巻き	-3655
を与える	-3656
SP	-3657
ども	-3658
監督の	-3659
と並	-3660
ッピ	-3661
規格	-3662
を有する	-3663
ラグビー	-3664
発見された	-3665
集合	-3666
高く	-3667
マド	-3668
感じ	-3669
ポル	-3670
食品	-3671
(「	-3672
スル	-3673
フェル	-3674
ひろ	-3675
ソビエ	-3676
▁あらすじ	-3677
やり	-3678
本線	-3679
閉鎖	-3680
92	-3681
。5	-3682
ハル	-3683
を置く	-3684
ラテン	-3685
同様に	-3686
文化財	-3687
扱う	-3688
連隊	-3689
作品を	-3690
批評	-3691
フジテレビ	-3692
ET	-3693
の開発	-3694
。2010	-3695
頃から	-3696
わない	-3697
ソビエト	-3698
歌詞	-3699
スタント	-3700
が主	-3701
イラスト	-3702
チームは	-3703
71	-3704
育成	-3705
を放	-3706
新設	-3707
自らの	-3708
フは	-3709
和歌	-3710
ここで	-3711
フォーム	-3712
有効	-3713
フの	-3714
リュ	-3715
ウント	-3716
現在では	-3717
全く	-3718
wit	-3719
の戦い	-3720
プラン	-3721
SC	-3722
ハウ	-3723
分け	-3724
解釈	-3725
バレー	-3726
を開催	-3727
、2014	-3728
ヤマ	-3729
金の	-3730
ell	-3731
の中に	-3732
ウェル	-3733
2,	-3734
テロ	-3735
規則	-3736
の名称	-3737
を用いた	-3738
が現	-3739
プリン	-3740
▁元	-3741
停車	-3742
いき	-3743
打率	-3744
ジェイ	-3745
ロサン	-3746
ファミ	-3747
と考えられる	-3748
事が	-3749
。8	-3750
2003	-3751
類似	-3752
カトリック	-3753
pp	-3754
家に	-3755
推移	-3756
、2016	-3757
アシ	-3758
と言う	-3759
ギター	-3760
▁=	-3761
手の	-3762
むら	-3763
次第	-3764
金を	-3765
であることを	-3766
寺院	-3767
▁全	-3768
。7	-3769
ごう	-3770
によっては	-3771
医学	-3772
として活動	-3773
かの	-3774
に大	-3775
で優勝	-3776
、2018	-3777
ストロ	-3778
大学で	-3779
アム	-3780
富山	-3781
構想	-3782
コンク	-3783
ダブル	-3784
フランシ	-3785
公表	-3786
向けの	-3787
との関係	-3788
、2015	-3789
多くは	-3790
再生	-3791
収容	-3792
それに	-3793
事態	-3794
続いた	-3795
構築	-3796
自衛	-3797
が付	-3798
考える	-3799
強制	-3800
量は	-3801
を得る	-3802
を与えた	-3803
スペシャル	-3804
具体	-3805
ant	-3806
栽培	-3807
要請	-3808
.3	-3809
を形成	-3810
居住	-3811
自宅	-3812
ヴェル	-3813
を離	-3814
曲を	-3815
リアル	-3816
時代は	-3817
ティック	-3818
、2020	-3819
IM	-3820
組み合わせ	-3821
。17	-3822
通常の	-3823
レル	-3824
オーバー	-3825
▁2003	-3826
するも	-3827
うえ	-3828
▁出	-3829
▁15	-3830
続ける	-3831
に残	-3832
all	-3833
工学	-3834
立候補	-3835
やや	-3836
戦を	-3837
活用	-3838
兵庫県	-3839
ドラフト	-3840
おか	-3841
線は	-3842
Tub	-3843
、2017	-3844
、2019	-3845
に登場する	-3846
日本人	-3847
をか	-3848
を追	-3849
込まれ	-3850
登場した	-3851
希望	-3852
1990	-3853
に乗	-3854
佐藤	-3855
山田	-3856
著書	-3857
スペース	-3858
占領	-3859
務めた	-3860
になっていた	-3861
ティア	-3862
、(	-3863
代表取締役	-3864
飛び	-3865
と主張	-3866
クロス	-3867
エジプト	-3868
隣接する	-3869
一時	-3870
機が	-3871
レコー	-3872
以前の	-3873
69	-3874
87	-3875
ッケ	-3876
売却	-3877
業界	-3878
使われ	-3879
指示	-3880
登場人物	-3881
東海	-3882
可能である	-3883
で初	-3884
ill	-3885
キャスト	-3886
となったが	-3887
信仰	-3888
ダンス	-3889
モンド	-3890
とも呼ばれる	-3891
することになった	-3892
昇進	-3893
父は	-3894
リーム	-3895
="	-3896
に入る	-3897
で敗	-3898
アッ	-3899
あるが	-3900
予備	-3901
仏教	-3902
自転	-3903
番号は	-3904
ギリシャ	-3905
国鉄	-3906
長さ	-3907
埼玉県	-3908
ソフトウェア	-3909
再建	-3910
レクション	-3911
されない	-3912
グリーン	-3913
を得て	-3914
みに	-3915
クの	-3916
家が	-3917
。6	-3918
後述	-3919
政党	-3920
軍に	-3921
められている	-3922
BO	-3923
後期	-3924
収録されている	-3925
必ず	-3926
起源	-3927
つき	-3928
度も	-3929
のコ	-3930
書籍	-3931
単に	-3932
ジョー	-3933
性質	-3934
めていた	-3935
サポート	-3936
正式に	-3937
ファイル	-3938
ユーザー	-3939
知識	-3940
えていた	-3941
古く	-3942
曲は	-3943
衝突	-3944
申し	-3945
走行	-3946
に入学	-3947
ウェブ	-3948
2024	-3949
の最	-3950
められ	-3951
▁その他	-3952
消滅	-3953
締結	-3954
オート	-3955
サンド	-3956
で最も	-3957
わずか	-3958
車体	-3959
化し	-3960
天文	-3961
流行	-3962
加盟	-3963
義務	-3964
部を	-3965
ワイト	-3966
世界選手権	-3967
▁同年	-3968
ものであった	-3969
必要な	-3970
AV	-3971
たか	-3972
94	-3973
国会	-3974
空気	-3975
ヒュー	-3976
の死	-3977
ハム	-3978
トンネル	-3979
ネーム	-3980
、2005	-3981
弁護士	-3982
機動	-3983
エピソード	-3984
FL	-3985
変遷	-3986
財政	-3987
年以降	-3988
協定	-3989
川崎	-3990
カバー	-3991
が行われる	-3992
ブー	-3993
名で	-3994
部が	-3995
74	-3996
ゼルス	-3997
リアン	-3998
初め	-3999
車は	-4000
82	-4001
セプト	-4002
有名な	-4003
戦い	-4004
深夜	-4005
解決	-4006
チュア	-4007
契約を結	-4008
スイ	-4009
モノ	-4010
▁2025	-4011
▁一	-4012
号は	-4013
(2	-4014
%、	-4015
の人	-4016
グロ	-4017
ミサイル	-4018
スに	-4019
フライ	-4020
ヒル	-4021
共産党	-4022
所は	-4023
マスター	-4024
ブラジル	-4025
境界	-4026
東西	-4027
があるが	-4028
したものの	-4029
人民共和国	-4030
南西	-4031
河川	-4032
沿岸	-4033
時期に	-4034
91	-4035
93	-4036
万人	-4037
英国	-4038
ハンガ	-4039
不動	-4040
員は	-4041
指導者	-4042
を描いた	-4043
を担	-4044
するよう	-4045
83	-4046
YouTub	-4047
姉妹	-4048
2002	-4049
if	-4050
の先	-4051
プロダ	-4052
プレミア	-4053
ワシントン	-4054
▁e	-4055
▁近	-4056
ラボ	-4057
およそ	-4058
を始めた	-4059
リコ	-4060
向き	-4061
山本	-4062
▁11	-4063
は同	-4064
をあ	-4065
年齢	-4066
ことである	-4067
劇団	-4068
機は	-4069
類の	-4070
ベトナム	-4071
も含	-4072
MS	-4073
左右	-4074
を通して	-4075
ue	-4076
カット	-4077
、2004	-4078
利益	-4079
記者	-4080
世紀の	-4081
81	-4082
ホン	-4083
。12	-4084
されるが	-4085
手が	-4086
外の	-4087
をもた	-4088
差し	-4089
楽し	-4090
67	-4091
▁サ	-4092
明確	-4093
状の	-4094
人口は	-4095
決勝で	-4096
タレント	-4097
2001	-4098
藤原	-4099
書いた	-4100
シリーズの	-4101
話題	-4102
などは	-4103
出会	-4104
彼女の	-4105
点は	-4106
の一人	-4107
ge	-4108
年生	-4109
ランク	-4110
千葉県	-4111
機を	-4112
アクション	-4113
ML	-4114
に際	-4115
もり	-4116
いつ	-4117
発生した	-4118
海上	-4119
ate	-4120
AI	-4121
アクセス	-4122
場合もある	-4123
十字	-4124
col	-4125
したことで	-4126
個の	-4127
コミック	-4128
モーター	-4129
ルール	-4130
本拠	-4131
駅の	-4132
こそ	-4133
ナス	-4134
集中	-4135
人口の	-4136
頃に	-4137
まさ	-4138
参考	-4139
放射	-4140
を持た	-4141
時代から	-4142
の日	-4143
平方	-4144
と述べた	-4145
著名	-4146
テム	-4147
興味	-4148
上昇	-4149
急行	-4150
マッチ	-4151
▁プロ	-4152
委員長	-4153
がこの	-4154
アレク	-4155
ヴィル	-4156
専攻	-4157
輸入	-4158
ウォー	-4159
吸収	-4160
最多	-4161
していった	-4162
が担当	-4163
Ch	-4164
よし	-4165
資本	-4166
同様の	-4167
▁190	-4168
引き続き	-4169
体験	-4170
ect	-4171
テイン	-4172
卒業後	-4173
防御率	-4174
小型	-4175
演劇	-4176
護衛	-4177
程度の	-4178
稲田	-4179
ジャック	-4180
。2008	-4181
伊藤	-4182
改修	-4183
と対戦し	-4184
分割	-4185
持つ	-4186
観客	-4187
現実	-4188
84	-4189
高さ	-4190
政府の	-4191
守備	-4192
正確	-4193
our	-4194
ud	-4195
依存	-4196
付けた	-4197
OV	-4198
▁コ	-4199
アウ	-4200
宮崎	-4201
テレビアニメ	-4202
AK	-4203
が増	-4204
を破	-4205
ゆう	-4206
伸び	-4207
ジェーム	-4208
おう	-4209
の生	-4210
ik	-4211
バーグ	-4212
ホワイト	-4213
発足	-4214
決定した	-4215
活性	-4216
戦車	-4217
言い	-4218
青年	-4219
コロナ	-4220
メディ	-4221
ローズ	-4222
にし	-4223
世界の	-4224
ight	-4225
創立	-4226
を発表した	-4227
予想	-4228
古典	-4229
挙げられる	-4230
se	-4231
特急	-4232
チェンジ	-4233
ントリー	-4234
AG	-4235
勢力	-4236
が高い	-4237
休止	-4238
深い	-4239
なん	-4240
を備	-4241
フィル	-4242
カロ	-4243
諸国	-4244
。2009	-4245
▁オ	-4246
つく	-4247
の一種	-4248
字は	-4249
建設された	-4250
授与	-4251
かって	-4252
試合に	-4253
放送の	-4254
保守	-4255
法を	-4256
▁Ch	-4257
入れた	-4258
時代には	-4259
線で	-4260
イオン	-4261
上げる	-4262
緒に	-4263
タンパク	-4264
予算	-4265
が不	-4266
点の	-4267
コミュニティ	-4268
タク	-4269
ニス	-4270
一覧	-4271
上映	-4272
複雑	-4273
名誉教授	-4274
各種	-4275
国王	-4276
ずに	-4277
バレ	-4278
働き	-4279
年連続	-4280
田は	-4281
ライダー	-4282
▁n	-4283
北京	-4284
局長	-4285
▁明治	-4286
始まり	-4287
彼らの	-4288
79	-4289
清水	-4290
海軍の	-4291
io	-4292
修了	-4293
寺の	-4294
顧問	-4295
中国の	-4296
されなかった	-4297
めぐ	-4298
)、『	-4299
修正	-4300
徳島	-4301
ソンは	-4302
中には	-4303
ity	-4304
文庫	-4305
趣味	-4306
は不明	-4307
▁2002	-4308
end	-4309
まって	-4310
トルコ	-4311
められる	-4312
ッキ	-4313
ナの	-4314
化する	-4315
合流	-4316
若い	-4317
兵士	-4318
シート	-4319
、1990	-4320
かわ	-4321
団法人	-4322
モスクワ	-4323
。9	-4324
進行	-4325
ムーネ	-4326
▁1990	-4327
少し	-4328
ロバート	-4329
することも	-4330
レコーディング	-4331
に一	-4332
現在も	-4333
時点では	-4334
割り	-4335
のみで	-4336
臨時	-4337
象徴	-4338
IFA	-4339
しまい	-4340
リーダー	-4341
に就	-4342
材料	-4343
科大学	-4344
スパ	-4345
動作	-4346
えき	-4347
タリー	-4348
創刊	-4349
標高	-4350
補助	-4351
、2021	-4352
間は	-4353
ました	-4354
ベルリン	-4355
イスラエル	-4356
項目	-4357
で一	-4358
毎週	-4359
逃げ	-4360
分子	-4361
消防	-4362
星の	-4363
でプレー	-4364
が起	-4365
代理	-4366
戦隊	-4367
装甲	-4368
遠征	-4369
哲学	-4370
武蔵	-4371
々と	-4372
画像	-4373
。2011	-4374
場面	-4375
化の	-4376
彼が	-4377
span	-4378
フィルム	-4379
。11	-4380
ロサンゼルス	-4381
の二	-4382
を使って	-4383
スと	-4384
措置	-4385
人間の	-4386
スクール	-4387
に仕	-4388
免許	-4389
手を	-4390
万ドル	-4391
基本的に	-4392
三菱	-4393
新宿	-4394
を用いる	-4395
プロダクション	-4396
トム	-4397
▁西	-4398
グロー	-4399
に影響	-4400
レスト	-4401
使用されている	-4402
推薦	-4403
クイ	-4404
交代	-4405
国境	-4406
日本国	-4407
に加入	-4408
の不	-4409
下で	-4410
信頼	-4411
くら	-4412
は前	-4413
武装	-4414
早稲田	-4415
点から	-4416
実際には	-4417
がなく	-4418
郡の	-4419
▁2001	-4420
。2012	-4421
アメリカン	-4422
タンパク質	-4423
ドア	-4424
新型	-4425
IP	-4426
.4	-4427
入学	-4428
逆に	-4429
活躍した	-4430
描写	-4431
という意味	-4432
レーター	-4433
サム	-4434
駆逐艦	-4435
言及	-4436
半ば	-4437
歴代	-4438
に由来する	-4439
幹線	-4440
コマ	-4441
従来	-4442
松本	-4443
街道	-4444
言う	-4445
でない	-4446
を作り	-4447
▁0	-4448
ort	-4449
に伴う	-4450
サウンド	-4451
市にある	-4452
日本代表	-4453
考慮	-4454
アニメーション	-4455
相撲	-4456
ran	-4457
。2007	-4458
性は	-4459
社が	-4460
震災	-4461
1980	-4462
連携	-4463
とおり	-4464
同時	-4465
年と	-4466
携帯	-4467
福祉	-4468
評論	-4469
のだ	-4470
ホイ	-4471
有力	-4472
In	-4473
高度	-4474
ーンズ	-4475
場合には	-4476
主題	-4477
記憶	-4478
を表明	-4479
入れる	-4480
こち	-4481
ログ	-4482
公認	-4483
コロン	-4484
爆発	-4485
映画の	-4486
潜水艦	-4487
その後の	-4488
コムーネ	-4489
は不	-4490
位で	-4491
150	-4492
を表す	-4493
内には	-4494
グランド	-4495
みな	-4496
オフィ	-4497
最優秀	-4498
パフォー	-4499
かく	-4500
沿革	-4501
資源	-4502
地下鉄	-4503
サブ	-4504
事情	-4505
青森	-4506
エフ	-4507
植民地	-4508
に参加した	-4509
の家	-4510
入団	-4511
駅である	-4512
ことにより	-4513
(3	-4514
(『	-4515
おこ	-4516
混乱	-4517
ows	-4518
に比べ	-4519
を変	-4520
長期	-4521
ッター	-4522
一般的な	-4523
、2022	-4524
天然	-4525
。2016	-4526
まち	-4527
メッセ	-4528
グラフィ	-4529
ブレーキ	-4530
コンセプト	-4531
GM	-4532
りが	-4533
週刊	-4534
帝国の	-4535
世帯数と	-4536
一般に	-4537
を兼	-4538
などと	-4539
アミ	-4540
在学	-4541
ジット	-4542
テッド	-4543
年間の	-4544
東洋	-4545
に向けて	-4546
部に位置	-4547
アート	-4548
中は	-4549
▁交通	-4550
付ける	-4551
ウイルス	-4552
王者	-4553
神話	-4554
訴訟	-4555
の歴史	-4556
が描	-4557
刑事	-4558
血液	-4559
ナメント	-4560
らなかった	-4561
開発された	-4562
の一つである	-4563
知り	-4564
世帯数と人口	-4565
伯爵	-4566
を上	-4567
日本で	-4568
流れる	-4569
▁リ	-4570
大賞	-4571
子に	-4572
と同じく	-4573
リスク	-4574
バスケット	-4575
を聞	-4576
試合で	-4577
EM	-4578
を負	-4579
ビジネス	-4580
シーズンの	-4581
を探	-4582
分に	-4583
エティ	-4584
に終わった	-4585
ニッ	-4586
中学	-4587
それまで	-4588
のお	-4589
新人	-4590
法は	-4591
かなり	-4592
の水	-4593
所で	-4594
ワイン	-4595
福井	-4596
とり	-4597
辞任	-4598
ブライ	-4599
じん	-4600
繋が	-4601
滞在	-4602
OL	-4603
▁当	-4604
完了	-4605
ha	-4606
スポ	-4607
に従事	-4608
チーフ	-4609
開発した	-4610
TR	-4611
800	-4612
は本	-4613
整理	-4614
であれば	-4615
ev	-4616
。2015	-4617
OC	-4618
仲間	-4619
全米	-4620
防止	-4621
大学大学院	-4622
を持っている	-4623
▁各	-4624
スウェーデン	-4625
らしい	-4626
学術	-4627
模様	-4628
を求める	-4629
大規模な	-4630
中村	-4631
ポルトガル	-4632
鉄道の	-4633
賞を受賞した	-4634
唯一	-4635
通過	-4636
に到着	-4637
大きさ	-4638
極めて	-4639
、1980	-4640
マネ	-4641
田の	-4642
の際に	-4643
エンター	-4644
先行	-4645
号の	-4646
生命	-4647
襲撃	-4648
ラリー	-4649
ガンダム	-4650
に沿	-4651
物理	-4652
議長	-4653
が実施	-4654
収録曲	-4655
。2013	-4656
と思われる	-4657
ff	-4658
かが	-4659
回目の	-4660
を超える	-4661
メロ	-4662
違反	-4663
画面	-4664
モンゴル	-4665
▁("	-4666
▁一方	-4667
を歴任	-4668
ベット	-4669
兵衛	-4670
パワー	-4671
全体の	-4672
を目指す	-4673
フォーク	-4674
ry	-4675
戦に	-4676
需要	-4677
駅は	-4678
バード	-4679
以前は	-4680
その結果	-4681
れていた	-4682
体重	-4683
シリア	-4684
合意	-4685
町に	-4686
これらは	-4687
南東	-4688
-19	-4689
効率	-4690
年で	-4691
オンライン	-4692
)』	-4693
測定	-4694
用に	-4695
してしまう	-4696
群馬	-4697
容易	-4698
移行	-4699
流域	-4700
表面	-4701
。2006	-4702
ドライバー	-4703
▁山	-4704
に上	-4705
キア	-4706
年の第	-4707
するようになった	-4708
王子	-4709
シカゴ	-4710
に選出された	-4711
かを	-4712
NS	-4713
作り	-4714
を命	-4715
ナチ	-4716
▁東京	-4717
1999	-4718
ミッション	-4719
600	-4720
びに	-4721
区分	-4722
が成立	-4723
くなる	-4724
戦国	-4725
量が	-4726
日に行われた	-4727
.7	-4728
かし	-4729
包囲	-4730
点が	-4731
、2003	-4732
と呼ばれた	-4733
爆撃	-4734
IG	-4735
ラは	-4736
▁代表	-4737
書かれた	-4738
やく	-4739
ロケット	-4740
換え	-4741
相談	-4742
緊急	-4743
に加えて	-4744
ss	-4745
ながらも	-4746
即位	-4747
。2019	-4748
ねた	-4749
であることが	-4750
▁ス	-4751
▁日	-4752
しろ	-4753
なもの	-4754
秘密	-4755
にまで	-4756
よい	-4757
三重	-4758
示す	-4759
を大	-4760
投入	-4761
ハンド	-4762
フィア	-4763
交響	-4764
単行	-4765
警備	-4766
本作の	-4767
社会主義	-4768
男女	-4769
職員	-4770
別に	-4771
投稿	-4772
自転車	-4773
を基	-4774
ポスト	-4775
テインメント	-4776
デモ	-4777
号線	-4778
買い	-4779
福岡県	-4780
部分は	-4781
たとえば	-4782
、2023	-4783
SU	-4784
合同	-4785
平安	-4786
従業	-4787
手段	-4788
文学部	-4789
ew	-4790
のも	-4791
開通	-4792
。2014	-4793
進学	-4794
を始める	-4795
スコットランド	-4796
連の	-4797
長男	-4798
1970	-4799
『』	-4800
発電所	-4801
を挙げた	-4802
終了した	-4803
に代	-4804
八幡	-4805
でもあった	-4806
申請	-4807
盛り	-4808
から出	-4809
YouTube	-4810
次第に	-4811
。2017	-4812
.6	-4813
で活動	-4814
ギリシア	-4815
現場	-4816
-4	-4817
▁イ	-4818
のひとつ	-4819
されるようになった	-4820
ウィル	-4821
hi	-4822
取材	-4823
月末	-4824
病気	-4825
が設け	-4826
をしていた	-4827
と語っている	-4828
似た	-4829
突き	-4830
そんな	-4831
ソニー	-4832
自民	-4833
証拠	-4834
輸出	-4835
調べ	-4836
ディズ	-4837
の存在	-4838
))	-4839
バンク	-4840
他にも	-4841
提携	-4842
開設	-4843
内部	-4844
曲が	-4845
ノース	-4846
ロシアの	-4847
IA	-4848
午前	-4849
年代の	-4850
ケイ	-4851
既存	-4852
年代後半	-4853
振興	-4854
ヘンリー	-4855
院議員	-4856
ディスク	-4857
内は	-4858
者と	-4859
を作る	-4860
ミナル	-4861
。190	-4862
OW	-4863
らせ	-4864
▁第二	-4865
に相当	-4866
クトル	-4867
番目の	-4868
を再	-4869
実質	-4870
ord	-4871
は第	-4872
台の	-4873
後継	-4874
はなく	-4875
地元の	-4876
IR	-4877
の外	-4878
流の	-4879
ソース	-4880
コメント	-4881
。2018	-4882
マッ	-4883
姿勢	-4884
▁Y	-4885
っとも	-4886
を展開	-4887
月場所	-4888
このとき	-4889
世が	-4890
職業	-4891
種類の	-4892
。2005	-4893
上位	-4894
印刷	-4895
参謀	-4896
大和	-4897
戦死	-4898
地方の	-4899
抗議	-4900
DS	-4901
に引き	-4902
ミッド	-4903
使われている	-4904
▁X	-4905
オペラ	-4906
生まれる	-4907
選手権大会	-4908
BM	-4909
パーソナ	-4910
両親	-4911
は以下の通りである	-4912
人工	-4913
元々	-4914
現存	-4915
に関連	-4916
静岡県	-4917
少なくとも	-4918
主要な	-4919
作曲家	-4920
側面	-4921
日付で	-4922
方を	-4923
災害	-4924
用意	-4925
ラント	-4926
流通	-4927
複合	-4928
軍人	-4929
学校の	-4930
ハンガリー	-4931
が決	-4932
来る	-4933
、14	-4934
に基づき	-4935
.8	-4936
アレ	-4937
使い	-4938
の神	-4939
司法	-4940
ヴァル	-4941
大阪市	-4942
int	-4943
地が	-4944
選抜	-4945
事件の	-4946
出身の元	-4947
演技	-4948
無料	-4949
選挙区	-4950
北西	-4951
one	-4952
マンス	-4953
マンの	-4954
ヴィン	-4955
的である	-4956
いか	-4957
この時	-4958
のリ	-4959
見解	-4960
ナルド	-4961
行われている	-4962
士官	-4963
復興	-4964
推測	-4965
次元	-4966
発射	-4967
などから	-4968
もとも	-4969
ものであり	-4970
ES	-4971
石油	-4972
モーション	-4973
領土	-4974
きり	-4975
格闘	-4976
確定	-4977
をもつ	-4978
長野県	-4979
らも	-4980
に復帰	-4981
徐々に	-4982
ox	-4983
を着	-4984
ドラゴン	-4985
に反	-4986
ズが	-4987
安打	-4988
差別	-4989
たる	-4990
故障	-4991
期限	-4992
スポン	-4993
ックの	-4994
』、	-4995
吹き	-4996
インチ	-4997
を目的	-4998
イスラム	-4999
しょ	-5000
体に	-5001
転換	-5002
フットボール	-5003
FM	-5004
フリ	-5005
前後	-5006
費用	-5007
マニア	-5008
1998	-5009
商店	-5010
誘導	-5011
譲渡	-5012
lay	-5013
メール	-5014
久保	-5015
ast	-5016
ショップ	-5017
に送	-5018
議席	-5019
がその	-5020
のに対し	-5021
フー	-5022
用途	-5023
暗殺	-5024
書の	-5025
駅舎	-5026
の一環	-5027
年後の	-5028
に生まれる	-5029
事例	-5030
身長	-5031
ore	-5032
ラウンド	-5033
lu	-5034
に配	-5035
ートの	-5036
に寄	-5037
始め	-5038
渋谷	-5039
年現在	-5040
打撃	-5041
非難	-5042
停留	-5043
バスケットボール	-5044
を飾	-5045
チル	-5046
育て	-5047
運営する	-5048
エク	-5049
を使う	-5050
に進学	-5051
内容は	-5052
▁w	-5053
に基づいて	-5054
促進	-5055
会見	-5056
診断	-5057
の作品	-5058
ゴルフ	-5059
ジャンプ	-5060
マイナー	-5061
に陥	-5062
ッタ	-5063
総督	-5064
トーク	-5065
しばらく	-5066
込まれた	-5067
、2002	-5068
はず	-5069
経路	-5070
電動	-5071
▁||	-5072
を経由	-5073
プラット	-5074
メートルの	-5075
弟子	-5076
接触	-5077
ビッグ	-5078
を持った	-5079
オーディション	-5080
が下	-5081
追放	-5082
プラス	-5083
プレス	-5084
が行われている	-5085
バーン	-5086
ベルギー	-5087
MC	-5088
たく	-5089
北東	-5090
回る	-5091
ルイス	-5092
修道院	-5093
これまで	-5094
ガラ	-5095
▁1980	-5096
の原	-5097
未来	-5098
物は	-5099
証言	-5100
ソンの	-5101
廃止された	-5102
道を	-5103
ライセン	-5104
ロゴ	-5105
じている	-5106
indows	-5107
ドーム	-5108
保有	-5109
ユース	-5110
グループの	-5111
モア	-5112
目は	-5113
えられている	-5114
ゲイ	-5115
意図	-5116
くと	-5117
1995	-5118
イタリアの	-5119
が発表された	-5120
eg	-5121
を踏	-5122
パートナー	-5123
伝承	-5124
優先	-5125
手に	-5126
的で	-5127
出して	-5128
出来る	-5129
住居	-5130
殺人	-5131
やって	-5132
げて	-5133
の中には	-5134
どの	-5135
手術	-5136
白い	-5137
繁殖	-5138
の間に	-5139
クロー	-5140
想定	-5141
観察	-5142
次いで	-5143
参加した	-5144
に分類される	-5145
ライター	-5146
適切	-5147
実際の	-5148
からである	-5149
戦は	-5150
▁1999	-5151
メッセージ	-5152
を招	-5153
したことを	-5154
プス	-5155
相続	-5156
機関車	-5157
トーナメント	-5158
人も	-5159
レクター	-5160
共有	-5161
功績	-5162
様式	-5163
駅から	-5164
火災	-5165
部品	-5166
ジャイ	-5167
そのような	-5168
WA	-5169
1996	-5170
開催される	-5171
OP	-5172
上は	-5173
地名	-5174
ごく	-5175
加藤	-5176
▁パ	-5177
に入社	-5178
オープニング	-5179
法が	-5180
▁14	-5181
へ移籍	-5182
ストの	-5183
チームが	-5184
したい	-5185
日発売	-5186
「」	-5187
さえ	-5188
ヒロ	-5189
国防	-5190
場合がある	-5191
フランシスコ	-5192
回り	-5193
急速	-5194
代替	-5195
財産	-5196
のまま	-5197
▁沿革	-5198
契約を	-5199
ることができる	-5200
ED	-5201
栃木	-5202
短期	-5203
の下で	-5204
過去の	-5205
設置された	-5206
合う	-5207
ソウル	-5208
の全	-5209
ミリ	-5210
方言	-5211
マイクロ	-5212
積極的に	-5213
に選ばれた	-5214
EL	-5215
を喫	-5216
単純	-5217
の中央	-5218
されてきた	-5219
区画	-5220
ロング	-5221
山形	-5222
感情	-5223
突破	-5224
場を	-5225
▁1998	-5226
の再	-5227
テネ	-5228
モデ	-5229
監視	-5230
を導入	-5231
エス	-5232
短い	-5233
連結	-5234
にとど	-5235
、2001	-5236
ノイ	-5237
奴隷	-5238
深く	-5239
田市	-5240
しつつ	-5241
京都府	-5242
電鉄	-5243
チャード	-5244
激しい	-5245
に成功した	-5246
けい	-5247
最後	-5248
次男	-5249
に移転	-5250
1997	-5251
▁ストーリー	-5252
到達	-5253
、13	-5254
ネシア	-5255
プール	-5256
ポップ	-5257
捨て	-5258
を構成	-5259
に貢献した	-5260
が置	-5261
ヤル	-5262
を代表	-5263
トライ	-5264
フィリピン	-5265
ファッション	-5266
colspan	-5267
▁〜	-5268
と大	-5269
を築	-5270
関数	-5271
に選出	-5272
期は	-5273
東映	-5274
経由	-5275
として知られる	-5276
埋葬	-5277
ジャズ	-5278
▁である	-5279
ッピング	-5280
入口	-5281
印象	-5282
幼少	-5283
バラエティ	-5284
UR	-5285
を強	-5286
SF	-5287
当該	-5288
援助	-5289
課題	-5290
単行本	-5291
クラシック	-5292
トヨ	-5293
ian	-5294
蒸気	-5295
ert	-5296
ットは	-5297
司会	-5298
を行っていた	-5299
きの	-5300
と記	-5301
ポンド	-5302
を越	-5303
無線	-5304
に乗り	-5305
に掲載	-5306
実業家	-5307
共和国の	-5308
ジャケット	-5309
の同	-5310
マニ	-5311
。2020	-5312
ヤード	-5313
の中でも	-5314
収録された	-5315
体系	-5316
呼称	-5317
大会で	-5318
ディズニー	-5319
を受けている	-5320
国土	-5321
手紙	-5322
症状	-5323
シェル	-5324
離れた	-5325
▁・	-5326
戦艦	-5327
音声	-5328
生成	-5329
該当	-5330
風の	-5331
の主要	-5332
を中心とした	-5333
ジム	-5334
脱退	-5335
を見て	-5336
に応じて	-5337
マイケル	-5338
数学	-5339
かかる	-5340
を支持	-5341
マネー	-5342
氏は	-5343
バッハ	-5344
するまで	-5345
ブレイ	-5346
天皇の	-5347
始まった	-5348
がん	-5349
区に	-5350
土曜	-5351
度が	-5352
ならば	-5353
それらの	-5354
連覇	-5355
地である	-5356
女性の	-5357
、1970	-5358
守護	-5359
チャールズ	-5360
称号	-5361
結び	-5362
われて	-5363
ストリート	-5364
▁ハ	-5365
教皇	-5366
継が	-5367
和歌山	-5368
武田	-5369
目で	-5370
ちゅう	-5371
優れた	-5372
パイロット	-5373
軍団	-5374
スパイ	-5375
であるという	-5376
残り	-5377
ったり	-5378
の対象	-5379
を立て	-5380
地区の	-5381
周辺の	-5382
定着	-5383
級の	-5384
隊は	-5385
ライフ	-5386
出する	-5387
略称	-5388
大分	-5389
▁出演	-5390
期には	-5391
"(	-5392
保障	-5393
小田	-5394
楽団	-5395
さない	-5396
完成した	-5397
通行	-5398
一般的に	-5399
したがって	-5400
年シーズン	-5401
日本テレビ	-5402
来日	-5403
ユーロ	-5404
▁l	-5405
にいた	-5406
込んで	-5407
海の	-5408
TT	-5409
空の	-5410
操縦	-5411
状態で	-5412
離脱	-5413
を繰り返	-5414
ビット	-5415
ステーション	-5416
CE	-5417
疾患	-5418
名称は	-5419
経過	-5420
ure	-5421
にちな	-5422
トレード	-5423
ラッ	-5424
処刑	-5425
解体	-5426
負担	-5427
須賀	-5428
ラーは	-5429
時間は	-5430
年末	-5431
政治的	-5432
らと	-5433
改札	-5434
放映	-5435
時間が	-5436
高速道路	-5437
タール	-5438
バトル	-5439
当たり	-5440
当初の	-5441
なす	-5442
酵素	-5443
の関係	-5444
SA	-5445
が悪	-5446
しゅ	-5447
絶対	-5448
250	-5449
任意	-5450
ジェン	-5451
大学教授	-5452
ジェームズ	-5453
ib	-5454
ステークス	-5455
PG	-5456
山脈	-5457
資産	-5458
採用された	-5459
城の	-5460
屋敷	-5461
現地	-5462
要因	-5463
を担当した	-5464
同一	-5465
を続け	-5466
を記録し	-5467
名の由来	-5468
するように	-5469
ke	-5470
さと	-5471
ロウ	-5472
巡洋	-5473
▁13	-5474
を建設	-5475
クリー	-5476
映画祭	-5477
衆議院議員総選挙	-5478
ゲー	-5479
田村	-5480
移民	-5481
を継承	-5482
コピー	-5483
で初めて	-5484
佐賀	-5485
関心	-5486
する事	-5487
勃発	-5488
編曲	-5489
デンマーク	-5490
屋根	-5491
森林	-5492
をして	-5493
した場合	-5494
カス	-5495
チア	-5496
暴力	-5497
書記	-5498
ドキュ	-5499
あと	-5500
空軍	-5501
リット	-5502
▁以下	-5503
北朝鮮	-5504
の各	-5505
社は	-5506
近郊	-5507
雇用	-5508
トヨタ	-5509
の際	-5510
リヒ	-5511
自殺	-5512
行く	-5513
up	-5514
ゲート	-5515
終わり	-5516
コンテン	-5517
ネタ	-5518
者や	-5519
司教	-5520
種は	-5521
金沢	-5522
が認め	-5523
連れて	-5524
員として	-5525
線路	-5526
に昇格	-5527
レオン	-5528
ロボット	-5529
含まれている	-5530
科の	-5531
解析	-5532
、1998	-5533
から発売された	-5534
四国	-5535
犠牲	-5536
に際して	-5537
のではないか	-5538
助け	-5539
相対	-5540
時から	-5541
オリンピックの	-5542
高橋	-5543
を対象	-5544
使用する	-5545
カリフォルニア州	-5546
あい	-5547
すと	-5548
之助	-5549
応援	-5550
機体	-5551
竣工	-5552
クリア	-5553
トランス	-5554
少将	-5555
理事長	-5556
しも	-5557
を果たし	-5558
年ぶりに	-5559
。2021	-5560
qu	-5561
で大	-5562
良く	-5563
az	-5564
▁旧	-5565
を名	-5566
付属	-5567
います	-5568
を通過	-5569
議会議員	-5570
時計	-5571
競争	-5572
ドルの	-5573
1994	-5574
ウェスト	-5575
。)	-5576
型は	-5577
仕事を	-5578
を迎えた	-5579
出演した	-5580
であったため	-5581
マグ	-5582
同月	-5583
止め	-5584
目を	-5585
題材	-5586
。16	-5587
:"	-5588
CP	-5589
原題	-5590
降伏	-5591
西武	-5592
造船	-5593
大会の	-5594
。2004	-5595
こともあった	-5596
ツー	-5597
今日	-5598
気象	-5599
助教授	-5600
カレッジ	-5601
三振	-5602
在住	-5603
あらゆる	-5604
▁長	-5605
。。	-5606
再度	-5607
渡辺	-5608
180	-5609
を描く	-5610
教会の	-5611
駆け	-5612
(14	-5613
プロデュース	-5614
根拠	-5615
続編	-5616
スケート	-5617
陸上競技	-5618
版が	-5619
約束	-5620
レビュー	-5621
当主	-5622
を発見	-5623
ヴィー	-5624
MA	-5625
を選	-5626
将来	-5627
航空機	-5628
こく	-5629
に同	-5630
バスの	-5631
クレジット	-5632
千代	-5633
案内	-5634
モント	-5635
であろう	-5636
ビジョン	-5637
わっている	-5638
回衆議院議員総選挙	-5639
水の	-5640
タッグ	-5641
考えた	-5642
そのうち	-5643
コレクション	-5644
養子	-5645
ばかり	-5646
マガ	-5647
侵入	-5648
館の	-5649
▁解説	-5650
小さい	-5651
キャッチ	-5652
エンディング	-5653
イラン	-5654
ディス	-5655
キャンプ	-5656
、1960	-5657
"|	-5658
おそ	-5659
亡くなった	-5660
分岐	-5661
対抗	-5662
撤去	-5663
料金	-5664
ねて	-5665
強力	-5666
損害	-5667
、1997	-5668
スポンサー	-5669
騎士	-5670
アイス	-5671
エール	-5672
を収めた	-5673
があったが	-5674
hy	-5675
化を	-5676
証券	-5677
新規	-5678
短編	-5679
ローカル	-5680
大震災	-5681
フィリップ	-5682
したものである	-5683
午後	-5684
課長	-5685
に次ぐ	-5686
かつての	-5687
テキサス	-5688
中華人民共和国	-5689
先の	-5690
厚生	-5691
と表記	-5692
掛けた	-5693
一人	-5694
家臣	-5695
師事	-5696
面積は	-5697
▁for	-5698
との間に	-5699
ほん	-5700
年夏	-5701
ang	-5702
を渡	-5703
共演	-5704
大字	-5705
授業	-5706
と比較	-5707
マンは	-5708
始める	-5709
ブラウン	-5710
一度	-5711
紛争	-5712
分解	-5713
局は	-5714
表彰	-5715
▁日本では	-5716
(7	-5717
▁南	-5718
を巡	-5719
川は	-5720
を使った	-5721
、1995	-5722
ly	-5723
スロ	-5724
ゾン	-5725
ネマ	-5726
NP	-5727
が加	-5728
宣伝	-5729
炭素	-5730
エンド	-5731
ラーの	-5732
ヨン	-5733
中部	-5734
市は	-5735
有限	-5736
移住	-5737
-10	-5738
マレー	-5739
西日本	-5740
キロメートル	-5741
かす	-5742
モル	-5743
るため	-5744
を維持	-5745
試合の	-5746
用いられた	-5747
(、	-5748
▁!	-5749
側が	-5750
明る	-5751
(13	-5752
前述の	-5753
1993	-5754
先に	-5755
どこ	-5756
アは	-5757
出力	-5758
合格	-5759
ミュージシャン	-5760
修士	-5761
寄せ	-5762
もない	-5763
を記念	-5764
UEFA	-5765
、1999	-5766
ほとんどの	-5767
ボクシング	-5768
を無	-5769
川が	-5770
パーソナリティ	-5771
DA	-5772
戦争の	-5773
史料	-5774
ウルト	-5775
ee	-5776
車が	-5777
ナリスト	-5778
次に	-5779
無い	-5780
非常	-5781
派生	-5782
フロント	-5783
ステル	-5784
▁戦	-5785
を見せ	-5786
姿を	-5787
修理	-5788
頭に	-5789
アルゼン	-5790
枚目のシングル	-5791
することとなった	-5792
損傷	-5793
本名	-5794
男爵	-5795
の意味	-5796
ブック	-5797
マシン	-5798
両編成	-5799
1991	-5800
▁1997	-5801
、1994	-5802
の総	-5803
元は	-5804
投げ	-5805
請求	-5806
町にある	-5807
方は	-5808
5000	-5809
焼き	-5810
ニューアル	-5811
が与	-5812
山城	-5813
降格	-5814
スイス	-5815
成果	-5816
駅前	-5817
ねる	-5818
上演	-5819
物が	-5820
駆動	-5821
を残した	-5822
独立した	-5823
日曜	-5824
を満た	-5825
自分が	-5826
水素	-5827
神宮	-5828
人として	-5829
TS	-5830
権限	-5831
ボーカル	-5832
使われた	-5833
のパ	-5834
の直	-5835
愛称	-5836
故郷	-5837
ねん	-5838
盛ん	-5839
自社	-5840
ッケージ	-5841
されたため	-5842
もん	-5843
を伝	-5844
カッ	-5845
に通う	-5846
、1996	-5847
ざる	-5848
イレ	-5849
岩手	-5850
アイテム	-5851
ジェット	-5852
小林	-5853
最近	-5854
たちに	-5855
ピーター	-5856
半分	-5857
戦士	-5858
初出場	-5859
▁The	-5860
上海	-5861
彫刻	-5862
抜き	-5863
退団	-5864
が始まった	-5865
が見られる	-5866
が得	-5867
死刑	-5868
▁特徴	-5869
▁現在	-5870
伝統的な	-5871
▁1996	-5872
、1992	-5873
かず	-5874
分裂	-5875
前作	-5876
及ぶ	-5877
ゲームの	-5878
IL	-5879
▁正	-5880
をし	-5881
最低	-5882
ばれ	-5883
ニョ	-5884
点に	-5885
とも言	-5886
ブリッジ	-5887
年ぶりの	-5888
早稲田大学	-5889
装飾	-5890
離婚	-5891
するか	-5892
するのは	-5893
で放送された	-5894
と伝	-5895
上がり	-5896
▁r	-5897
を引	-5898
ナは	-5899
建立	-5900
バース	-5901
取った	-5902
岐阜県	-5903
張り	-5904
制覇	-5905
海洋	-5906
省の	-5907
附属	-5908
コラボ	-5909
ところが	-5910
てん	-5911
ワル	-5912
月刊	-5913
シンガ	-5914
店の	-5915
おそらく	-5916
幅に	-5917
時間を	-5918
官の	-5919
現行	-5920
足利	-5921
も多い	-5922
公式サイト	-5923
たが	-5924
ボス	-5925
例外	-5926
広場	-5927
センチ	-5928
示唆	-5929
連勝	-5930
ION	-5931
▁to	-5932
の中では	-5933
、2024	-5934
ファースト	-5935
プロ野球選手	-5936
西側	-5937
あたり	-5938
頭の	-5939
ide	-5940
つける	-5941
年度の	-5942
に限	-5943
イェ	-5944
往復	-5945
打点	-5946
本来	-5947
エルン	-5948
ではなかった	-5949
3,	-5950
家督	-5951
退職	-5952
ワイド	-5953
専門学校	-5954
度を	-5955
ッズ	-5956
募集	-5957
行な	-5958
ないし	-5959
プロセ	-5960
しかしながら	-5961
ソビエト連邦	-5962
全員	-5963
が追加	-5964
フィンランド	-5965
数字	-5966
直し	-5967
笑い	-5968
用いる	-5969
に向かう	-5970
大会では	-5971
▁アメリカ	-5972
に変更された	-5973
らに	-5974
予測	-5975
敗北	-5976
船の	-5977
苦し	-5978
ヤング	-5979
リウス	-5980
好きな	-5981
広島県	-5982
が大きく	-5983
引退した	-5984
)(	-5985
池田	-5986
オーケ	-5987
プション	-5988
au	-5989
クは	-5990
未満	-5991
騎兵	-5992
▁ミ	-5993
ネン	-5994
使う	-5995
府県	-5996
役で	-5997
漢字	-5998
イナー	-5999
。2000	-6000
石川	-6001
クソン	-6002
年代から	-6003
導入された	-6004
っぱ	-6005
セミ	-6006
ビュ	-6007
チック	-6008
放送局	-6009
という言葉	-6010
ファイナル	-6011
MV	-6012
スプ	-6013
会で	-6014
周波	-6015
ことや	-6016
新潟県	-6017
立った	-6018
に就任し	-6019
年までに	-6020
▁1970	-6021
▁バ	-6022
山は	-6023
巡洋艦	-6024
セロ	-6025
音源	-6026
自民党	-6027
.9	-6028
近年	-6029
ファル	-6030
接する	-6031
詳細は	-6032
それでも	-6033
トレーニング	-6034
えん	-6035
のエ	-6036
圧倒	-6037
エンタ	-6038
OK	-6039
しき	-6040
べく	-6041
不動産	-6042
理由に	-6043
NE	-6044
タム	-6045
友人	-6046
風景	-6047
したことが	-6048
TA	-6049
うる	-6050
座席	-6051
爆弾	-6052
独特	-6053
神の	-6054
王国の	-6055
世紀に	-6056
原子力	-6057
人類	-6058
私は	-6059
松平	-6060
ドルフ	-6061
回戦で	-6062
ミックス	-6063
行っている	-6064
井上	-6065
傘下	-6066
を持って	-6067
マックス	-6068
、1993	-6069
が開始された	-6070
役の	-6071
業績	-6072
銀河	-6073
右衛門	-6074
変換	-6075
形は	-6076
慶長	-6077
近隣	-6078
120	-6079
サイズ	-6080
京都市	-6081
1960	-6082
校舎	-6083
石の	-6084
金曜	-6085
国は	-6086
愛媛	-6087
ノルウェー	-6088
さが	-6089
はや	-6090
を率	-6091
実績	-6092
量を	-6093
▁株式会社	-6094
ザベ	-6095
メガ	-6096
学的	-6097
捕虜	-6098
攻略	-6099
ain	-6100
1992	-6101
会社である	-6102
回避	-6103
営業所	-6104
年代には	-6105
コンテンツ	-6106
の南	-6107
本は	-6108
ボディ	-6109
ex	-6110
キル	-6111
ブス	-6112
女王	-6113
官僚	-6114
スマート	-6115
帝国大学	-6116
も存在する	-6117
。"	-6118
リャ	-6119
レム	-6120
加工	-6121
川に	-6122
ブーム	-6123
リダ	-6124
教徒	-6125
疑問	-6126
が集	-6127
に携	-6128
特許	-6129
私立	-6130
降り	-6131
存在しない	-6132
内では	-6133
の場合は	-6134
の問題	-6135
従業員	-6136
見える	-6137
ゴールド	-6138
モニ	-6139
リト	-6140
同年の	-6141
国内の	-6142
難しい	-6143
▁日本の	-6144
を打	-6145
教室	-6146
避難	-6147
700	-6148
ばれる	-6149
らした	-6150
一つの	-6151
名古屋市	-6152
に対しては	-6153
の山	-6154
寄り	-6155
としたが	-6156
落選	-6157
されず	-6158
ここでは	-6159
国に	-6160
認知	-6161
車を	-6162
所属の	-6163
▁1995	-6164
を務めていた	-6165
用いられている	-6166
『"	-6167
一帯	-6168
(12	-6169
フリードリ	-6170
pe	-6171
生涯	-6172
たちを	-6173
に移り	-6174
スペン	-6175
ーズの	-6176
。2022	-6177
文部	-6178
に反対	-6179
ナンバー	-6180
ファンタ	-6181
-5	-6182
くに	-6183
収集	-6184
手法	-6185
養成	-6186
▁mm	-6187
ールが	-6188
広がり	-6189
式ホーム	-6190
和田	-6191
宝塚	-6192
琉球	-6193
レンス	-6194
死亡した	-6195
を持っていた	-6196
書を	-6197
町は	-6198
と契約	-6199
を与え	-6200
ディン	-6201
年以上	-6202
続けて	-6203
1989	-6204
のタイトル	-6205
リの	-6206
異常	-6207
隊が	-6208
サウル	-6209
宮城県	-6210
例として	-6211
くい	-6212
削減	-6213
ver	-6214
準決勝	-6215
ng	-6216
に再	-6217
五郎	-6218
委託	-6219
運航	-6220
DNA	-6221
ハート	-6222
ダニ	-6223
中世	-6224
っては	-6225
ハワイ	-6226
バラン	-6227
パウ	-6228
com	-6229
した際	-6230
ボーイ	-6231
とは異なり	-6232
oh	-6233
▁水	-6234
で第	-6235
のみの	-6236
ゆき	-6237
保持	-6238
瀬戸	-6239
-18	-6240
ime	-6241
▁経済	-6242
ミック	-6243
、1991	-6244
にしている	-6245
位となった	-6246
能力を	-6247
借り	-6248
カテ	-6249
ial	-6250
カンパ	-6251
始まる	-6252
中間	-6253
日間	-6254
山市	-6255
ミュン	-6256
であっても	-6257
に戻り	-6258
ルトン	-6259
賞受賞	-6260
▁以下の	-6261
なくなる	-6262
▁1994	-6263
は上	-6264
船舶	-6265
鳥取	-6266
III	-6267
ができる	-6268
最終的には	-6269
シオ	-6270
山梨	-6271
▁さらに	-6272
ていない	-6273
応用	-6274
の影響で	-6275
を引き起こ	-6276
の一環として	-6277
枚の	-6278
を打ち	-6279
ガリア	-6280
直後に	-6281
が異なる	-6282
みられる	-6283
を組	-6284
ナ州	-6285
中将	-6286
危機	-6287
箇所	-6288
遺伝子	-6289
こうして	-6290
に伝	-6291
個体	-6292
木村	-6293
空襲	-6294
聖堂	-6295
訪問	-6296
違う	-6297
頻繁	-6298
)、「	-6299
外国人	-6300
入社	-6301
同日	-6302
年春	-6303
縮小	-6304
このうち	-6305
に入ると	-6306
シュタイン	-6307
▁Z	-6308
に不	-6309
アブ	-6310
平野	-6311
暫定	-6312
柔道	-6313
ヴォル	-6314
は日本の	-6315
国際空港	-6316
ガリ	-6317
防ぐ	-6318
her	-6319
突然	-6320
魔法	-6321
の使用	-6322
の建設	-6323
SH	-6324
存続	-6325
射撃	-6326
作品が	-6327
中でも	-6328
で出	-6329
に招	-6330
年前	-6331
ase	-6332
コスト	-6333
行して	-6334
の乱	-6335
親王	-6336
メイト	-6337
に参加し	-6338
オスマン	-6339
スピード	-6340
都道	-6341
社会的	-6342
▁Pro	-6343
、1989	-6344
インディアン	-6345
(4	-6346
ペー	-6347
魚雷	-6348
(10	-6349
自身も	-6350
ウィーン	-6351
契約を結んだ	-6352
又は	-6353
木の	-6354
滋賀	-6355
市内の	-6356
限定盤	-6357
とか	-6358
年後	-6359
を除き	-6360
年目の	-6361
▁現在の	-6362
ゴールデン	-6363
多摩	-6364
宮殿	-6365
時間帯	-6366
と言われている	-6367
="2	-6368
に改称	-6369
法学部	-6370
版は	-6371
向けに	-6372
ゼロ	-6373
積み	-6374
年生の	-6375
に入って	-6376
を獲得し	-6377
ムは	-6378
長が	-6379
と指摘	-6380
を舞台	-6381
公式戦	-6382
機種	-6383
んどう	-6384
もしれない	-6385
テーション	-6386
の重	-6387
祖父	-6388
もまた	-6389
リニューアル	-6390
先端	-6391
創作	-6392
戦う	-6393
衛生	-6394
高知	-6395
ark	-6396
につなが	-6397
cc	-6398
人生	-6399
敷地	-6400
EP	-6401
YO	-6402
会は	-6403
文明	-6404
発達	-6405
空母	-6406
ースの	-6407
と呼ばれている	-6408
ld	-6409
ボイ	-6410
が確認	-6411
フレーム	-6412
数多くの	-6413
にわたって	-6414
オーケストラ	-6415
懸念	-6416
シナリオ	-6417
。2003	-6418
リチャード	-6419
作品である	-6420
そも	-6421
成分	-6422
を発売	-6423
を経験	-6424
サウス	-6425
年ぶり	-6426
誕生した	-6427
といわれる	-6428
▁アル	-6429
ck	-6430
素材	-6431
自主	-6432
man	-6433
つけた	-6434
キャラ	-6435
日にかけて	-6436
リンの	-6437
互いに	-6438
モンスター	-6439
ディレクター	-6440
フリードリヒ	-6441
ラノ	-6442
宗の	-6443
ING	-6444
を出す	-6445
ウルトラ	-6446
勲章	-6447
実装	-6448
教え	-6449
試作	-6450
厳しい	-6451
準優勝	-6452
1988	-6453
似ている	-6454
周年記念	-6455
基盤	-6456
ary	-6457
する場合	-6458
▁1993	-6459
デザイナー	-6460
生息	-6461
ペット	-6462
事実上	-6463
終わった	-6464
しに	-6465
ハッ	-6466
編纂	-6467
臨床	-6468
記号	-6469
読売	-6470
年間に	-6471
家康	-6472
リーガ	-6473
▁東京都	-6474
はア	-6475
抑制	-6476
道具	-6477
ont	-6478
に先	-6479
下げ	-6480
亡命	-6481
質の	-6482
を最後に	-6483
番組である	-6484
保安	-6485
折り	-6486
院の	-6487
企業の	-6488
サービスを	-6489
ジーランド	-6490
▁特	-6491
秀吉	-6492
身体	-6493
の長男	-6494
スロー	-6495
、1988	-6496
メカ	-6497
リク	-6498
くまで	-6499
に当たる	-6500
所在する	-6501
バレーボール	-6502
ah	-6503
会が	-6504
ies	-6505
ガード	-6506
三角	-6507
コメディ	-6508
▁み	-6509
怪我	-6510
▁1992	-6511
ナポ	-6512
変動	-6513
市で	-6514
ire	-6515
フェスティ	-6516
シーズン終了	-6517
MP	-6518
海峡	-6519
線と	-6520
プロイ	-6521
事業者	-6522
身の	-6523
番人気	-6524
途中で	-6525
プレーオフ	-6526
たけ	-6527
ラト	-6528
本土	-6529
を作成	-6530
きて	-6531
君主	-6532
比例	-6533
を代表する	-6534
RC	-6535
を伴	-6536
人種	-6537
会計	-6538
国が	-6539
駐車	-6540
リーが	-6541
部分が	-6542
年までは	-6543
役員	-6544
書店	-6545
なので	-6546
LA	-6547
延期	-6548
補給	-6549
年までの	-6550
▁1989	-6551
を使用した	-6552
ニュージーランド	-6553
が決定	-6554
の代表	-6555
ライオン	-6556
記述する	-6557
国勢調査による	-6558
終盤	-6559
きゅう	-6560
を見た	-6561
プター	-6562
務大臣	-6563
左衛門	-6564
合わせた	-6565
回収	-6566
固有	-6567
場は	-6568
マルチ	-6569
▁という	-6570
維新	-6571
薬品	-6572
もっとも	-6573
のみならず	-6574
(,	-6575
▁ク	-6576
があ	-6577
IVE	-6578
得点を	-6579
、1987	-6580
Go	-6581
塗装	-6582
小学	-6583
農民	-6584
ノミネ	-6585
ment	-6586
日本国内	-6587
▁下	-6588
がいた	-6589
タッチ	-6590
ビート	-6591
▁今	-6592
がい	-6593
を避	-6594
化石	-6595
短縮	-6596
行事	-6597
かどう	-6598
以外は	-6599
著名な	-6600
を定	-6601
▁作品	-6602
の一覧	-6603
者から	-6604
▁Com	-6605
="2"|	-6606
と比べ	-6607
は下	-6608
入手	-6609
かりの	-6610
クセン	-6611
任した	-6612
ボックス	-6613
ターミナル	-6614
が同	-6615
船団	-6616
:30	-6617
バレエ	-6618
主義の	-6619
とする説	-6620
ではあるが	-6621
と言われる	-6622
インドネシア	-6623
カム	-6624
ich	-6625
時間の	-6626
ることを	-6627
チェスター	-6628
北条	-6629
夏の	-6630
が高く	-6631
で勝利	-6632
に至った	-6633
日に発売された	-6634
上野	-6635
庁舎	-6636
排除	-6637
ナルの	-6638
それまでの	-6639
Windows	-6640
大佐	-6641
と推定	-6642
巨大な	-6643
登場し	-6644
福島県	-6645
1987	-6646
られなかった	-6647
日常	-6648
研修	-6649
航海	-6650
航路	-6651
説得	-6652
馬の	-6653
駅で	-6654
3000	-6655
▁ゲーム	-6656
を示した	-6657
メタ	-6658
ケーブル	-6659
制作された	-6660
さは	-6661
甲子	-6662
置き	-6663
しゅう	-6664
活動の	-6665
に戻った	-6666
(8	-6667
TC	-6668
コア	-6669
度に	-6670
息子の	-6671
に伴って	-6672
を決めた	-6673
ダービー	-6674
選手として	-6675
コの	-6676
ジラ	-6677
台風	-6678
黄色	-6679
コンクリート	-6680
-7	-6681
の中から	-6682
ヌス	-6683
夫の	-6684
母は	-6685
現代の	-6686
韓国の	-6687
-11	-6688
▁行政	-6689
ついた	-6690
きっかけに	-6691
に面	-6692
冒険	-6693
北米	-6694
ens	-6695
▁利用	-6696
かない	-6697
キット	-6698
ディオ	-6699
コロンビア	-6700
レストラン	-6701
Al	-6702
々木	-6703
じゅ	-6704
回戦	-6705
容疑	-6706
に相当する	-6707
▁k	-6708
かは	-6709
国で	-6710
感覚	-6711
発着	-6712
子ども	-6713
エレクト	-6714
余儀	-6715
宇都	-6716
進化	-6717
かけた	-6718
物理学	-6719
継いだ	-6720
▁収録曲	-6721
モチーフ	-6722
以外にも	-6723
をはじめとする	-6724
大将	-6725
循環	-6726
聖書	-6727
関与	-6728
順位	-6729
自衛隊	-6730
としており	-6731
部で	-6732
ミュージカル	-6733
アダ	-6734
仮面	-6735
奉行	-6736
配給	-6737
▁放送	-6738
を攻撃	-6739
1985	-6740
?」	-6741
会館	-6742
働く	-6743
成り	-6744
融合	-6745
ong	-6746
とみな	-6747
のみが	-6748
の音楽	-6749
各地の	-6750
茨城県	-6751
に大きな	-6752
をベース	-6753
を集めた	-6754
に所属する	-6755
ベラ	-6756
賞金	-6757
メンタリー	-6758
ぶり	-6759
直通	-6760
この頃	-6761
スカイ	-6762
。2023	-6763
ノミネート	-6764
プラットフォーム	-6765
DC	-6766
ust	-6767
に移住	-6768
ーンは	-6769
協議会	-6770
セレ	-6771
ックは	-6772
自身は	-6773
セルビア	-6774
あな	-6775
ニオ	-6776
上陸	-6777
全域	-6778
遅れ	-6779
アラブ	-6780
行した	-6781
コンテスト	-6782
逆転	-6783
かける	-6784
ドライブ	-6785
WE	-6786
一つ	-6787
演説	-6788
マリー	-6789
乾燥	-6790
夫婦	-6791
織田	-6792
を収録	-6793
グラス	-6794
専用の	-6795
レンタル	-6796
初めての	-6797
シド	-6798
競輪	-6799
から約	-6800
版では	-6801
新型コロナ	-6802
オールスター	-6803
DF	-6804
いと	-6805
乗客	-6806
修復	-6807
夫妻	-6808
弟の	-6809
旅団	-6810
ニアの	-6811
級王座	-6812
プロモーション	-6813
(5	-6814
割合	-6815
気温	-6816
そこに	-6817
の一般	-6818
わたって	-6819
ジュール	-6820
パッケージ	-6821
SE	-6822
ix	-6823
がわ	-6824
を元	-6825
尽力	-6826
完全な	-6827
ファミリー	-6828
みを	-6829
ージー	-6830
ジャンル	-6831
振る	-6832
村は	-6833
▁映画	-6834
出される	-6835
▁第二次世界大戦	-6836
天正	-6837
所蔵	-6838
サンダー	-6839
コミュニケーション	-6840
▁h	-6841
に与	-6842
動員	-6843
運輸	-6844
ユニバー	-6845
アマチュア	-6846
サウ	-6847
戦時	-6848
率が	-6849
結論	-6850
総理	-6851
開拓	-6852
じゅう	-6853
ロイヤル	-6854
余儀なく	-6855
に合わせて	-6856
の東	-6857
義塾	-6858
駐屯	-6859
指揮官	-6860
▁1991	-6861
に所属していた	-6862
いろ	-6863
コフ	-6864
一番	-6865
運賃	-6866
THE	-6867
||1	-6868
レール	-6869
一丁目	-6870
を含めた	-6871
創造	-6872
論争	-6873
つなが	-6874
相模	-6875
のことを	-6876
っぽ	-6877
命を	-6878
接近	-6879
田町	-6880
MLB	-6881
ノール	-6882
同社の	-6883
宇都宮	-6884
日放送	-6885
にあたり	-6886
初となる	-6887
テレビ朝日	-6888
実は	-6889
やかな	-6890
テクノ	-6891
ドラム	-6892
次のように	-6893
検察	-6894
といい	-6895
に移動	-6896
を放送	-6897
。1990	-6898
を支	-6899
ペイ	-6900
ヤク	-6901
リバ	-6902
中山	-6903
講演	-6904
タワー	-6905
プロー	-6906
....	-6907
デア	-6908
実に	-6909
抜け	-6910
提唱	-6911
終結	-6912
age	-6913
ならなかった	-6914
認可	-6915
月現在	-6916
関係の	-6917
きている	-6918
に敗れた	-6919
の後継	-6920
シス	-6921
反映	-6922
漫画家	-6923
かれていた	-6924
とは異なる	-6925
日をもって	-6926
ウラ	-6927
ナウ	-6928
性に	-6929
配備	-6930
アトラン	-6931
明らかに	-6932
に指定されている	-6933
』)	-6934
ソル	-6935
化が	-6936
立地	-6937
郵便局	-6938
フランス語	-6939
大隊	-6940
方程	-6941
歌唱	-6942
陥落	-6943
ock	-6944
もともと	-6945
手で	-6946
モール	-6947
を達成した	-6948
SM	-6949
スン	-6950
イラク	-6951
ヘビー	-6952
とに	-6953
気づ	-6954
も多く	-6955
を呼び	-6956
地として	-6957
マツ	-6958
化合	-6959
明か	-6960
落語	-6961
オーク	-6962
コート	-6963
南部の	-6964
学んだ	-6965
レーダー	-6966
いけ	-6967
任命	-6968
回路	-6969
看護	-6970
藩の	-6971
らかの	-6972
を紹介	-6973
慶應	-6974
毛利	-6975
火山	-6976
ベリー	-6977
▁[	-6978
気に	-6979
▁出典	-6980
に入団	-6981
を拠点	-6982
プロテ	-6983
警察署	-6984
水道	-6985
熱帯	-6986
受け入れ	-6987
事に	-6988
国連	-6989
島は	-6990
走る	-6991
軍と	-6992
近くの	-6993
独占	-6994
肖像	-6995
に分け	-6996
ドウ	-6997
パソ	-6998
会話	-6999
欧米	-7000
法案	-7001
発掘	-7002
考案	-7003
とある	-7004
分から	-7005
打ち上げ	-7006
に向かって	-7007
エンジンの	-7008
室の	-7009
ブログ	-7010
取り上げ	-7011
。2002	-7012
校の	-7013
グレイ	-7014
記録を	-7015
歳の時に	-7016
レーシング	-7017
になっており	-7018
と改称	-7019
をめぐ	-7020
化され	-7021
期から	-7022
ヴィッド	-7023
にとっては	-7024
▁お	-7025
の大半	-7026
行する	-7027
1986	-7028
1/	-7029
oy	-7030
場に	-7031
征服	-7032
は主に	-7033
ヴェン	-7034
感染症	-7035
理由で	-7036
ジャーナリスト	-7037
しが	-7038
まん	-7039
チナ	-7040
件の	-7041
ジェント	-7042
マーケット	-7043
勝負	-7044
氏が	-7045
インスト	-7046
してしまった	-7047
幹部	-7048
混合	-7049
者で	-7050
、1985	-7051
で生まれた	-7052
が設置されている	-7053
ハラ	-7054
に対抗	-7055
本作は	-7056
相手に	-7057
エリザベ	-7058
低く	-7059
同士	-7060
を変更	-7061
を装備	-7062
を認め	-7063
市町村	-7064
▁–	-7065
栄養	-7066
調達	-7067
▁Ar	-7068
デンの	-7069
甲子園	-7070
を出した	-7071
はり	-7072
助手	-7073
最新	-7074
色は	-7075
解除	-7076
酸素	-7077
▁昭和	-7078
ードの	-7079
知られ	-7080
エドワード	-7081
外部リンク	-7082
月にかけて	-7083
▁や	-7084
エム	-7085
宮廷	-7086
日記	-7087
話し	-7088
ame	-7089
既存の	-7090
に適	-7091
ビス	-7092
不詳	-7093
信用	-7094
送り	-7095
っきり	-7096
人から	-7097
各地で	-7098
れており	-7099
シンガー	-7100
〜』	-7101
コム	-7102
作は	-7103
創建	-7104
赤い	-7105
委員会の	-7106
文章	-7107
発音	-7108
観音	-7109
携帯電話	-7110
ベネ	-7111
享年	-7112
再編	-7113
帰還	-7114
教員	-7115
決議	-7116
終戦	-7117
総裁	-7118
豊富	-7119
数多く	-7120
退した	-7121
1984	-7122
そこから	-7123
されること	-7124
することになる	-7125
を挟	-7126
二重	-7127
制の	-7128
数値	-7129
額の	-7130
選挙で	-7131
FF	-7132
マサ	-7133
直線	-7134
質問	-7135
公爵	-7136
田が	-7137
大韓	-7138
室町	-7139
▁ラ	-7140
少数	-7141
継ぎ	-7142
要塞	-7143
チェル	-7144
odice	-7145
を使用する	-7146
本社を置く	-7147
ホールディング	-7148
うた	-7149
の正	-7150
ウイ	-7151
ヌー	-7152
』("	-7153
を収め	-7154
ヴェー	-7155
自体は	-7156
フロリダ	-7157
リーグ戦	-7158
、1986	-7159
RA	-7160
大手	-7161
太子	-7162
恋愛	-7163
装着	-7164
を開発	-7165
ポーター	-7166
下ろ	-7167
母の	-7168
見た	-7169
te	-7170
五位	-7171
選考	-7172
に近	-7173
合唱	-7174
飼育	-7175
キック	-7176
タイヤ	-7177
労働者	-7178
過去に	-7179
に従って	-7180
",	-7181
を前	-7182
対決	-7183
気筒	-7184
浴び	-7185
端末	-7186
-17	-7187
に師事	-7188
されることが	-7189
シンガポール	-7190
学問	-7191
ートン	-7192
番組は	-7193
セラ	-7194
ルン	-7195
戦線	-7196
メトロ	-7197
強力な	-7198
政府が	-7199
最高の	-7200
ドキュメンタリー	-7201
CH	-7202
▁シ	-7203
権の	-7204
武将	-7205
選手の	-7206
サンフランシスコ	-7207
GT	-7208
力で	-7209
てきた	-7210
イルド	-7211
ハイム	-7212
実用	-7213
水を	-7214
を除いて	-7215
売上	-7216
バージ	-7217
以前に	-7218
ルーマニア	-7219
を擁	-7220
保健	-7221
と判断	-7222
ベート	-7223
奪三振	-7224
述べている	-7225
描かれている	-7226
インターナショナル	-7227
2、	-7228
ip	-7229
nt	-7230
イリ	-7231
反発	-7232
太夫	-7233
講談	-7234
タンク	-7235
地域は	-7236
情報を	-7237
施設の	-7238
まっている	-7239
"』	-7240
攻め	-7241
車両の	-7242
ちに	-7243
カウン	-7244
横須賀	-7245
翌年の	-7246
フェスティバル	-7247
ep	-7248
人や	-7249
定理	-7250
クラウ	-7251
タクシー	-7252
はなかった	-7253
アルゼンチン	-7254
河内	-7255
行列	-7256
メイク	-7257
られていない	-7258
ボリ	-7259
心理	-7260
署名	-7261
重賞	-7262
を購入	-7263
を開始し	-7264
、1984	-7265
していたため	-7266
アレクサンド	-7267
ビリ	-7268
全面	-7269
受容	-7270
絶滅	-7271
英雄	-7272
小惑星	-7273
美しい	-7274
を制	-7275
メモ	-7276
表明	-7277
通貨	-7278
ちなみに	-7279
モデルの	-7280
トウ	-7281
連れ	-7282
を開設	-7283
キャンペ	-7284
を断	-7285
を称	-7286
エラ	-7287
登山	-7288
▁から	-7289
に編入	-7290
の日本	-7291
を見せた	-7292
将棋	-7293
ヘルム	-7294
交差点	-7295
ドイツ語	-7296
ものだった	-7297
OD	-7298
ネオ	-7299
広域	-7300
開業した	-7301
建てられた	-7302
を辞	-7303
伸ば	-7304
審判	-7305
年秋	-7306
等を	-7307
ショウ	-7308
ロジー	-7309
などでは	-7310
アンダー	-7311
民主主義	-7312
テレビ番組	-7313
エロ	-7314
協会の	-7315
しようとする	-7316
てい	-7317
うちに	-7318
サンタ	-7319
目的で	-7320
群馬県	-7321
認める	-7322
オリコン	-7323
製造された	-7324
▁{	-7325
と再	-7326
ギン	-7327
上京	-7328
電池	-7329
ベニア	-7330
システムの	-7331
大学名誉教授	-7332
ガニ	-7333
初演	-7334
物資	-7335
ースター	-7336
。2001	-7337
ディーゼル	-7338
にあ	-7339
偵察	-7340
支店	-7341
重量	-7342
▁これ	-7343
ものと	-7344
ガラス	-7345
バイス	-7346
はる	-7347
明け	-7348
無人	-7349
近畿	-7350
に沿って	-7351
ステップ	-7352
悪化	-7353
ユナイ	-7354
カンパニー	-7355
太平洋戦争	-7356
;/	-7357
は高	-7358
らん	-7359
一軍	-7360
立た	-7361
の原因	-7362
フィラ	-7363
ボタン	-7364
新幹線	-7365
▁1988	-7366
テレビ東京	-7367
の末	-7368
工作	-7369
方で	-7370
語り	-7371
鹿児島県	-7372
を務めている	-7373
みや	-7374
直後	-7375
色で	-7376
近鉄	-7377
むしろ	-7378
やすく	-7379
気持ち	-7380
iz	-7381
本当	-7382
薩摩	-7383
が発売	-7384
売り上げ	-7385
放送されていた	-7386
BE	-7387
ug	-7388
彼を	-7389
歌う	-7390
の判定	-7391
ーズは	-7392
げん	-7393
と題	-7394
埋め	-7395
ローン	-7396
出来事	-7397
子会社	-7398
ヒーロー	-7399
出場した	-7400
ユナイテッド	-7401
していなかった	-7402
PR	-7403
学位	-7404
確率	-7405
郊外	-7406
鉱山	-7407
テープ	-7408
工学部	-7409
ロケ	-7410
送信	-7411
面で	-7412
▁世界	-7413
▁大学	-7414
を名乗	-7415
横浜市	-7416
だという	-7417
を増	-7418
務員	-7419
町名	-7420
達は	-7421
ber	-7422
の上に	-7423
戦闘機	-7424
残りの	-7425
がそれぞれ	-7426
オプション	-7427
挿入	-7428
温度	-7429
小さく	-7430
マガジン	-7431
を撃	-7432
タの	-7433
典型	-7434
常務	-7435
衝撃	-7436
量産	-7437
に昇進	-7438
コンパ	-7439
番目に	-7440
▁本作は	-7441
もあって	-7442
する必要がある	-7443
徹底	-7444
激しく	-7445
▁ただし	-7446
アプリケーション	-7447
を許	-7448
コウ	-7449
プー	-7450
世に	-7451
フィギュ	-7452
、1950	-7453
準々	-7454
語は	-7455
の西	-7456
併設	-7457
ory	-7458
だから	-7459
に追い	-7460
ヴェネ	-7461
結成された	-7462
ウスの	-7463
女の	-7464
電波	-7465
もあるが	-7466
に生まれた	-7467
を模	-7468
子と	-7469
管弦	-7470
領主	-7471
ear	-7472
加えて	-7473
経済学	-7474
インターチェンジ	-7475
十二	-7476
庭園	-7477
-15	-7478
ある日	-7479
同年に	-7480
部隊は	-7481
アルファ	-7482
キャンパス	-7483
による日本の	-7484
▁:	-7485
を問	-7486
心の	-7487
野村	-7488
作目の	-7489
金メダル	-7490
デラ	-7491
保管	-7492
参入	-7493
騒動	-7494
▁国際	-7495
ツール	-7496
ボート	-7497
Twit	-7498
ショート	-7499
だったため	-7500
実施された	-7501
ふく	-7502
を逃	-7503
へ向かう	-7504
上がった	-7505
ものがある	-7506
有機	-7507
ガール	-7508
ジュー	-7509
前から	-7510
通常は	-7511
▁クラブ	-7512
ウェブサイト	-7513
は中	-7514
らう	-7515
ホッ	-7516
無く	-7517
甲板	-7518
運河	-7519
間を	-7520
ond	-7521
だけの	-7522
を決定	-7523
多くが	-7524
直後の	-7525
1983	-7526
を終えた	-7527
ニッポン	-7528
搭乗	-7529
留学	-7530
▁評価	-7531
▁1960	-7532
を支援	-7533
チョウ	-7534
残った	-7535
別名	-7536
刺激	-7537
条例	-7538
の息子	-7539
上記の	-7540
岡山県	-7541
1978	-7542
さらには	-7543
サイクル	-7544
出している	-7545
1)	-7546
引用	-7547
エース	-7548
規模の	-7549
を占める	-7550
制作した	-7551
でデビュー	-7552
わけではない	-7553
ational	-7554
逃亡	-7555
ボストン	-7556
▁松	-7557
に遭	-7558
野手	-7559
らせる	-7560
出場し	-7561
報告書	-7562
▁そして	-7563
との間で	-7564
ツの	-7565
悪魔	-7566
紋章	-7567
に参戦	-7568
るために	-7569
インディア	-7570
削除	-7571
子孫	-7572
はじめ	-7573
カフェ	-7574
ユダヤ人	-7575
探偵	-7576
監督は	-7577
キャスター	-7578
ミシ	-7579
砲撃	-7580
軍隊	-7581
騎乗	-7582
都道府県	-7583
したところ	-7584
福音	-7585
を出版	-7586
何度も	-7587
2025	-7588
年以降は	-7589
なかったため	-7590
キャンペーン	-7591
マジ	-7592
属の	-7593
青山	-7594
ica	-7595
1982	-7596
。1999	-7597
ノス	-7598
ラド	-7599
局が	-7600
補佐	-7601
覧会	-7602
日本に	-7603
沖縄県	-7604
慶應義塾	-7605
なぜ	-7606
みが	-7607
メタル	-7608
事業所	-7609
世紀後半	-7610
宿泊	-7611
横断	-7612
若手	-7613
しりつ	-7614
クレー	-7615
目となる	-7616
刊行された	-7617
▁レ	-7618
の特	-7619
ウー	-7620
在位	-7621
迎えた	-7622
▁駅構造	-7623
んでおり	-7624
一致	-7625
Ar	-7626
ぜん	-7627
を広	-7628
ピュ	-7629
正規	-7630
水路	-7631
為に	-7632
に置き	-7633
。15	-7634
の成績	-7635
年ごろ	-7636
優勝した	-7637
、1983	-7638
ライセンス	-7639
ペア	-7640
春日	-7641
部に位置する	-7642
役所	-7643
ove	-7644
ティス	-7645
の木	-7646
百貨	-7647
ブルース	-7648
で知られる	-7649
▁二	-7650
リッ	-7651
協議	-7652
意思	-7653
王朝	-7654
▁個人	-7655
十分な	-7656
スタンド	-7657
に通う場合	-7658
コントロール	-7659
の他	-7660
を掲	-7661
する予定	-7662
経済学部	-7663
は以下の通りとなる	-7664
CS	-7665
太田	-7666
翌日	-7667
ません	-7668
を含め	-7669
を利用して	-7670
すが	-7671
活発	-7672
重視	-7673
方向に	-7674
たり	-7675
国外	-7676
トルの	-7677
ストライ	-7678
▁1987	-7679
フィギュア	-7680
南アフリカ	-7681
第一次世界大戦	-7682
4,	-7683
Hz	-7684
ラウ	-7685
キャプ	-7686
ッセン	-7687
を殺	-7688
水戸	-7689
所在地	-7690
TE	-7691
ふる	-7692
ゆえ	-7693
解消	-7694
エディ	-7695
ットー	-7696
となるが	-7697
(6	-7698
RI	-7699
層の	-7700
性と	-7701
捕ら	-7702
ビーチ	-7703
フェア	-7704
プロイセン	-7705
するとともに	-7706
まい	-7707
残る	-7708
界の	-7709
▁中国	-7710
の映画	-7711
ようになっている	-7712
救助	-7713
阻止	-7714
AAA	-7715
クレイ	-7716
急速に	-7717
複雑な	-7718
を施	-7719
平日	-7720
管区	-7721
高原	-7722
メモリ	-7723
列車が	-7724
割り当て	-7725
、1981	-7726
神社の	-7727
エンジニア	-7728
受信	-7729
寄付	-7730
▁Al	-7731
を通る	-7732
掛ける	-7733
月からは	-7734
現在でも	-7735
チャレンジ	-7736
ぶん	-7737
地点	-7738
権力	-7739
監査	-7740
順に	-7741
顧客	-7742
パレス	-7743
受けた	-7744
都市圏	-7745
さき	-7746
屋の	-7747
父が	-7748
に登録	-7749
を支配	-7750
マット	-7751
オーナー	-7752
フィール	-7753
発表され	-7754
試合に登板	-7755
巨大	-7756
才能	-7757
ポロ	-7758
実践	-7759
皇后	-7760
レンズ	-7761
あくまで	-7762
BL	-7763
本が	-7764
要望	-7765
▁教育	-7766
人々が	-7767
、1979	-7768
に任命された	-7769
Am	-7770
を狙	-7771
会津	-7772
会談	-7773
等で	-7774
▁音楽	-7775
ゾーン	-7776
ングル	-7777
一連の	-7778
、1982	-7779
勉強	-7780
を演じた	-7781
スカウト	-7782
トラブル	-7783
選ばれた	-7784
に含まれる	-7785
しているため	-7786
オレ	-7787
四郎	-7788
市が	-7789
TKO	-7790
代表の	-7791
▁FIFA	-7792
哨戒	-7793
最小	-7794
are	-7795
ほしい	-7796
側から	-7797
を持たない	-7798
▁外部リンク	-7799
ことはなかった	-7800
を高	-7801
不可	-7802
入力	-7803
師の	-7804
座の	-7805
月曜	-7806
に取り組	-7807
ックスの	-7808
▁1986	-7809
学名	-7810
スコア	-7811
新聞社	-7812
タイプの	-7813
社団法人	-7814
ピク	-7815
介入	-7816
移植	-7817
節の	-7818
選手が	-7819
1950	-7820
われていた	-7821
代表として	-7822
ことによって	-7823
▁石	-7824
を書	-7825
ヘイ	-7826
ray	-7827
アニア	-7828
作った	-7829
正式な	-7830
どり	-7831
コモ	-7832
タウ	-7833
官房	-7834
面は	-7835
を組み	-7836
三国	-7837
前で	-7838
日を	-7839
ern	-7840
一定の	-7841
本来の	-7842
古くから	-7843
▁町	-7844
と書	-7845
rit	-7846
▁Sp	-7847
を披露	-7848
大日本	-7849
光の	-7850
してく	-7851
じられ	-7852
水域	-7853
を生み	-7854
死んだ	-7855
1968	-7856
SD	-7857
快速	-7858
心理学	-7859
1973	-7860
秘書	-7861
rom	-7862
に住む	-7863
ディエ	-7864
してから	-7865
が発生した	-7866
原理	-7867
括弧	-7868
甲斐	-7869
パターン	-7870
かもしれない	-7871
パフォーマンス	-7872
を切	-7873
下り	-7874
不良	-7875
家を	-7876
漁業	-7877
衣装	-7878
ナップ	-7879
なう	-7880
アト	-7881
出た	-7882
師範	-7883
祭り	-7884
種が	-7885
ass	-7886
と出会	-7887
住民の	-7888
繰り広	-7889
▁THE	-7890
巨人	-7891
クール	-7892
しょうがっこう	-7893
代表取締役社長	-7894
Ph	-7895
乗降	-7896
事項	-7897
協同	-7898
取る	-7899
検出	-7900
理想	-7901
組の	-7902
都合	-7903
RNA	-7904
いたが	-7905
学者の	-7906
する形で	-7907
ベンチャー	-7908
NN	-7909
函館	-7910
大橋	-7911
最古	-7912
ach	-7913
い立ち	-7914
に関係	-7915
の楽曲	-7916
現れる	-7917
1981	-7918
プレート	-7919
、1975	-7920
キノ	-7921
日で	-7922
決意	-7923
阻害	-7924
世紀初頭	-7925
として利用	-7926
アイランド	-7927
が発売された	-7928
モハ	-7929
感謝	-7930
アイヌ	-7931
勢力を	-7932
地域で	-7933
幅広い	-7934
01	-7935
兄の	-7936
北陸	-7937
地中	-7938
地図	-7939
退任	-7940
の歌	-7941
を遂	-7942
市と	-7943
細菌	-7944
(11	-7945
ヒロイン	-7946
、1977	-7947
Twitter	-7948
国籍	-7949
心臓	-7950
期生	-7951
部族	-7952
と言い	-7953
の製造	-7954
決定戦	-7955
1979	-7956
。2024	-7957
直径	-7958
▁人口	-7959
を実現	-7960
キスタン	-7961
が設置された	-7962
しなければならない	-7963
を設	-7964
式は	-7965
牽引	-7966
ost	-7967
地域に	-7968
1972	-7969
不満	-7970
寛永	-7971
雰囲	-7972
が中心	-7973
りょう	-7974
ロマン	-7975
数々の	-7976
いており	-7977
みず	-7978
配列	-7979
側には	-7980
第二次	-7981
を受賞した	-7982
が必要である	-7983
GI	-7984
バリ	-7985
三井	-7986
及ぼ	-7987
室内	-7988
賠償	-7989
競走馬	-7990
アルコール	-7991
ガソ	-7992
前は	-7993
若干	-7994
重な	-7995
▁re	-7996
事業の	-7997
する必要	-7998
バージニア	-7999
あき	-8000
・「	-8001
合戦	-8002
新田	-8003
ことと	-8004
エンジンは	-8005
コンスタン	-8006
▁ド	-8007
ギル	-8008
五輪	-8009
を失った	-8010
語っている	-8011
れん	-8012
時刻	-8013
▁関連	-8014
プロト	-8015
動物の	-8016
に比べて	-8017
を余儀なく	-8018
ダウンロード	-8019
かせ	-8020
タス	-8021
島に	-8022
美濃	-8023
身を	-8024
闘争	-8025
高松	-8026
iss	-8027
が取り	-8028
を求めた	-8029
はほとんど	-8030
DJ	-8031
回答	-8032
当駅	-8033
▁背景	-8034
カンド	-8035
音楽の	-8036
バイエルン	-8037
▁安	-8038
おく	-8039
ガム	-8040
下旬	-8041
受験	-8042
東宝	-8043
を使い	-8044
市川	-8045
排気	-8046
考古	-8047
が設立	-8048
と共同	-8049
と見な	-8050
ヴォー	-8051
特別な	-8052
1976	-8053
をテーマ	-8054
▁1985	-8055
られていたが	-8056
ヨーロッパの	-8057
と呼ばれていた	-8058
▁も	-8059
がる	-8060
ミズ	-8061
性的	-8062
際の	-8063
を確保	-8064
なくなり	-8065
中学校の	-8066
ショッピング	-8067
丘陵	-8068
盗塁	-8069
全員が	-8070
活性化	-8071
示した	-8072
クトリア	-8073
の見	-8074
刑務	-8075
突入	-8076
が多数	-8077
ときは	-8078
ノート	-8079
ークル	-8080
orld	-8081
を続けた	-8082
。1980	-8083
マネージャー	-8084
CR	-8085
に拠	-8086
土壌	-8087
敷設	-8088
状に	-8089
飲食	-8090
▁鉄道	-8091
の放送	-8092
を浴び	-8093
期間は	-8094
部隊の	-8095
3.	-8096
CT	-8097
まえ	-8098
レア	-8099
回は	-8100
論理	-8101
傘下の	-8102
出版された	-8103
不正	-8104
港湾	-8105
着陸	-8106
競合	-8107
ann	-8108
に合格	-8109
トゥー	-8110
の声	-8111
リゾ	-8112
阪急	-8113
ッティ	-8114
バイオ	-8115
バルト	-8116
1945	-8117
1974	-8118
それから	-8119
卒業後は	-8120
基本的な	-8121
、1972	-8122
連載された	-8123
大公	-8124
ign	-8125
ヘリコ	-8126
二つの	-8127
活動は	-8128
計画は	-8129
を卒業し	-8130
本格的な	-8131
ダイヤモンド	-8132
冬季	-8133
恐れ	-8134
朝廷	-8135
立法	-8136
端に	-8137
サイン	-8138
項では	-8139
Play	-8140
変更された	-8141
中野	-8142
汚染	-8143
返し	-8144
黒い	-8145
ともい	-8146
の位置	-8147
フロー	-8148
存在し	-8149
チェーン	-8150
へ移	-8151
支部	-8152
水産	-8153
で開催	-8154
を手が	-8155
事業を	-8156
場合に	-8157
に位置し	-8158
を採	-8159
五十	-8160
ack	-8161
起きた	-8162
APAN	-8163
-8	-8164
aw	-8165
▁後	-8166
山岳	-8167
ニーズ	-8168
以外に	-8169
合った	-8170
本格的に	-8171
。1998	-8172
療法	-8173
NBA	-8174
内での	-8175
オフィス	-8176
シアター	-8177
委員会は	-8178
命名された	-8179
▁,	-8180
。&	-8181
を流	-8182
▁高校	-8183
エクス	-8184
名前の	-8185
トーマス	-8186
不安	-8187
-16	-8188
トイレ	-8189
▁1984	-8190
まく	-8191
ポケ	-8192
学び	-8193
施工	-8194
ダード	-8195
つである	-8196
を含めて	-8197
チャンピオンシップ	-8198
すけ	-8199
ょく	-8200
揚げ	-8201
バイル	-8202
相手の	-8203
著作権	-8204
と一緒に	-8205
られたが	-8206
パーセント	-8207
たら	-8208
を救	-8209
数十	-8210
等に	-8211
芝居	-8212
返還	-8213
が使用	-8214
の特徴	-8215
を継続	-8216
ロッテ	-8217
1,000	-8218
CO	-8219
日中	-8220
ish	-8221
▁アン	-8222
リリー	-8223
1975	-8224
usic	-8225
けている	-8226
03	-8227
BB	-8228
DD	-8229
に初	-8230
人形	-8231
廃車	-8232
患者	-8233
王立	-8234
統括	-8235
走り	-8236
遊び	-8237
クロア	-8238
グラフ	-8239
食べる	-8240
クラスの	-8241
テーブル	-8242
。1996	-8243
このように	-8244
を使用して	-8245
ルネ	-8246
交わ	-8247
妻の	-8248
110	-8249
は全て	-8250
子供の	-8251
、1974	-8252
として使用	-8253
エンタテインメント	-8254
MI	-8255
が相	-8256
さわ	-8257
を指	-8258
起訴	-8259
顕著	-8260
ウォル	-8261
でもあり	-8262
に関わる	-8263
パーティー	-8264
シグ	-8265
ナミ	-8266
・2	-8267
外観	-8268
対照	-8269
検索	-8270
と思う	-8271
戦後の	-8272
部には	-8273
関係者	-8274
チベット	-8275
ったという	-8276
チオ	-8277
一貫	-8278
山頂	-8279
衰退	-8280
に生息	-8281
レイン	-8282
愛称は	-8283
。1997	-8284
を構成する	-8285
記されている	-8286
EU	-8287
繊維	-8288
路面	-8289
郡は	-8290
を取得した	-8291
HO	-8292
予防	-8293
学長	-8294
特典	-8295
生存	-8296
警戒	-8297
食料	-8298
っくり	-8299
sh	-8300
ナビ	-8301
伊豆	-8302
司馬	-8303
に関与	-8304
人々の	-8305
した際に	-8306
役として	-8307
、1973	-8308
sc	-8309
城を	-8310
妊娠	-8311
待ち	-8312
教科	-8313
本編	-8314
深刻	-8315
開館	-8316
ook	-8317
を迎え	-8318
クルー	-8319
三重県	-8320
初勝利	-8321
ound	-8322
ロンドンの	-8323
Station	-8324
をや	-8325
小野	-8326
振動	-8327
歌舞	-8328
産の	-8329
財団	-8330
モニー	-8331
、1978	-8332
ブルガリア	-8333
pt	-8334
を好	-8335
所が	-8336
牡馬	-8337
▁これらの	-8338
DE	-8339
人員	-8340
払い	-8341
東南	-8342
礼拝	-8343
軽量	-8344
yst	-8345
を試み	-8346
歴史的	-8347
通りの	-8348
アレンジ	-8349
▁ロ	-8350
アタ	-8351
家で	-8352
の内容	-8353
栃木県	-8354
研究者	-8355
▁その他の	-8356
GB	-8357
拘束	-8358
賛成	-8359
選定	-8360
改めて	-8361
ボウ	-8362
城主	-8363
セーブ	-8364
ハイン	-8365
雰囲気	-8366
="2"|-	-8367
05	-8368
▁ひ	-8369
と答	-8370
菓子	-8371
講座	-8372
-20	-8373
付けて	-8374
大使館	-8375
ブルック	-8376
キャラクターの	-8377
(9	-8378
MO	-8379
が変	-8380
出走	-8381
有料	-8382
焼失	-8383
聞き	-8384
限界	-8385
珍しい	-8386
apan	-8387
グローバル	-8388
ダイヤ改正	-8389
設置されている	-8390
くん	-8391
天保	-8392
審議	-8393
村上	-8394
稼働	-8395
虐殺	-8396
諏訪	-8397
に挑戦	-8398
を加えた	-8399
は新	-8400
予約	-8401
皮膚	-8402
討ち	-8403
いても	-8404
に分布	-8405
クイズ	-8406
シネマ	-8407
チャイ	-8408
初優勝	-8409
学生の	-8410
まもなく	-8411
アラビア	-8412
ライバル	-8413
ラジオ番組	-8414
天王	-8415
熊本県	-8416
認めた	-8417
発生する	-8418
リエーション	-8419
結晶	-8420
配布	-8421
と呼び	-8422
中では	-8423
市街地	-8424
しかった	-8425
の代	-8426
主力	-8427
先輩	-8428
大名	-8429
高級	-8430
ざるを得	-8431
創設された	-8432
文芸	-8433
等が	-8434
線に	-8435
隊長	-8436
を拒否	-8437
上げて	-8438
以来の	-8439
多様な	-8440
と異なり	-8441
すら	-8442
と話	-8443
ュル	-8444
交易	-8445
人権	-8446
信濃	-8447
番の	-8448
ランプ	-8449
一般的	-8450
広がる	-8451
tern	-8452
財団法人	-8453
、1976	-8454
ランクイン	-8455
「(	-8456
レジ	-8457
入賞	-8458
切れ	-8459
海賊	-8460
詩人	-8461
車で	-8462
部と	-8463
を選択	-8464
ドレス	-8465
ボーン	-8466
ミドル	-8467
部から	-8468
しようと	-8469
を中心とする	-8470
Un	-8471
ux	-8472
▁+	-8473
が通	-8474
パナ	-8475
大半	-8476
人気を	-8477
佐々木	-8478
1971	-8479
史跡	-8480
場所に	-8481
パソコン	-8482
事実上の	-8483
開かれた	-8484
しようとした	-8485
▁アメリカ合衆国	-8486
▁|	-8487
たま	-8488
土木	-8489
達の	-8490
に行く	-8491
を学び	-8492
チェコ	-8493
適切な	-8494
国土交通	-8495
として生まれる	-8496
▁概	-8497
メダ	-8498
中断	-8499
社員	-8500
ようである	-8501
南は	-8502
安倍	-8503
検証	-8504
高齢	-8505
の変化	-8506
月下旬	-8507
没した	-8508
述べた	-8509
No	-8510
延伸	-8511
戦術	-8512
群の	-8513
の監督	-8514
のことである	-8515
ai	-8516
二次	-8517
周期	-8518
島津	-8519
応募	-8520
によるもの	-8521
てる	-8522
一族	-8523
上記	-8524
岡田	-8525
年半	-8526
とほぼ	-8527
やはり	-8528
を学ぶ	-8529
出版社	-8530
アリーナ	-8531
キューバ	-8532
▁1945	-8533
。1970	-8534
ワク	-8535
統制	-8536
総務	-8537
騎手	-8538
代表的な	-8539
▁タ	-8540
▁他	-8541
に収	-8542
もち	-8543
セリ	-8544
バナ	-8545
動力	-8546
暗号	-8547
決め	-8548
王は	-8549
をまと	-8550
ネルの	-8551
級王者	-8552
限りで	-8553
1969	-8554
を迎える	-8555
プログラ	-8556
成功した	-8557
を採用した	-8558
川町	-8559
水が	-8560
球場	-8561
脱出	-8562
誌の	-8563
ないが	-8564
インテ	-8565
に移籍した	-8566
GO	-8567
▁金	-8568
が定	-8569
ブの	-8570
万枚	-8571
作画	-8572
器の	-8573
権威	-8574
死後	-8575
間違	-8576
が開催	-8577
上がる	-8578
競馬場	-8579
ドナルド	-8580
のではなく	-8581
クリスマス	-8582
ハリウッド	-8583
妨害	-8584
民衆	-8585
緩和	-8586
順次	-8587
ことの	-8588
この年	-8589
わせて	-8590
ストーン	-8591
必ずしも	-8592
であることから	-8593
ノフ	-8594
地形	-8595
松山	-8596
▁st	-8597
を主張	-8598
を用い	-8599
ヨハン	-8600
1977	-8601
に次いで	-8602
アナログ	-8603
ストック	-8604
世帯数と人口は以下の通りである	-8605
ギタ	-8606
昆虫	-8607
額は	-8608
▁引退	-8609
とはい	-8610
の前身	-8611
チップ	-8612
ブリュ	-8613
特殊な	-8614
コーヒー	-8615
として活躍	-8616
マドリード	-8617
口径	-8618
量に	-8619
タイガ	-8620
マイク	-8621
人々は	-8622
化して	-8623
なっていた	-8624
コミックス	-8625
ジョージア	-8626
▁国勢調査による	-8627
チの	-8628
ロフ	-8629
あなた	-8630
と推測	-8631
主題歌	-8632
次々と	-8633
頻繁に	-8634
1967	-8635
||||	-8636
メンバーの	-8637
報じられた	-8638
SL	-8639
コネ	-8640
ダの	-8641
事で	-8642
葬儀	-8643
違法	-8644
セール	-8645
百貨店	-8646
バイパス	-8647
都市計画	-8648
▁世帯数と人口	-8649
修行	-8650
うえで	-8651
を再開	-8652
を要求	-8653
メリー	-8654
ペンシル	-8655
安全保障	-8656
などにより	-8657
圧縮	-8658
没年	-8659
マーケ	-8660
ロイド	-8661
ワール	-8662
関連の	-8663
参議院議員	-8664
ファンタジー	-8665
えず	-8666
ナラ	-8667
広報	-8668
株主	-8669
電源	-8670
isc	-8671
イスラーム	-8672
ストレート	-8673
HT	-8674
マの	-8675
声明	-8676
教の	-8677
すべく	-8678
をもう	-8679
モンテ	-8680
リアの	-8681
ガソリン	-8682
ニックス	-8683
バルセロ	-8684
伊達	-8685
左翼	-8686
旧制	-8687
楽章	-8688
表題	-8689
講義	-8690
▁第一	-8691
が形成	-8692
仕組み	-8693
専門は	-8694
ディフェン	-8695
ヨハ	-8696
報酬	-8697
細川	-8698
迎え	-8699
駅間	-8700
-12	-8701
ひとり	-8702
山口県	-8703
日現在	-8704
部分を	-8705
グレート	-8706
ことができた	-8707
併合	-8708
品の	-8709
数百	-8710
番台	-8711
▁al	-8712
られず	-8713
描いた	-8714
トップチーム	-8715
ロックバンド	-8716
きん	-8717
に因	-8718
品質	-8719
武士	-8720
調理	-8721
につき	-8722
マスク	-8723
ースは	-8724
市立小	-8725
衆議院	-8726
などを歴任	-8727
を要	-8728
オオ	-8729
原市	-8730
後方	-8731
開放	-8732
が採用	-8733
女性が	-8734
歌舞伎	-8735
区にある	-8736
物である	-8737
04	-8738
に触	-8739
強調	-8740
立憲	-8741
謝罪	-8742
、30	-8743
マール	-8744
自動車道	-8745
ことが判明	-8746
pr	-8747
人材	-8748
品種	-8749
ビング	-8750
ピット	-8751
北部の	-8752
ショック	-8753
トランプ	-8754
家である	-8755
当初から	-8756
数の推移	-8757
示された	-8758
AB	-8759
で再	-8760
奏曲	-8761
を占領	-8762
レスの	-8763
として扱	-8764
イースト	-8765
、1968	-8766
EX	-8767
河口	-8768
法第	-8769
WBC	-8770
ボラン	-8771
セックス	-8772
セッション	-8773
はじ	-8774
谷川	-8775
退役	-8776
ick	-8777
これによって	-8778
MF	-8779
は小	-8780
前年	-8781
解雇	-8782
エット	-8783
観光客	-8784
あったが	-8785
カナダの	-8786
コンサル	-8787
と結婚した	-8788
中学校に通う場合	-8789
タナ	-8790
任期	-8791
海兵	-8792
色が	-8793
ブリー	-8794
ence	-8795
間もなく	-8796
ようとする	-8797
マンション	-8798
製作された	-8799
▁デ	-8800
信じ	-8801
尾張	-8802
心を	-8803
恐怖	-8804
捜索	-8805
派は	-8806
脅威	-8807
per	-8808
▁番組	-8809
ステン	-8810
ランス	-8811
的にも	-8812
ならびに	-8813
ブロード	-8814
ゥー	-8815
環状	-8816
ではないが	-8817
上杉	-8818
台車	-8819
農林	-8820
を取る	-8821
を立ち	-8822
アール	-8823
作家の	-8824
全国の	-8825
を学んだ	-8826
何らかの	-8827
を使用している	-8828
ぼう	-8829
わら	-8830
開校	-8831
を必要	-8832
医学部	-8833
議会は	-8834
っていく	-8835
サウルス	-8836
、1964	-8837
、1971	-8838
にかけての	-8839
を設立した	-8840
An	-8841
を介	-8842
上級	-8843
全長	-8844
商標	-8845
NFL	-8846
eat	-8847
に進出	-8848
ジェル	-8849
議会の	-8850
』(19	-8851
シュート	-8852
ユニオン	-8853
争い	-8854
山に	-8855
建国	-8856
校長	-8857
渡り	-8858
のちの	-8859
マンド	-8860
▁現在は	-8861
した上で	-8862
ようやく	-8863
コマンド	-8864
を搭載した	-8865
されることもある	-8866
めの	-8867
保証	-8868
変異	-8869
所持	-8870
早い	-8871
満洲	-8872
ool	-8873
の一部を	-8874
起こった	-8875
付けられている	-8876
厳密	-8877
満足	-8878
滅亡	-8879
階段	-8880
食事	-8881
東海道	-8882
試合は	-8883
を率いて	-8884
フェリー	-8885
発展した	-8886
▁生い立ち	-8887
▁さ	-8888
を襲	-8889
エキ	-8890
ギア	-8891
喪失	-8892
夜の	-8893
幼い	-8894
法則	-8895
の制作	-8896
同士の	-8897
沿いに	-8898
現役を	-8899
社会人	-8900
述べる	-8901
マラソン	-8902
▁Q	-8903
後任	-8904
橋本	-8905
満了	-8906
総称	-8907
▁まさ	-8908
▁ディ	-8909
セブン	-8910
ツィア	-8911
万人の	-8912
1964	-8913
といえる	-8914
▁1983	-8915
フィラデル	-8916
キリ	-8917
低迷	-8918
土佐	-8919
役に	-8920
所長	-8921
業の	-8922
渡し	-8923
特集	-8924
長編	-8925
ace	-8926
▁文化	-8927
ドメイン	-8928
記者会見	-8929
先生	-8930
出て	-8931
幼稚	-8932
の中の	-8933
まったく	-8934
に向かった	-8935
透明	-8936
達が	-8937
の記録	-8938
を書き	-8939
エルの	-8940
エンス	-8941
セッツ	-8942
そうした	-8943
地理	-8944
引っ	-8945
支流	-8946
被災	-8947
Web	-8948
岩手県	-8949
年後に	-8950
▁1982	-8951
儀式	-8952
呼吸	-8953
治安	-8954
の生産	-8955
を追加	-8956
ストップ	-8957
出演している	-8958
されることとなった	-8959
住友	-8960
以後は	-8961
部分の	-8962
マーケティング	-8963
02	-8964
bo	-8965
だん	-8966
ばん	-8967
専念	-8968
年目	-8969
所得	-8970
本人	-8971
が最も	-8972
テリー	-8973
制作の	-8974
モバイル	-8975
DP	-8976
▁文	-8977
で見	-8978
を抑	-8979
上流	-8980
号を	-8981
樹立	-8982
警視	-8983
返り	-8984
アルゴ	-8985
ターボ	-8986
ことを知	-8987
に出場し	-8988
を取り戻	-8989
のみである	-8990
スペインの	-8991
CA	-8992
成人	-8993
政官	-8994
教養	-8995
()、	-8996
ite	-8997
ついに	-8998
批評家	-8999
を設立し	-9000
共産主義	-9001
内にある	-9002
▁1950	-9003
日米	-9004
最下	-9005
民営	-9006
発の	-9007
豊臣	-9008
もこの	-9009
列車の	-9010
FIFA	-9011
めており	-9012
されるなど	-9013
されておらず	-9014
が続	-9015
宮城	-9016
抗争	-9017
にいる	-9018
を題材	-9019
まれている	-9020
ps	-9021
と第	-9022
吉野	-9023
恒星	-9024
母音	-9025
通学	-9026
が完成	-9027
ナチス	-9028
を起こし	-9029
日現在の	-9030
。1994	-9031
に出場した	-9032
上下	-9033
博多	-9034
得票	-9035
所領	-9036
楽園	-9037
重複	-9038
が掲載	-9039
カーン	-9040
二人の	-9041
医薬品	-9042
奈良県	-9043
独特の	-9044
研究会	-9045
の戦いで	-9046
かれており	-9047
つは	-9048
クタ	-9049
入場	-9050
客員	-9051
権は	-9052
老朽	-9053
ork	-9054
お笑い	-9055
以上に	-9056
現れた	-9057
長らく	-9058
選挙では	-9059
チューセッツ	-9060
参加している	-9061
何も	-9062
看板	-9063
パール	-9064
回大会	-9065
架空の	-9066
オレンジ	-9067
ジメント	-9068
フィート	-9069
で行われる	-9070
に代わって	-9071
大学文学部	-9072
逮捕された	-9073
以下のような	-9074
することもある	-9075
▁国	-9076
りば	-9077
大気	-9078
が発足	-9079
レード	-9080
歳から	-9081
チャンピオンズ	-9082
なき	-9083
分散	-9084
橋の	-9085
によく	-9086
に改名	-9087
に過ぎ	-9088
シオン	-9089
リーナ	-9090
インドの	-9091
ction	-9092
が生まれた	-9093
-9	-9094
08	-9095
ru	-9096
つもり	-9097
都市の	-9098
込まれる	-9099
スプリング	-9100
2』	-9101
ma	-9102
そば	-9103
ゆく	-9104
岡崎	-9105
現状	-9106
語を	-9107
ビール	-9108
理由は	-9109
を飾った	-9110
させている	-9111
されることになった	-9112
々は	-9113
あの	-9114
小倉	-9115
招待	-9116
田区	-9117
野菜	-9118
をとる	-9119
スピン	-9120
。1995	-9121
ナポレオン	-9122
続けている	-9123
ヴィルヘルム	-9124
づく	-9125
実在	-9126
幕末	-9127
ごとの	-9128
パネル	-9129
ブール	-9130
植物の	-9131
者には	-9132
長距離	-9133
シンボル	-9134
位置づけ	-9135
HD	-9136
カの	-9137
互換	-9138
悪い	-9139
救援	-9140
有利	-9141
歩行	-9142
滋賀県	-9143
階建て	-9144
・・	-9145
公益	-9146
技は	-9147
春の	-9148
通路	-9149
釈放	-9150
で死去	-9151
を防ぐ	-9152
任意の	-9153
であって	-9154
博士課程	-9155
廃止され	-9156
キャプテン	-9157
団地	-9158
飲み	-9159
が発見	-9160
とても	-9161
司令部	-9162
ことなく	-9163
と同様の	-9164
と語った	-9165
現役引退	-9166
でん	-9167
ゼー	-9168
ヘー	-9169
倶楽	-9170
飛ば	-9171
が開発	-9172
テニス	-9173
アシスト	-9174
カロライ	-9175
フェラー	-9176
ギタリスト	-9177
"」	-9178
スミ	-9179
作目	-9180
偶然	-9181
正義	-9182
ram	-9183
▁一般	-9184
なのか	-9185
ポリス	-9186
するには	-9187
に向けた	-9188
スポット	-9189
HI	-9190
▁永	-9191
は見	-9192
上り	-9193
入院	-9194
反射	-9195
在任	-9196
川市	-9197
復元	-9198
斎藤	-9199
楽天	-9200
浜松	-9201
要件	-9202
マルク	-9203
団体の	-9204
連続で	-9205
することにより	-9206
を営	-9207
ラフ	-9208
傍ら	-9209
党は	-9210
が日本	-9211
を訪問	-9212
カテゴ	-9213
ージュ	-9214
取り組み	-9215
描かれた	-9216
投球	-9217
青森県	-9218
得られる	-9219
▁神	-9220
ズと	-9221
メソ	-9222
地位	-9223
日立	-9224
鎮圧	-9225
から見	-9226
せずに	-9227
ッセル	-9228
ニズム	-9229
とは別に	-9230
わなかった	-9231
特徴である	-9232
出発	-9233
話が	-9234
ジェネ	-9235
パック	-9236
中華民国	-9237
漫画作品	-9238
を担当する	-9239
ジャイアン	-9240
で構成される	-9241
登場している	-9242
先頭	-9243
夫は	-9244
系譜	-9245
えると	-9246
正確な	-9247
▁翌	-9248
会合	-9249
みんな	-9250
を置き	-9251
化が進	-9252
略称は	-9253
研究員	-9254
成立した	-9255
ゼフ	-9256
景観	-9257
表紙	-9258
隻の	-9259
商店街	-9260
が発生し	-9261
じゃない	-9262
生活を送	-9263
配信された	-9264
ラジ	-9265
筑波	-9266
質量	-9267
しかも	-9268
土地を	-9269
富山県	-9270
年東京	-9271
米国の	-9272
プリント	-9273
公立小学校	-9274
を成	-9275
天使	-9276
州で	-9277
木造	-9278
業者	-9279
賞の	-9280
近衛	-9281
閉店	-9282
と評価	-9283
に興味	-9284
セリエ	-9285
作品で	-9286
入れて	-9287
を発表し	-9288
グレード	-9289
したもので	-9290
ためである	-9291
に失敗	-9292
ピーク	-9293
付近の	-9294
影響を	-9295
テレビの	-9296
を利用した	-9297
開始された	-9298
の遺	-9299
を去	-9300
侵略	-9301
廃棄	-9302
被告	-9303
りゅう	-9304
ソンが	-9305
ミラー	-9306
国家の	-9307
大規模	-9308
が存在し	-9309
は非常に	-9310
ソフトバンク	-9311
4.	-9312
熊野	-9313
魅力	-9314
▁Sh	-9315
本名は	-9316
豊かな	-9317
を起こす	-9318
▁1979	-9319
コンクール	-9320
人事	-9321
仮説	-9322
将校	-9323
推奨	-9324
甲府	-9325
面を	-9326
ABC	-9327
ier	-9328
▁分布	-9329
が起き	-9330
クーデ	-9331
学校で	-9332
第一次	-9333
マルクス	-9334
完全移籍	-9335
といわれている	-9336
07	-9337
わか	-9338
モス	-9339
ロニ	-9340
出資	-9341
師匠	-9342
日産	-9343
法的	-9344
滑走	-9345
1.5	-9346
▁Un	-9347
に従い	-9348
カート	-9349
SO	-9350
時台	-9351
磁気	-9352
近江	-9353
ハルト	-9354
会議で	-9355
連合国	-9356
1965	-9357
タイトルは	-9358
ユニバーサル	-9359
がく	-9360
に集	-9361
ザス	-9362
中島	-9363
化は	-9364
合理	-9365
奨励	-9366
ile	-9367
ラップ	-9368
過程で	-9369
以前から	-9370
当選した	-9371
かつて存在した	-9372
学区は以下の通りとなる	-9373
を執	-9374
進歩	-9375
ッセイ	-9376
から構成	-9377
過ごした	-9378
それ以外の	-9379
グラウンド	-9380
||0||0	-9381
ey	-9382
南海	-9383
幹事	-9384
意向	-9385
殿堂	-9386
視覚	-9387
間隔	-9388
▁かつては	-9389
ほとんどが	-9390
含む	-9391
声を	-9392
水準	-9393
浦和	-9394
に渡り	-9395
pple	-9396
ともいう	-9397
チェック	-9398
PlayStation	-9399
本を	-9400
海域	-9401
ぎょう	-9402
ダーク	-9403
列車は	-9404
小説家	-9405
趣味は	-9406
が続いた	-9407
ジョンの	-9408
、1969	-9409
に出演した	-9410
二軍	-9411
夜間	-9412
彼ら	-9413
端の	-9414
純粋	-9415
西は	-9416
oft	-9417
中から	-9418
名義で	-9419
時期は	-9420
車両は	-9421
が始まり	-9422
キム	-9423
チリ	-9424
名詞	-9425
王位	-9426
総長	-9427
財務	-9428
の自由	-9429
1962	-9430
▁市立小	-9431
、1963	-9432
新設された	-9433
を受けていた	-9434
オリジナルの	-9435
%)	-9436
と対	-9437
大宮	-9438
損失	-9439
石炭	-9440
第四	-9441
の指導	-9442
ケード	-9443
方法は	-9444
が初めて	-9445
クリエイ	-9446
やか	-9447
調節	-9448
越し	-9449
決めた	-9450
クラブの	-9451
ヘリコプター	-9452
に直	-9453
ハマ	-9454
夫人	-9455
望遠	-9456
次官	-9457
行方	-9458
踊り	-9459
▁サン	-9460
んだが	-9461
ナーの	-9462
記事を	-9463
に必要な	-9464
るという	-9465
テキスト	-9466
基礎自治体	-9467
▁白	-9468
に定	-9469
延び	-9470
様子	-9471
から外	-9472
に勤務	-9473
の発展	-9474
会社が	-9475
併せて	-9476
出され	-9477
副会長	-9478
講談社	-9479
した結果	-9480
これまでの	-9481
ものとして	-9482
に準	-9483
探検	-9484
▁ST	-9485
▁など	-9486
の中国	-9487
の高い	-9488
ブラウ	-9489
ベック	-9490
訪れた	-9491
ペルシア	-9492
観点から	-9493
。1992	-9494
されたのは	-9495
リーグ優勝	-9496
▁ザ	-9497
享保	-9498
併用	-9499
頃には	-9500
プローチ	-9501
ファイター	-9502
条の	-9503
東は	-9504
源氏	-9505
熱心	-9506
薬物	-9507
認証	-9508
mer	-9509
▁An	-9510
▁前作	-9511
ゲット	-9512
体育館	-9513
北九州	-9514
自体が	-9515
陸軍の	-9516
▁当初は	-9517
サスペン	-9518
として生まれた	-9519
おも	-9520
しさ	-9521
体操	-9522
敗退	-9523
破り	-9524
識別	-9525
▁Th	-9526
の前に	-9527
傷を負	-9528
年前に	-9529
生放送	-9530
、100	-9531
、1965	-9532
▁平	-9533
二郎	-9534
出典	-9535
北方	-9536
弾薬	-9537
抜擢	-9538
を管轄	-9539
シウム	-9540
停留所	-9541
制度の	-9542
ogle	-9543
住居表示	-9544
しておらず	-9545
ラマ	-9546
リラ	-9547
首長	-9548
にその	-9549
を担う	-9550
アクセ	-9551
世紀末	-9552
個人の	-9553
正しい	-9554
駐車場	-9555
シャルル	-9556
メジャーデビュー	-9557
カメ	-9558
加賀	-9559
診療	-9560
黄金	-9561
130	-9562
に使用	-9563
幼稚園	-9564
香川県	-9565
ical	-9566
ベーター	-9567
▁1972	-9568
、1967	-9569
原則として	-9570
du	-9571
ロの	-9572
法学	-9573
だけが	-9574
を破壊	-9575
ディナ	-9576
出身で	-9577
組織の	-9578
経済的	-9579
ガールズ	-9580
旅客鉄道	-9581
ウェールズ	-9582
UC	-9583
で約	-9584
東急	-9585
男の	-9586
職務	-9587
▁cm	-9588
ナード	-9589
ブロン	-9590
世代の	-9591
従五位	-9592
キハ	-9593
中退	-9594
川と	-9595
短く	-9596
降板	-9597
ゼント	-9598
ライズ	-9599
ヴィヒ	-9600
方程式	-9601
選挙に	-9602
しかない	-9603
プロセス	-9604
フィクション	-9605
06	-9606
ツォ	-9607
中期	-9608
主任	-9609
和解	-9610
尽く	-9611
州立	-9612
怪獣	-9613
改編	-9614
習慣	-9615
ようと	-9616
ベール	-9617
段階で	-9618
▁100	-9619
を経由して	-9620
エリザベス	-9621
Sp	-9622
▁ト	-9623
「"	-9624
の真	-9625
通勤	-9626
を批判	-9627
ベンチ	-9628
ライド	-9629
会社は	-9630
後述の	-9631
ダブルス	-9632
▁1981	-9633
ものもある	-9634
示している	-9635
データベース	-9636
ヴァイオリン	-9637
に特	-9638
東方	-9639
科医	-9640
簡単	-9641
辞職	-9642
の指揮	-9643
を宣言	-9644
シェア	-9645
ムスリ	-9646
以降に	-9647
▁真	-9648
ぐる	-9649
前身	-9650
評判	-9651
はこれを	-9652
、1945	-9653
システムは	-9654
スティーヴ	-9655
やし	-9656
れず	-9657
シエ	-9658
900	-9659
の方が	-9660
日平均	-9661
▁テレビ	-9662
コンテナ	-9663
ベクトル	-9664
に至るまで	-9665
を起こした	-9666
平方マイル	-9667
oo	-9668
を倒	-9669
成田	-9670
確実	-9671
過剰	-9672
評論家	-9673
ようとした	-9674
ミュンヘン	-9675
:)	-9676
に叙	-9677
ろん	-9678
リは	-9679
牝馬	-9680
砲塔	-9681
駅が	-9682
に属し	-9683
フュー	-9684
▁個人成績	-9685
マーシャル	-9686
いん	-9687
がり	-9688
体で	-9689
後ろ	-9690
東の	-9691
楕円	-9692
語源	-9693
周囲の	-9694
格闘技	-9695
ッシャー	-9696
殺された	-9697
路線バス	-9698
をもたらす	-9699
試合に出場し	-9700
されていなかった	-9701
LD	-9702
○○	-9703
が再	-9704
入植	-9705
情勢	-9706
良好	-9707
が搭載	-9708
ドール	-9709
日の対	-9710
利用できる	-9711
グラフィック	-9712
あん	-9713
さか	-9714
に赴	-9715
りん	-9716
得意	-9717
法廷	-9718
簡易	-9719
ストア	-9720
ミール	-9721
キャップ	-9722
相互作用	-9723
ルフ	-9724
省略	-9725
シェイ	-9726
この年は	-9727
を決める	-9728
者であった	-9729
カプ	-9730
コク	-9731
制約	-9732
改装	-9733
民俗	-9734
策定	-9735
親交	-9736
オンの	-9737
石川県	-9738
ivers	-9739
▁1975	-9740
、1966	-9741
。1993	-9742
センチメートル	-9743
09	-9744
」.	-9745
十三	-9746
民の	-9747
秋田県	-9748
地域では	-9749
原の	-9750
の時代	-9751
を研究	-9752
大西洋	-9753
を訪れた	-9754
作風	-9755
増大	-9756
戦力	-9757
最適	-9758
PER	-9759
▁試合	-9760
アダム	-9761
消滅した	-9762
総理大臣	-9763
りと	-9764
照明	-9765
警告	-9766
old	-9767
コーポ	-9768
▁紀元前	-9769
していると	-9770
投与	-9771
敗戦	-9772
正当	-9773
空中	-9774
鑑賞	-9775
以内に	-9776
以降も	-9777
取って	-9778
計画を	-9779
クリスト	-9780
とみられる	-9781
ウォーター	-9782
基本的には	-9783
三河	-9784
砲兵	-9785
野の	-9786
骨折	-9787
が勃発	-9788
で販売	-9789
ヴィチ	-9790
愛媛県	-9791
と言った	-9792
をもとに	-9793
ディエゴ	-9794
主人公の	-9795
。1960	-9796
示されている	-9797
ソウ	-9798
当局	-9799
水上	-9800
und	-9801
ほかに	-9802
路線は	-9803
▁You	-9804
年連続で	-9805
知られた	-9806
▁1973	-9807
マサチューセッツ	-9808
シの	-9809
徒歩	-9810
本店	-9811
ライヴ	-9812
大量の	-9813
結果は	-9814
▁1978	-9815
サービスの	-9816
ax	-9817
ザイ	-9818
保全	-9819
年も	-9820
敗で	-9821
本町	-9822
津市	-9823
を切り	-9824
セラー	-9825
不可能	-9826
1966	-9827
を継いだ	-9828
▁イギリス	-9829
クロアチア	-9830
バルセロナ	-9831
マレーシア	-9832
Sh	-9833
▁ル	-9834
ぞう	-9835
ゴム	-9836
例は	-9837
私の	-9838
res	-9839
▁on	-9840
▁バス	-9841
▁家族	-9842
の主題	-9843
機関の	-9844
▁北海道	-9845
短期大学	-9846
。1991	-9847
エンターテインメント	-9848
WS	-9849
中日	-9850
小屋	-9851
放棄	-9852
通し	-9853
と思い	-9854
仮面ライダー	-9855
ぐん	-9856
全般	-9857
厩舎	-9858
圧力	-9859
▁II	-9860
」・「	-9861
と合併	-9862
やその	-9863
を製造	-9864
アーム	-9865
シード	-9866
リンは	-9867
以下に	-9868
各国の	-9869
地中海	-9870
ワンマン	-9871
国際映画祭	-9872
たん	-9873
を呼	-9874
両が	-9875
堆積	-9876
敵の	-9877
行し	-9878
読む	-9879
を破り	-9880
ミット	-9881
手続き	-9882
えており	-9883
するのが	-9884
アメリカで	-9885
選出された	-9886
▁y	-9887
▁太	-9888
キの	-9889
タケ	-9890
メリ	-9891
・3	-9892
前田	-9893
役職	-9894
詰め	-9895
身分	-9896
郷土	-9897
マイン	-9898
ミステ	-9899
ワーズ	-9900
前には	-9901
協同組合	-9902
電気鉄道	-9903
▁フランス	-9904
結果として	-9905
じょ	-9906
公募	-9907
前期	-9908
山陽	-9909
州は	-9910
死の	-9911
浅草	-9912
▁主に	-9913
シミュ	-9914
ガーデン	-9915
サークル	-9916
ークラブ	-9917
スマートフォン	-9918
で放送されていた	-9919
.)	-9920
の有	-9921
ニル	-9922
墜落	-9923
気が	-9924
門の	-9925
わせる	-9926
単なる	-9927
形式の	-9928
という説	-9929
映画監督	-9930
が登場する	-9931
もあったが	-9932
セフ	-9933
命中	-9934
学士	-9935
101	-9936
ここに	-9937
に着手	-9938
働いた	-9939
スイッチ	-9940
ystem	-9941
codice	-9942
▁https	-9943
チームメイト	-9944
けば	-9945
こだ	-9946
アサ	-9947
ザル	-9948
ッパ	-9949
打席	-9950
貨幣	-9951
の下に	-9952
の販売	-9953
は後に	-9954
をおこ	-9955
問題は	-9956
科学技術	-9957
ii	-9958
ヒン	-9959
右翼	-9960
救急	-9961
模型	-9962
水平	-9963
ina	-9964
ode	-9965
の技術	-9966
を否定	-9967
スリー	-9968
バット	-9969
ボルト	-9970
具体的な	-9971
があるため	-9972
オイ	-9973
住む	-9974
内陸	-9975
石井	-9976
ott	-9977
ほうが	-9978
ストリ	-9979
望遠鏡	-9980
のだった	-9981
の可能性	-9982
まっていた	-9983
何か	-9984
概ね	-9985
歩道	-9986
盤の	-9987
神聖	-9988
で日本	-9989
ガイド	-9990
トロン	-9991
ルーツ	-9992
建物の	-9993
したことにより	-9994
バラエティ番組	-9995
不能	-9996
失点	-9997
駅と	-9998
NTT	-9999
に戻る	-10000
ラーが	-10001
外務省	-10002
モデルは	-10003
残っている	-10004
ずる	-10005
ばら	-10006
世と	-10007
位と	-10008
正面	-10009
浮か	-10010
目が	-10011
陣営	-10012
に出て	-10013
かったが	-10014
が生じる	-10015
せられた	-10016
▁1971	-10017
に指定された	-10018
パシ	-10019
免疫	-10020
法令	-10021
洪水	-10022
符号	-10023
ood	-10024
シニア	-10025
種牡馬	-10026
▁Sch	-10027
ソニック	-10028
平安時代	-10029
現存する	-10030
▁ナ	-10031
をお	-10032
マケ	-10033
北は	-10034
式で	-10035
。14	-10036
に派遣	-10037
を求めて	-10038
NC	-10039
さの	-10040
改訂	-10041
笠原	-10042
艦艇	-10043
と説明	-10044
に尽力	-10045
の子孫	-10046
まると	-10047
を守る	-10048
アルメ	-10049
▁ドイツ	-10050
ザクセン	-10051
期限付き	-10052
行われていた	-10053
原料	-10054
島根	-10055
療養	-10056
石を	-10057
してい	-10058
を図る	-10059
ところで	-10060
、2025	-10061
することによって	-10062
af	-10063
が施	-10064
ッテ	-10065
倉庫	-10066
大坂	-10067
妙な	-10068
松竹	-10069
特異	-10070
が運行	-10071
に勝利	-10072
を制作	-10073
マスコ	-10074
国民の	-10075
負けを喫	-10076
。1989	-10077
ことができ	-10078
ことはない	-10079
"、	-10080
アキ	-10081
並べ	-10082
専属	-10083
工芸	-10084
立って	-10085
、1948	-10086
に提	-10087
を教	-10088
大衆	-10089
症候	-10090
血管	-10091
アラン	-10092
ラード	-10093
育った	-10094
▁Rec	-10095
シングルス	-10096
したことから	-10097
でありながら	-10098
)「	-10099
が急	-10100
セク	-10101
名に	-10102
実況	-10103
慶応	-10104
車種	-10105
それら	-10106
と呼称	-10107
をつけ	-10108
デート	-10109
フルト	-10110
マンガ	-10111
シドニー	-10112
厚生労働	-10113
だけではなく	-10114
マネジメント	-10115
えい	-10116
ドミ	-10117
対称	-10118
当然	-10119
進む	-10120
を発揮	-10121
カーの	-10122
長崎県	-10123
に掲載された	-10124
どれ	-10125
の形	-10126
回想	-10127
社に	-10128
▁開発	-10129
わたり	-10130
リウム	-10131
感じた	-10132
父親は	-10133
1500	-10134
どちらも	-10135
と比較して	-10136
系アメリカ	-10137
BF	-10138
を誇	-10139
カウ	-10140
女神	-10141
季節	-10142
東大	-10143
王妃	-10144
生態	-10145
系図	-10146
馬場	-10147
ダート	-10148
神奈川	-10149
セカンド	-10150
ドリーム	-10151
バンドの	-10152
を記念して	-10153
人であった	-10154
選手権では	-10155
しみ	-10156
ロド	-10157
金は	-10158
のだが	-10159
コンド	-10160
ユーゴ	-10161
ハンマド	-10162
コラボレーション	-10163
フィラデルフィア	-10164
IO	-10165
はら	-10166
収益	-10167
度で	-10168
藩士	-10169
長年	-10170
▁Ex	-10171
に収録	-10172
リッチ	-10173
劇場版	-10174
外国語	-10175
さらなる	-10176
を挙げる	-10177
該当する	-10178
TD	-10179
の妻	-10180
ラが	-10181
債務	-10182
立体	-10183
でなく	-10184
に立ち	-10185
ビーム	-10186
ヴィア	-10187
決して	-10188
間には	-10189
するのに	-10190
を作った	-10191
ストリー	-10192
主導	-10193
予告	-10194
堂の	-10195
脂肪	-10196
親衛	-10197
に合流	-10198
計画が	-10199
リティー	-10200
▁1976	-10201
次のような	-10202
De	-10203
HC	-10204
が多	-10205
を望	-10206
ミャ	-10207
不全	-10208
勧告	-10209
誰も	-10210
革新	-10211
かした	-10212
ウィー	-10213
ピール	-10214
マップ	-10215
山梨県	-10216
年時点で	-10217
記載されている	-10218
党首	-10219
噴火	-10220
暮ら	-10221
金銭	-10222
に入れ	-10223
の一員	-10224
を集め	-10225
アーノ	-10226
▁登場人物	-10227
グループは	-10228
プロデビュー	-10229
』。	-10230
に重	-10231
回数	-10232
大尉	-10233
就職	-10234
思議	-10235
抽選	-10236
海底	-10237
落と	-10238
触媒	-10239
▁CD	-10240
に在籍	-10241
に敗れ	-10242
ザーズ	-10243
ビルの	-10244
共和党	-10245
問題の	-10246
1963	-10247
ホールディングス	-10248
Sc	-10249
安価	-10250
岸の	-10251
幾何	-10252
摂取	-10253
砂漠	-10254
Mar	-10255
に専念	-10256
んです	-10257
方法で	-10258
社会の	-10259
ポケット	-10260
東日本大震災	-10261
ソングライター	-10262
ッシ	-10263
分か	-10264
村が	-10265
道徳	-10266
カルタ	-10267
レディ	-10268
彼女が	-10269
最初は	-10270
クラーク	-10271
ダンサー	-10272
レーザー	-10273
ition	-10274
、1961	-10275
デザインは	-10276
できるように	-10277
IX	-10278
の父	-10279
値は	-10280
垂直	-10281
壊滅	-10282
月中	-10283
▁位置	-10284
終了後	-10285
を卒業後	-10286
年代初頭	-10287
フォワード	-10288
プレミアム	-10289
だったという	-10290
PK	-10291
の森	-10292
足を	-10293
を買収	-10294
パーツ	-10295
建物は	-10296
飛行場	-10297
の一部が	-10298
フィック	-10299
HS	-10300
南米	-10301
機材	-10302
流入	-10303
発明	-10304
||2	-10305
らせた	-10306
銅メダル	-10307
半径	-10308
描き	-10309
食い	-10310
で使用	-10311
と発言	-10312
に加盟	-10313
レーン	-10314
彼らが	-10315
ばかりの	-10316
アーサー	-10317
学院大学	-10318
用として	-10319
繰り返し	-10320
クーデター	-10321
トレードで	-10322
5,	-10323
ふた	-10324
れの	-10325
可決	-10326
各地	-10327
学ぶ	-10328
標的	-10329
ium	-10330
son	-10331
に搭載	-10332
定期的に	-10333
、1949	-10334
ジャクソン	-10335
リトアニア	-10336
スワ	-10337
同人	-10338
小松	-10339
市域	-10340
政務	-10341
烈な	-10342
量子	-10343
を考慮	-10344
ニール	-10345
ホラー	-10346
戦った	-10347
ダニエル	-10348
がなかった	-10349
ジョーンズ	-10350
されてしまう	-10351
事は	-10352
北の	-10353
天井	-10354
度々	-10355
日程	-10356
電機	-10357
めると	-10358
機能を	-10359
表記は	-10360
リゾート	-10361
世紀から	-10362
yn	-10363
さく	-10364
に導	-10365
ズル	-10366
動機	-10367
各国	-10368
着用	-10369
電圧	-10370
MVP	-10371
が放送	-10372
バレン	-10373
編集長	-10374
が始まる	-10375
を備えた	-10376
化されている	-10377
IE	-10378
あげ	-10379
の初	-10380
南極	-10381
撃墜	-10382
日と	-10383
殺し	-10384
SNS	-10385
が死去	-10386
を執筆	-10387
コーン	-10388
各地に	-10389
大学校	-10390
関係は	-10391
ファーム	-10392
キーボード	-10393
タイトルの	-10394
PA	-10395
が作	-10396
を訴	-10397
セグ	-10398
ーリ	-10399
死ぬ	-10400
気圧	-10401
船は	-10402
が強く	-10403
と改名	-10404
を重視	-10405
ピング	-10406
リレー	-10407
ルーム	-10408
日本の元	-10409
を表明した	-10410
メンバーは	-10411
JA	-10412
に付	-10413
官は	-10414
浮上	-10415
秩序	-10416
締め	-10417
船が	-10418
高架	-10419
鹿島	-10420
が設定	-10421
くれた	-10422
ジョル	-10423
支配下	-10424
、1930	-10425
、1959	-10426
、1962	-10427
の数	-10428
の王	-10429
改称	-10430
敵対	-10431
葉は	-10432
集会	-10433
ron	-10434
ナーは	-10435
語では	-10436
鉄道は	-10437
▁一方で	-10438
にわたる	-10439
の一部は	-10440
ってしまう	-10441
制定された	-10442
が収録されている	-10443
傾斜	-10444
内を	-10445
南の	-10446
降下	-10447
ペース	-10448
であること	-10449
セントラル	-10450
プロテスタント	-10451
いたま	-10452
どんな	-10453
ピアニ	-10454
ブリン	-10455
年間で	-10456
▁プロ入り	-10457
、1944	-10458
その一方で	-10459
スズ	-10460
話す	-10461
ros	-10462
サーバ	-10463
バキア	-10464
レアル	-10465
周波数	-10466
たびたび	-10467
、1942	-10468
ヘッドコーチ	-10469
Th	-10470
▁→	-10471
を押	-10472
ウエ	-10473
平面	-10474
技師	-10475
藤田	-10476
踏み	-10477
マンが	-10478
大会は	-10479
近くに	-10480
と言える	-10481
ジョンは	-10482
、1958	-10483
という名称	-10484
られてきた	-10485
タイガース	-10486
ユーゴスラ	-10487
影響を与えた	-10488
KE	-10489
てた	-10490
を構	-10491
ハロ	-10492
完結	-10493
歌謡	-10494
から離	-10495
を扱う	-10496
コック	-10497
ニーは	-10498
作品に	-10499
日までの	-10500
、1947	-10501
並ぶ	-10502
同意	-10503
大島	-10504
oci	-10505
▁Sc	-10506
国内で	-10507
攻撃を	-10508
暮らし	-10509
有する	-10510
直前の	-10511
を避ける	-10512
を提供する	-10513
専務	-10514
市販	-10515
来て	-10516
ohn	-10517
が無い	-10518
づくり	-10519
を依頼	-10520
セキュ	-10521
ダイナ	-10522
厳しく	-10523
ジャーズ	-10524
メニュー	-10525
およびその	-10526
シリーズは	-10527
へ転	-10528
メド	-10529
庁の	-10530
牧師	-10531
艦長	-10532
話の	-10533
高田	-10534
Blu	-10535
the	-10536
運動の	-10537
ジュアル	-10538
こととなる	-10539
と評している	-10540
が第	-10541
テオ	-10542
内戦	-10543
書は	-10544
法で	-10545
褐色	-10546
親友	-10547
これも	-10548
with	-10549
化している	-10550
カップリング	-10551
ダは	-10552
内蔵	-10553
基の	-10554
海に	-10555
願い	-10556
と共演	-10557
個々の	-10558
博士号	-10559
文化の	-10560
本拠地	-10561
著しく	-10562
したのが	-10563
その中で	-10564
メアリー	-10565
アーケード	-10566
いま	-10567
さず	-10568
加速	-10569
姫路	-10570
性愛	-10571
繁栄	-10572
道は	-10573
ゲージ	-10574
ダース	-10575
付近で	-10576
代藩主	-10577
に置き換	-10578
をつけて	-10579
同時期に	-10580
高く評価	-10581
むね	-10582
商工	-10583
定数	-10584
行い	-10585
配慮	-10586
キース	-10587
で敗れた	-10588
に大きく	-10589
▁1977	-10590
初回限定盤	-10591
東京帝国大学	-10592
が描かれている	-10593
ペンシルベニア	-10594
UM	-10595
▁和	-10596
かも	-10597
の町	-10598
動詞	-10599
種目	-10600
落下	-10601
act	-10602
▁21	-10603
並びに	-10604
脚本家	-10605
どのような	-10606
ブライアン	-10607
を示している	-10608
期限付き移籍	-10609
uk	-10610
▁ダ	-10611
出現	-10612
同僚	-10613
子爵	-10614
宮内	-10615
山が	-10616
文の	-10617
海水	-10618
艦の	-10619
部下	-10620
高野	-10621
で活躍	-10622
二丁目	-10623
歳以上	-10624
ポケモン	-10625
ようになって	-10626
一旦	-10627
保育	-10628
冷却	-10629
らった	-10630
を設け	-10631
専門家	-10632
日本は	-10633
を続ける	-10634
変化する	-10635
3)	-10636
▁'	-10637
も見	-10638
を外	-10639
不振	-10640
力学	-10641
南京	-10642
技能	-10643
把握	-10644
釣り	-10645
手として	-10646
江戸時代の	-10647
インタビューで	-10648
助言	-10649
日市	-10650
木曜	-10651
花の	-10652
軽減	-10653
閲覧	-10654
ができ	-10655
の舞台	-10656
を授与	-10657
私生活	-10658
センサス	-10659
チームを	-10660
ッキング	-10661
がなされた	-10662
を告	-10663
ウリ	-10664
排出	-10665
総会	-10666
際は	-10667
Mac	-10668
プラザ	-10669
ベリア	-10670
ローラ	-10671
機関銃	-10672
land	-10673
はっきり	-10674
結果的に	-10675
が含まれる	-10676
6,	-10677
てつ	-10678
トマ	-10679
ベア	-10680
充実	-10681
近藤	-10682
っかり	-10683
と表現	-10684
タント	-10685
付近に	-10686
参加し	-10687
後期の	-10688
修士課程	-10689
ジャイアンツ	-10690
を採用している	-10691
指摘されている	-10692
)-	-10693
▁ホ	-10694
ツイ	-10695
控え	-10696
音響	-10697
の設計	-10698
を追い	-10699
マウス	-10700
一般の	-10701
沿いの	-10702
とはいえ	-10703
▁1974	-10704
に対応する	-10705
シーズンに	-10706
ギス	-10707
ヨル	-10708
倍の	-10709
国有	-10710
教区	-10711
防災	-10712
AFC	-10713
les	-10714
rou	-10715
高校生	-10716
じられる	-10717
大統領の	-10718
を抜	-10719
口の	-10720
地質	-10721
演習	-10722
解任	-10723
討伐	-10724
ハーフ	-10725
ポルノ	-10726
路線の	-10727
体である	-10728
国際的な	-10729
日からは	-10730
銀メダル	-10731
アプローチ	-10732
UT	-10733
がた	-10734
を自	-10735
iel	-10736
ベッド	-10737
リアー	-10738
幅広く	-10739
したほか	-10740
ファンの	-10741
朝日新聞	-10742
が手	-10743
力士	-10744
勾配	-10745
団は	-10746
弱い	-10747
推理	-10748
貧困	-10749
に登場	-10750
の番組	-10751
ニオン	-10752
はすべて	-10753
に位置している	-10754
南方	-10755
帯び	-10756
後退	-10757
野党	-10758
陰謀	-10759
ART	-10760
施設は	-10761
神戸市	-10762
する際に	-10763
シリーズでは	-10764
ヴェネツィア	-10765
コは	-10766
知的	-10767
And	-10768
グリー	-10769
グレー	-10770
年頃に	-10771
通称は	-10772
▁1968	-10773
ローマ帝国	-10774
とよ	-10775
と交	-10776
を欠	-10777
二十	-10778
伏見	-10779
武道	-10780
盛岡	-10781
蜂起	-10782
適応	-10783
には至	-10784
を創設	-10785
演じる	-10786
タイムズ	-10787
県にある	-10788
に関連する	-10789
ジャージー	-10790
することがある	-10791
地獄	-10792
寺に	-10793
微分	-10794
持続	-10795
理念	-10796
知名	-10797
が監督	-10798
を出し	-10799
ノベル	-10800
両者の	-10801
広大な	-10802
直前に	-10803
記した	-10804
フェルト	-10805
入りした	-10806
▁利用状況	-10807
エージェント	-10808
を積	-10809
三浦	-10810
東側	-10811
特性	-10812
ath	-10813
グッド	-10814
一緒に	-10815
建築家	-10816
明確に	-10817
を目指して	-10818
レンジャー	-10819
デビューした	-10820
みつ	-10821
ケネ	-10822
ハミ	-10823
倫理	-10824
寛政	-10825
干渉	-10826
族は	-10827
書簡	-10828
無限	-10829
累計	-10830
黒人	-10831
に似た	-10832
スミス	-10833
ブドウ	-10834
リンズ	-10835
公開の	-10836
副社長	-10837
目的は	-10838
この場合	-10839
チケット	-10840
デリック	-10841
作曲した	-10842
興行収入	-10843
、1940	-10844
勝ちを収め	-10845
ユーゴスラビア	-10846
▁モ	-10847
っち	-10848
タバ	-10849
就役	-10850
日野	-10851
補償	-10852
-21	-10853
が困難	-10854
が増加	-10855
を提案	-10856
ミラノ	-10857
速度は	-10858
1930	-10859
カウント	-10860
ピエール	-10861
万ドルの	-10862
失われた	-10863
▁1969	-10864
シュタット	-10865
が用いられる	-10866
PP	-10867
せよ	-10868
ふじ	-10869
レフ	-10870
仮想	-10871
口は	-10872
懲役	-10873
検定	-10874
に続く	-10875
を表現	-10876
区間は	-10877
地位を	-10878
終了し	-10879
1940	-10880
ディーン	-10881
にちなんで	-10882
含まれていた	-10883
新型コロナウイルス	-10884
rd	-10885
ニク	-10886
兵の	-10887
東区	-10888
東芝	-10889
に落ち	-10890
変わり	-10891
情報の	-10892
新しく	-10893
求める	-10894
とりわけ	-10895
典型的な	-10896
されたもの	-10897
オスマン帝国	-10898
りで	-10899
友好	-10900
坂本	-10901
差で	-10902
神殿	-10903
職の	-10904
類は	-10905
UFC	-10906
に依存	-10907
を確認	-10908
エント	-10909
オイル	-10910
日間の	-10911
ance	-10912
をつける	-10913
の弟	-10914
努力	-10915
山下	-10916
残留	-10917
、21	-10918
が導入	-10919
月の第	-10920
面では	-10921
1944	-10922
準々決勝	-10923
サーキット	-10924
、0	-10925
セガ	-10926
ッペ	-10927
ニエ	-10928
何度	-10929
山崎	-10930
救済	-10931
電化	-10932
▁戦後	-10933
カーブ	-10934
サント	-10935
ハイオ	-10936
下記の	-10937
計画の	-10938
らとともに	-10939
ムハンマド	-10940
_1	-10941
を志	-10942
アベ	-10943
シチ	-10944
一切	-10945
体調	-10946
元素	-10947
得る	-10948
狭い	-10949
邸宅	-10950
BGM	-10951
」()	-10952
ヤマト	-10953
と言われ	-10954
ドクター	-10955
タイミング	-10956
者となった	-10957
通りである	-10958
を組み合わせ	-10959
▁%	-10960
が強	-10961
グア	-10962
航行	-10963
pen	-10964
▁TO	-10965
スピー	-10966
幾つか	-10967
患者の	-10968
死した	-10969
olog	-10970
▁以下は	-10971
ひとつの	-10972
メロディ	-10973
っているが	-10974
に到着した	-10975
レスリング	-10976
アシスタント	-10977
以下のように	-10978
ペラ	-10979
元禄	-10980
式典	-10981
普段	-10982
は当初	-10983
ぶりの	-10984
事前に	-10985
切った	-10986
名前は	-10987
し始めた	-10988
とコメント	-10989
チャートで	-10990
することが発表された	-10991
LP	-10992
公職	-10993
出る	-10994
圏の	-10995
王に	-10996
薬剤	-10997
えもん	-10998
ツイン	-10999
徳島県	-11000
にわたり	-11001
位となり	-11002
調査では	-11003
求められる	-11004
使われていた	-11005
プログラミング	-11006
か所	-11007
が本	-11008
ては	-11009
ピオ	-11010
前方	-11011
大野	-11012
想像	-11013
船を	-11014
親善	-11015
かして	-11016
ピンク	-11017
切りに	-11018
契約で	-11019
マスコミ	-11020
東南アジア	-11021
Google	-11022
▁JAPAN	-11023
を任	-11024
を深	-11025
化粧	-11026
反響	-11027
控訴	-11028
橋梁	-11029
row	-11030
たちと	-11031
ナーズ	-11032
交通の	-11033
GA	-11034
ムス	-11035
公社	-11036
動向	-11037
発揮	-11038
野生	-11039
野田	-11040
lat	-11041
もいる	-11042
を伴う	-11043
アーキ	-11044
ペルー	-11045
止める	-11046
社会党	-11047
福井県	-11048
1961	-11049
マウント	-11050
史上初の	-11051
が運営する	-11052
ことによる	-11053
ベースボール	-11054
として知られている	-11055
▁し	-11056
ボブ	-11057
マカ	-11058
奏者	-11059
最上	-11060
水力	-11061
飲料	-11062
バリー	-11063
などにも	-11064
を満たす	-11065
意味する	-11066
発足した	-11067
スティング	-11068
とされていた	-11069
ディスプレイ	-11070
試合に出場して	-11071
GE	-11072
りは	-11073
ウズ	-11074
公衆	-11075
反撃	-11076
歌い	-11077
海戦	-11078
紙の	-11079
▁他の	-11080
を指揮	-11081
シスト	-11082
東京の	-11083
貴重な	-11084
ホイール	-11085
が多かった	-11086
アトランタ	-11087
フィギュアスケート	-11088
▁原	-11089
が終	-11090
に備	-11091
興業	-11092
ref	-11093
再開発	-11094
研究の	-11095
連合会	-11096
アイデア	-11097
ローマの	-11098
大統領は	-11099
、1956	-11100
入れている	-11101
起用された	-11102
KA	-11103
▁古	-11104
は西	-11105
やる	-11106
ケア	-11107
乗組	-11108
大量	-11109
好評	-11110
年を	-11111
水雷	-11112
男は	-11113
複製	-11114
軍勢	-11115
も参照	-11116
ステー	-11117
ワース	-11118
世界で	-11119
を取った	-11120
労働組合	-11121
さに	-11122
三島	-11123
四位	-11124
庶民	-11125
日目	-11126
演算	-11127
自体	-11128
▁JR	-11129
に出走	-11130
わかる	-11131
デント	-11132
フェリ	-11133
翌年に	-11134
トロント	-11135
バスター	-11136
出場機会	-11137
▁1944	-11138
▁江戸時代	-11139
、1955	-11140
CF	-11141
二人	-11142
州に	-11143
木材	-11144
物に	-11145
矛盾	-11146
社名	-11147
首席	-11148
RPG	-11149
さんの	-11150
ケープ	-11151
月中旬	-11152
inux	-11153
ords	-11154
それらは	-11155
も務めた	-11156
ボーナス	-11157
点である	-11158
センターの	-11159
自由民主党	-11160
co	-11161
へは	-11162
ロは	-11163
日が	-11164
素晴	-11165
都心	-11166
Mic	-11167
に分割	-11168
ましい	-11169
シフト	-11170
▁Ser	-11171
された後	-11172
を理由に	-11173
ショット	-11174
フレッド	-11175
国際連合	-11176
最後まで	-11177
的なもの	-11178
▁キャスト	-11179
にあたって	-11180
が挙げられる	-11181
アルゴリズム	-11182
スウェーデンの	-11183
sk	-11184
▁主	-11185
おき	-11186
テラ	-11187
毎回	-11188
聖職	-11189
街の	-11190
読者	-11191
隠し	-11192
を受章	-11193
サッカ	-11194
サンプ	-11195
ヒドロ	-11196
ラーズ	-11197
場所は	-11198
線の駅である	-11199
プチ	-11200
藤井	-11201
金が	-11202
青春	-11203
領事	-11204
TOK	-11205
に任ぜ	-11206
を楽し	-11207
▁かつて	-11208
かかった	-11209
と考えていた	-11210
していることが	-11211
かみ	-11212
を唱	-11213
一が	-11214
北区	-11215
農村	-11216
馬身	-11217
、1941	-11218
を歴任した	-11219
フォーミュ	-11220
伝記	-11221
例の	-11222
侵害	-11223
台北	-11224
展望	-11225
差異	-11226
退官	-11227
125	-11228
own	-11229
に利用	-11230
サーチ	-11231
ワイルド	-11232
と主張した	-11233
イングランドの	-11234
かね	-11235
中隊	-11236
津波	-11237
真の	-11238
が建設	-11239
ずっと	-11240
ケンタ	-11241
ビッド	-11242
メット	-11243
ロビン	-11244
八王子	-11245
切り替	-11246
年前の	-11247
警察官	-11248
フォース	-11249
ルーキー	-11250
機として	-11251
決まった	-11252
設立した	-11253
パレスチナ	-11254
高等学校卒業	-11255
DR	-11256
最強	-11257
話を	-11258
銀座	-11259
いたい	-11260
くれる	-11261
この間	-11262
を見る	-11263
バイク	-11264
同名の	-11265
形式で	-11266
に終わり	-11267
所有する	-11268
スクリーン	-11269
日本の女性	-11270
BR	-11271
が目	-11272
はし	-11273
を呈	-11274
今後	-11275
依然	-11276
州都	-11277
高崎	-11278
、25	-11279
今度は	-11280
将来の	-11281
成績は	-11282
明確な	-11283
かなりの	-11284
らと共に	-11285
わらない	-11286
に選出され	-11287
マーティン	-11288
にノミネート	-11289
パフォーマン	-11290
▁明	-11291
和平	-11292
探査	-11293
発注	-11294
CPU	-11295
▁Te	-11296
が特徴	-11297
に留学	-11298
に繋が	-11299
を決め	-11300
従って	-11301
短期間	-11302
科学者	-11303
に達した	-11304
交響楽団	-11305
和歌山県	-11306
が開催された	-11307
BI	-11308
一本	-11309
取扱	-11310
工程	-11311
狩猟	-11312
脚注	-11313
開局	-11314
をつと	-11315
映画館	-11316
警察の	-11317
ファイト	-11318
ヤクルト	-11319
者であり	-11320
、1957	-11321
を開始する	-11322
郵便番号は	-11323
▁フ	-11324
イチ	-11325
叔父	-11326
赤字	-11327
重力	-11328
隊員	-11329
が盛ん	-11330
を示し	-11331
地名は	-11332
肖像画	-11333
ジャース	-11334
▁1967	-11335
活動している	-11336
ニューヨーク州	-11337
城は	-11338
西の	-11339
首位	-11340
▁こう	-11341
と名乗	-11342
を経営	-11343
回った	-11344
起こる	-11345
近年は	-11346
1946	-11347
に見られる	-11348
アルバムの	-11349
ゾー	-11350
マシ	-11351
ョン	-11352
一は	-11353
出席	-11354
刺史	-11355
司祭	-11356
対空	-11357
捕食	-11358
日光	-11359
未だ	-11360
を派遣	-11361
自らが	-11362
英語の	-11363
評議会	-11364
ames	-11365
キャッチコピー	-11366
▁初	-11367
ちょ	-11368
テス	-11369
下流	-11370
少佐	-11371
性や	-11372
津軽	-11373
町と	-11374
等は	-11375
関節	-11376
itt	-11377
チンの	-11378
トリオ	-11379
ラビア	-11380
大聖堂	-11381
と結婚し	-11382
を大きく	-11383
ダメージ	-11384
ライブラ	-11385
、1946	-11386
、1953	-11387
。1988	-11388
接している	-11389
テクノロジー	-11390
IF	-11391
かた	-11392
の花	-11393
へ戻	-11394
ツク	-11395
夫が	-11396
学年	-11397
採掘	-11398
液体	-11399
粒子	-11400
継ぐ	-11401
に出席	-11402
に移管	-11403
ジェフ	-11404
ボウル	-11405
人口約	-11406
が起こり	-11407
ワーナー	-11408
朝日放送	-11409
有名である	-11410
エレベーター	-11411
異なっている	-11412
ソワ	-11413
メス	-11414
介護	-11415
功労	-11416
同期	-11417
妻は	-11418
指令	-11419
水泳	-11420
消し	-11421
長岡	-11422
の主張	-11423
ナイン	-11424
ロディ	-11425
人物が	-11426
部隊が	-11427
オファー	-11428
数の変遷	-11429
わっていた	-11430
は不明である	-11431
CG	-11432
の母	-11433
コブ	-11434
の状態	-11435
会議員	-11436
単純な	-11437
プレゼント	-11438
名付けられた	-11439
されることがある	-11440
HP	-11441
制服	-11442
島で	-11443
沿い	-11444
爵位	-11445
義の	-11446
net	-11447
と同一	-11448
ドニア	-11449
天文学	-11450
暮らす	-11451
系列の	-11452
に所属し	-11453
に移った	-11454
国会議員	-11455
、1952	-11456
を継承した	-11457
CL	-11458
うつ	-11459
の例	-11460
の約	-11461
捕獲	-11462
還元	-11463
食糧	-11464
を見せる	-11465
クイーン	-11466
Apple	-11467
▁隣接する	-11468
ことも多い	-11469
のに対して	-11470
はアメリカ	-11471
をそれぞれ	-11472
を卒業した	-11473
国土交通省	-11474
▁人	-11475
が分	-11476
アビ	-11477
棋士	-11478
真珠	-11479
INE	-11480
に到達	-11481
に組み	-11482
を送り	-11483
グアイ	-11484
乗車券	-11485
しやすい	-11486
ってくる	-11487
のもとで	-11488
の主要な	-11489
▁1966	-11490
大蔵	-11491
拳銃	-11492
日々	-11493
群は	-11494
行は	-11495
電磁	-11496
ank	-11497
の名は	-11498
を建て	-11499
を拡大	-11500
を発行	-11501
マニュ	-11502
パーティ	-11503
学科卒業	-11504
ae	-11505
▁川	-11506
ミナ	-11507
下記	-11508
参事	-11509
沈没	-11510
緊張	-11511
表す	-11512
音の	-11513
140	-11514
EST	-11515
を結び	-11516
億ドル	-11517
参議院	-11518
ッチャー	-11519
▁内	-11520
みた	-11521
オラ	-11522
幼児	-11523
空手	-11524
行の	-11525
車庫	-11526
▁ひろ	-11527
が主催	-11528
の利用	-11529
を計画	-11530
山形県	-11531
を集める	-11532
ソックス	-11533
。1986	-11534
アントニオ	-11535
ティッシュ	-11536
プレーヤー	-11537
具体的には	-11538
べる	-11539
就航	-11540
年俸	-11541
序盤	-11542
語が	-11543
麻薬	-11544
麻雀	-11545
審議会	-11546
敗れた	-11547
プリンス	-11548
▁1964	-11549
大学法学部	-11550
""	-11551
がつ	-11552
浸透	-11553
渓谷	-11554
男が	-11555
茨城	-11556
350	-11557
アリス	-11558
リッジ	-11559
主演は	-11560
年以来	-11561
明るい	-11562
▁New	-11563
する方法	-11564
国立公園	-11565
▁1947	-11566
殺害された	-11567
考えられる	-11568
イタリア共和国	-11569
CC	-11570
シロ	-11571
三木	-11572
町で	-11573
いつも	-11574
交響曲	-11575
教育の	-11576
記録は	-11577
▁Con	-11578
さいたま	-11579
アダルト	-11580
ディアン	-11581
人であり	-11582
ばれている	-11583
一定	-11584
異動	-11585
相違	-11586
破産	-11587
親族	-11588
かかり	-11589
の変更	-11590
まない	-11591
ロープ	-11592
務める	-11593
場所で	-11594
父親の	-11595
オックス	-11596
ラッシュ	-11597
放送開始	-11598
をモチーフ	-11599
これに対して	-11600
ニューヨークの	-11601
に努	-11602
伝達	-11603
公民	-11604
復讐	-11605
町立	-11606
耐久	-11607
連動	-11608
-6,	-11609
ree	-11610
ric	-11611
うまく	-11612
の主な	-11613
パブリ	-11614
、1943	-11615
たた	-11616
最年	-11617
返す	-11618
閣僚	-11619
▁気候	-11620
トンの	-11621
バイト	-11622
そのもの	-11623
ジェリア	-11624
ブラッド	-11625
世界遺産	-11626
でプレーし	-11627
ということ	-11628
どのように	-11629
福田	-11630
補強	-11631
運搬	-11632
160	-11633
ung	-11634
は他の	-11635
ほかの	-11636
もっと	-11637
を元に	-11638
発売の	-11639
けんどう	-11640
と思った	-11641
フランツ	-11642
ライナー	-11643
小学校の	-11644
へ移籍した	-11645
与えられた	-11646
理由として	-11647
高等学校を経て	-11648
を待	-11649
前述	-11650
同級	-11651
感を	-11652
満州	-11653
登記	-11654
青い	-11655
を離れ	-11656
ランカ	-11657
リバー	-11658
ンマー	-11659
関わり	-11660
音楽院	-11661
没年不詳	-11662
、1954	-11663
に加わった	-11664
カントリー	-11665
郡にあった	-11666
を引き起こす	-11667
/4	-11668
Re	-11669
が全	-11670
の頭	-11671
中等	-11672
付加	-11673
南側	-11674
挨拶	-11675
曲線	-11676
燃焼	-11677
物や	-11678
管制	-11679
豊田	-11680
▁参考	-11681
から第	-11682
の後任	-11683
リトル	-11684
宮崎県	-11685
日付の	-11686
語った	-11687
付けられる	-11688
セキュリティ	-11689
するようになり	-11690
LL	-11691
が重	-11692
バマ	-11693
冒頭	-11694
窓口	-11695
貸し	-11696
過激	-11697
CEO	-11698
に巻き	-11699
へ進学	-11700
バス停	-11701
不思議	-11702
滑走路	-11703
この年の	-11704
トリウム	-11705
ブッシュ	-11706
せき	-11707
を促	-11708
前提	-11709
従軍	-11710
指標	-11711
有罪	-11712
記す	-11713
。13	-11714
に出る	-11715
を機に	-11716
受ける	-11717
容易に	-11718
落とし	-11719
シルバー	-11720
、1951	-11721
の会	-11722
みち	-11723
を被	-11724
中毒	-11725
交付	-11726
出雲	-11727
商人	-11728
政界	-11729
通商	-11730
が出る	-11731
過ごす	-11732
人気を博	-11733
所属する	-11734
オープンした	-11735
明らかにした	-11736
代謝	-11737
変身	-11738
抹消	-11739
独裁	-11740
生は	-11741
白人	-11742
育ち	-11743
頃の	-11744
▁施設	-11745
機動戦士	-11746
(2020	-11747
ウイルスの	-11748
オランダの	-11749
▁ビ	-11750
▁ヘ	-11751
エビ	-11752
タは	-11753
ムル	-11754
位相	-11755
橋は	-11756
▁Re	-11757
が強い	-11758
その際	-11759
を多く	-11760
を得意	-11761
を推進	-11762
アルト	-11763
マリオ	-11764
自動的に	-11765
ルートヴィヒ	-11766
マンチェスター	-11767
▁年	-11768
中佐	-11769
兼任	-11770
品川	-11771
変形	-11772
染色	-11773
着工	-11774
系は	-11775
腫瘍	-11776
質は	-11777
anc	-11778
スーツ	-11779
挙げた	-11780
部分に	-11781
が生じた	-11782
コミュー	-11783
皮切りに	-11784
の四	-11785
をこ	-11786
佐久	-11787
号機	-11788
婚約	-11789
婦人	-11790
思考	-11791
田川	-11792
紙幣	-11793
青木	-11794
ild	-11795
から成	-11796
半島の	-11797
しくない	-11798
ライアン	-11799
を収録した	-11800
となったため	-11801
-.	-11802
タカ	-11803
信長	-11804
外見	-11805
必須	-11806
用品	-11807
監修	-11808
芸人	-11809
ラート	-11810
最古の	-11811
道路の	-11812
デバイス	-11813
オリックス	-11814
形成された	-11815
出身の元プロ野球選手	-11816
▁花	-11817
オロ	-11818
女流	-11819
果実	-11820
永久	-11821
が原因	-11822
りする	-11823
ゲオル	-11824
レイク	-11825
主催の	-11826
こちらは	-11827
を書いた	-11828
ランダム	-11829
主として	-11830
大韓民国	-11831
しなければ	-11832
に対しても	-11833
されたという	-11834
に収録された	-11835
を免	-11836
ジル	-11837
ゼネ	-11838
所を	-11839
新作	-11840
気付	-11841
視察	-11842
カルト	-11843
将軍の	-11844
日本海	-11845
本人は	-11846
聞いた	-11847
と考えた	-11848
世紀には	-11849
ラクション	-11850
地方裁判所	-11851
することができた	-11852
運び	-11853
順序	-11854
なかで	-11855
の間の	-11856
ゴジラ	-11857
ンドー	-11858
事から	-11859
入れ替	-11860
教会は	-11861
これに対し	-11862
ほとんどは	-11863
したとされる	-11864
の一つとして	-11865
プラスチック	-11866
内閣総理大臣	-11867
は以下のとおり	-11868
;&	-11869
京成	-11870
城下	-11871
恐竜	-11872
虐待	-11873
ans	-11874
の大型	-11875
の次男	-11876
ブロー	-11877
女性は	-11878
車両が	-11879
1947	-11880
はないが	-11881
アンテナ	-11882
ウエスト	-11883
サンデー	-11884
プロ入り	-11885
に参加する	-11886
アメリカでは	-11887
いす	-11888
どん	-11889
を起	-11890
佐世	-11891
台頭	-11892
末期	-11893
没収	-11894
石は	-11895
譲り	-11896
遠く	-11897
電流	-11898
-14	-11899
のみを	-11900
スキル	-11901
パリの	-11902
と比べて	-11903
に転じた	-11904
を挙げている	-11905
動脈	-11906
台詞	-11907
復旧	-11908
消化	-11909
直前	-11910
硫黄	-11911
筆頭	-11912
難民	-11913
▁大阪	-11914
▁形態	-11915
、50	-11916
二人は	-11917
初期に	-11918
地には	-11919
1942	-11920
データを	-11921
名である	-11922
。1987	-11923
▁実	-11924
先進	-11925
分で	-11926
原は	-11927
土器	-11928
定年	-11929
小売	-11930
近世	-11931
-13	-11932
イヤー	-11933
詳細な	-11934
ject	-11935
一時的に	-11936
特別番組	-11937
発見した	-11938
報告されている	-11939
ハナ	-11940
号が	-11941
毎月	-11942
滅ぼ	-11943
▁th	-11944
▁名称	-11945
に転向	-11946
アウグ	-11947
インは	-11948
問題を	-11949
訪れる	-11950
への参加	-11951
をかけた	-11952
アルメニア	-11953
ナレーション	-11954
フォーミュラ	-11955
を果たしている	-11956
UD	-11957
▁ボ	-11958
の色	-11959
を冠	-11960
孤立	-11961
室は	-11962
後藤	-11963
成熟	-11964
打者	-11965
攻勢	-11966
製鉄	-11967
起き	-11968
転写	-11969
逸話	-11970
黒田	-11971
▁ゆう	-11972
ポンプ	-11973
万円の	-11974
感じる	-11975
げている	-11976
の際には	-11977
ve	-11978
と定	-11979
の様	-11980
回に	-11981
大人	-11982
川水	-11983
玩具	-11984
考察	-11985
越後	-11986
-23	-11987
ade	-11988
では第	-11989
ウスは	-11990
工場で	-11991
構造の	-11992
福岡市	-11993
けられた	-11994
を図った	-11995
を流れる	-11996
生まれの	-11997
7,	-11998
▁ケ	-11999
バグ	-12000
モロ	-12001
創始	-12002
根本	-12003
かなか	-12004
さくら	-12005
は次の	-12006
パウロ	-12007
倶楽部	-12008
影響で	-12009
戦争で	-12010
掛けて	-12011
を進める	-12012
クラウド	-12013
っていった	-12014
WW	-12015
サク	-12016
但し	-12017
弾圧	-12018
洗礼	-12019
種子	-12020
菊池	-12021
角川	-12022
ale	-12023
えたが	-12024
かせる	-12025
に接続	-12026
に転じ	-12027
年時点	-12028
画家の	-12029
が大きい	-12030
と言って	-12031
を挟んで	-12032
製作した	-12033
設立され	-12034
最高裁判所	-12035
発行された	-12036
ボランティア	-12037
するようになる	-12038
NO	-12039
に会	-12040
仲介	-12041
突撃	-12042
遊撃	-12043
高は	-12044
ake	-12045
前年の	-12046
技術の	-12047
部門の	-12048
主張した	-12049
報告した	-12050
日本でも	-12051
研究所の	-12052
▁1941	-12053
というのは	-12054
エントリー	-12055
企業である	-12056
埋葬された	-12057
を以	-12058
上田	-12059
八戸	-12060
家と	-12061
BBC	-12062
とくに	-12063
に設置	-12064
ニウム	-12065
出演し	-12066
社から	-12067
障害者	-12068
も含めて	-12069
を介して	-12070
クラフト	-12071
ハーモニー	-12072
プライベート	-12073
ft	-12074
▁島	-12075
は北	-12076
切断	-12077
済み	-12078
破綻	-12079
除く	-12080
OVE	-12081
ise	-12082
ual	-12083
▁イン	-12084
」("	-12085
ゆえに	-12086
テルの	-12087
佐世保	-12088
用した	-12089
自由に	-12090
行動を	-12091
重工業	-12092
グー	-12093
バウ	-12094
佐野	-12095
家老	-12096
志願	-12097
氏族	-12098
略奪	-12099
発信	-12100
を食べ	-12101
文字の	-12102
西部の	-12103
限定で	-12104
ward	-12105
▁人口の	-12106
そもそも	-12107
わずかに	-12108
メンバーが	-12109
書かれている	-12110
コンスタンティ	-12111
入門	-12112
南に	-12113
収穫	-12114
年次	-12115
態度	-12116
手続	-12117
浄土	-12118
現れ	-12119
箱根	-12120
車内	-12121
醸造	-12122
陸奥	-12123
Com	-12124
▁とは	-12125
が整備	-12126
を販売	-12127
を重ね	-12128
ケート	-12129
ホット	-12130
大分県	-12131
1943	-12132
ボクサー	-12133
学校法人	-12134
。1950	-12135
GK	-12136
の座	-12137
ピラ	-12138
合法	-12139
国を	-12140
悲劇	-12141
疑惑	-12142
縄文	-12143
首脳	-12144
▁当時	-12145
しては	-12146
アンリ	-12147
万人を	-12148
以上が	-12149
式野球	-12150
普通の	-12151
者たち	-12152
調教師	-12153
グラビア	-12154
フェイス	-12155
ルーニャ	-12156
朝鮮半島	-12157
準決勝で	-12158
テキサス州	-12159
設けられた	-12160
FW	-12161
▁ヒ	-12162
くだ	-12163
カジ	-12164
タリ	-12165
ニの	-12166
米軍	-12167
薬師	-12168
追悼	-12169
Pro	-12170
どころ	-12171
カスタ	-12172
ソ連の	-12173
タミン	-12174
ピッチ	-12175
ピース	-12176
民営化	-12177
活動が	-12178
着いた	-12179
飛行機	-12180
つつある	-12181
引き起こ	-12182
近年では	-12183
を形成する	-12184
重要な役割	-12185
▁Music	-12186
されたものである	-12187
プロサッカー選手	-12188
が取	-12189
を産	-12190
中東	-12191
仮定	-12192
声が	-12193
娘の	-12194
支給	-12195
河原	-12196
週末	-12197
金額	-12198
に持ち	-12199
ドミニ	-12200
公式に	-12201
が起きた	-12202
、1920	-12203
として機能	-12204
オブジェクト	-12205
大学経済学部	-12206
),	-12207
イノ	-12208
ヶ谷	-12209
曰く	-12210
歳没	-12211
肯定	-12212
誤解	-12213
貫通	-12214
ype	-12215
を投げ	-12216
トニー	-12217
フード	-12218
州刺史	-12219
簡単に	-12220
ウィーク	-12221
ラーメン	-12222
年代前半	-12223
▁美	-12224
の強	-12225
勧め	-12226
安政	-12227
詐欺	-12228
AND	-12229
IBM	-12230
att	-12231
もその	-12232
を開き	-12233
ロッコ	-12234
先住民	-12235
分野で	-12236
ower	-12237
ハンター	-12238
務め	-12239
洞窟	-12240
直轄	-12241
選ぶ	-12242
、24	-12243
単独で	-12244
最後は	-12245
ときには	-12246
に続いて	-12247
に行った	-12248
オハイオ	-12249
路面電車	-12250
。1985	-12251
される予定	-12252
の場	-12253
コレ	-12254
事前	-12255
元帥	-12256
北側	-12257
大東	-12258
少な	-12259
死に	-12260
殆ど	-12261
語る	-12262
醍醐	-12263
順調	-12264
▁分類	-12265
リアス	-12266
以後の	-12267
入った	-12268
経由で	-12269
製作所	-12270
フォート	-12271
ムスリム	-12272
例である	-12273
月までに	-12274
表される	-12275
▁1930	-12276
に対応した	-12277
アカウント	-12278
▁Japan	-12279
知られていた	-12280
ぐち	-12281
けど	-12282
バク	-12283
ヶ丘	-12284
十一	-12285
同志	-12286
除去	-12287
USS	-12288
の概念	-12289
国民党	-12290
1920	-12291
を超えた	-12292
行方不明	-12293
するような	-12294
と言われた	-12295
が実施された	-12296
こともあって	-12297
ニュージャージー	-12298
▁キ	-12299
吉本	-12300
太鼓	-12301
心配	-12302
真実	-12303
至る	-12304
葉の	-12305
ata	-12306
の他に	-12307
の企画	-12308
パイプ	-12309
装置は	-12310
このほか	-12311
の名称は	-12312
を演じる	-12313
年頃から	-12314
提供する	-12315
。1945	-12316
。1984	-12317
▁清	-12318
、“	-12319
いし	-12320
ホロ	-12321
夏季	-12322
寺は	-12323
山町	-12324
淡路	-12325
牧場	-12326
酒造	-12327
▁では	-12328
あれば	-12329
が入る	-12330
近代化	-12331
ノルマン	-12332
ポスター	-12333
可能性が	-12334
ヴィクトリア	-12335
日本の実業家	-12336
オーストラリアの	-12337
▁」	-12338
が流	-12339
くて	-12340
こん	-12341
反論	-12342
告発	-12343
差の	-12344
形に	-12345
戦場	-12346
書類	-12347
田谷	-12348
菩薩	-12349
隣の	-12350
WBA	-12351
は通常	-12352
を廃止	-12353
を感じ	-12354
インの	-12355
ジング	-12356
ダーの	-12357
中央区	-12358
区間の	-12359
欲しい	-12360
生じる	-12361
をとった	-12362
チャーズ	-12363
が起こった	-12364
ホームページ	-12365
であったという	-12366
1、	-12367
なぎ	-12368
・4	-12369
光学	-12370
出馬	-12371
告知	-12372
天神	-12373
注釈	-12374
▁脚注	-12375
▁隣接	-12376
せない	-12377
と批判	-12378
に協力	-12379
に配属	-12380
チャル	-12381
デジャ	-12382
人目の	-12383
ator	-12384
ためには	-12385
高い評価	-12386
、1938	-12387
アナウンス	-12388
ネーション	-12389
表示される	-12390
が残っている	-12391
をもたらした	-12392
で構成されている	-12393
きら	-12394
さつ	-12395
を公	-12396
アバ	-12397
カミ	-12398
上旬	-12399
丹波	-12400
代数	-12401
列島	-12402
天候	-12403
年金	-12404
音が	-12405
box	-12406
▁平成	-12407
が出た	-12408
土曜日	-12409
カルロス	-12410
コロラド	-12411
リーグで	-12412
文部科学	-12413
▁1940	-12414
に存在する	-12415
人物である	-12416
ラインナップ	-12417
「『	-12418
を助	-12419
ンが	-12420
京阪	-12421
出張	-12422
木曽	-12423
総額	-12424
遺構	-12425
首を	-12426
の情報	-12427
を構築	-12428
米ドル	-12429
とも表記	-12430
カンザス	-12431
位だった	-12432
民主党の	-12433
自動車の	-12434
アルバムは	-12435
運営している	-12436
付与	-12437
切る	-12438
尋常	-12439
慣習	-12440
掘り	-12441
民事	-12442
用車	-12443
連敗	-12444
骨格	-12445
oll	-12446
に統合	-12447
を借り	-12448
を検討	-12449
セルフ	-12450
▁代表歴	-12451
していて	-12452
に入れた	-12453
ケネディ	-12454
フォール	-12455
ブレイク	-12456
テンベルク	-12457
が可能である	-12458
に任じられた	-12459
me	-12460
▁ま	-12461
に頼	-12462
リル	-12463
ロル	-12464
代行	-12465
天体	-12466
子女	-12467
掌握	-12468
が用意	-12469
を突破	-12470
アンナ	-12471
大型の	-12472
後者は	-12473
からない	-12474
イニング	-12475
ウォール	-12476
プライズ	-12477
が発生する	-12478
コンパクト	-12479
スティック	-12480
存在していた	-12481
アイドルグループ	-12482
ピエ	-12483
国と	-12484
妖怪	-12485
東武	-12486
標本	-12487
領の	-12488
あたる	-12489
ハーン	-12490
末期の	-12491
部門で	-12492
もちろん	-12493
リスナー	-12494
はそのまま	-12495
とく	-12496
モナ	-12497
三塁	-12498
上場	-12499
増強	-12500
形を	-12501
探索	-12502
窒素	-12503
退学	-12504
遅延	-12505
の称号	-12506
は当時	-12507
スラム	-12508
ホンダ	-12509
鉄道が	-12510
ナイター	-12511
ホークス	-12512
帰国した	-12513
物として	-12514
ことになり	-12515
アメリカ軍	-12516
を与えられた	-12517
出身のサッカー選手	-12518
OX	-12519
リヤ	-12520
侯爵	-12521
便宜	-12522
形が	-12523
徴収	-12524
熊谷	-12525
習得	-12526
2.5	-12527
▁初代	-12528
を失い	-12529
アリゾ	-12530
共通の	-12531
独自に	-12532
用いた	-12533
警視庁	-12534
につれて	-12535
ヒトラー	-12536
日までに	-12537
生産された	-12538
に関する法律	-12539
さや	-12540
ムズ	-12541
レシ	-12542
住吉	-12543
包括	-12544
数千	-12545
標識	-12546
花火	-12547
▁舞台	-12548
の治療	-12549
メチル	-12550
切って	-12551
映画は	-12552
状態の	-12553
▁これは	-12554
ックスは	-12555
トロイト	-12556
年代半ば	-12557
。1978	-12558
アドベンチャー	-12559
いな	-12560
の道	-12561
世論	-12562
八重	-12563
因子	-12564
川を	-12565
年が	-12566
温暖	-12567
無理	-12568
産駒	-12569
番地	-12570
越前	-12571
那覇	-12572
▁道路	-12573
に従う	-12574
まつり	-12575
めたが	-12576
コープ	-12577
上では	-12578
放送は	-12579
背番号	-12580
駅まで	-12581
されたり	-12582
ベースの	-12583
ボーイズ	-12584
レベルの	-12585
board	-12586
ボーイング	-12587
認められる	-12588
人民共和国の	-12589
Ad	-12590
DO	-12591
とア	-12592
カザ	-12593
側近	-12594
出生	-12595
変数	-12596
当事	-12597
所管	-12598
注文	-12599
白色	-12600
運命	-12601
out	-12602
▁には	-12603
の上で	-12604
まらず	-12605
リオン	-12606
十分に	-12607
容疑で	-12608
思い出	-12609
生物の	-12610
被害者	-12611
商業施設	-12612
説明する	-12613
など様々な	-12614
設計された	-12615
に囲	-12616
ムシ	-12617
伊東	-12618
寿命	-12619
毎に	-12620
講和	-12621
名前が	-12622
官位は	-12623
日付け	-12624
状況を	-12625
エッセイ	-12626
スタンの	-12627
呼ばれる	-12628
オートバイ	-12629
を目的とした	-12630
-』	-12631
kW	-12632
ノキ	-12633
ョウ	-12634
供用	-12635
南朝	-12636
基金	-12637
提出	-12638
省は	-12639
車線	-12640
遅く	-12641
を残す	-12642
ナポリ	-12643
共同で	-12644
構造は	-12645
症候群	-12646
lass	-12647
を使用し	-12648
という設定	-12649
などである	-12650
プロセッサ	-12651
レーティング	-12652
の姿	-12653
ラヴ	-12654
倒産	-12655
幅な	-12656
検事	-12657
賞を	-12658
隠居	-12659
ato	-12660
ley	-12661
が無く	-12662
アーチ	-12663
エルサ	-12664
サード	-12665
ストは	-12666
マリン	-12667
同社は	-12668
土地の	-12669
小田原	-12670
と並んで	-12671
▁Comp	-12672
とされるが	-12673
明らかになった	-12674
くれ	-12675
わざ	-12676
ミッ	-12677
中盤	-12678
中立	-12679
判事	-12680
間接	-12681
▁特に	-12682
きたい	-12683
トマス	-12684
ハリー	-12685
事務局	-12686
有数の	-12687
経営者	-12688
諸島の	-12689
高校の	-12690
これには	-12691
として再	-12692
との契約	-12693
勝利した	-12694
女子大学	-12695
所在地は	-12696
発売した	-12697
ターゲット	-12698
ロシア連邦	-12699
ウマ	-12700
バト	-12701
勝目	-12702
味方	-12703
巡目	-12704
ics	-12705
を可能	-12706
スタル	-12707
マント	-12708
一人の	-12709
振り返	-12710
深刻な	-12711
▁アニメ	-12712
こうとう	-12713
月時点で	-12714
ギャラリー	-12715
こともできる	-12716
日本における	-12717
ねば	-12718
を買	-12719
出土	-12720
藤沢	-12721
週の	-12722
▁22	-12723
▁23	-12724
を訪れ	-12725
アテネ	-12726
外交官	-12727
日午前	-12728
武蔵野	-12729
選手は	-12730
かどうか	-12731
は大きく	-12732
への影響	-12733
テイメント	-12734
することなく	-12735
が約	-12736
利根	-12737
室に	-12738
拒絶	-12739
製薬	-12740
を求め	-12741
付きの	-12742
区から	-12743
市から	-12744
教科書	-12745
月上旬	-12746
するとき	-12747
に入れる	-12748
月号から	-12749
種である	-12750
撮影された	-12751
おん	-12752
が初	-12753
全土	-12754
得た	-12755
格納	-12756
派が	-12757
知の	-12758
運送	-12759
高山	-12760
を保持	-12761
を申し	-12762
ウェン	-12763
拠点を	-12764
に出演し	-12765
出来ない	-12766
▁1962	-12767
▁LIVE	-12768
。1983	-12769
▁人口の変遷	-12770
フランクフルト	-12771
告白	-12772
好調	-12773
婚姻	-12774
宇治	-12775
家畜	-12776
掲示	-12777
生育	-12778
筋肉	-12779
置く	-12780
軍用	-12781
▁30	-12782
▁製作	-12783
を実行	-12784
バルブ	-12785
リッツ	-12786
豊富な	-12787
責任者	-12788
飲食店	-12789
の多くは	-12790
が成立した	-12791
に変更した	-12792
アルバイト	-12793
ウィリアムズ	-12794
日本の政治家	-12795
ME	-12796
タラ	-12797
容量	-12798
祖先	-12799
秩父	-12800
と命名	-12801
を組織	-12802
に向かい	-12803
バイザー	-12804
王座獲得	-12805
に基づいた	-12806
を実施した	-12807
も行っている	-12808
していたという	-12809
シミュレーション	-12810
を愛	-12811
伊予	-12812
太守	-12813
工房	-12814
意義	-12815
採択	-12816
播磨	-12817
混同	-12818
番線	-12819
瞬間	-12820
郡に	-12821
ink	-12822
▁彼は	-12823
でこの	-12824
に苦し	-12825
ガスの	-12826
デッド	-12827
佐賀県	-12828
難しく	-12829
1941	-12830
の主人公	-12831
ホッケー	-12832
徳川家康	-12833
▁i	-12834
▁市	-12835
レナ	-12836
二等	-12837
像は	-12838
小路	-12839
工夫	-12840
早期	-12841
発し	-12842
石器	-12843
new	-12844
ホーク	-12845
世界に	-12846
前後の	-12847
年にも	-12848
生物学	-12849
記念碑	-12850
開発の	-12851
メリット	-12852
2,000	-12853
タイアップ	-12854
に用いられる	-12855
ウルトラマン	-12856
つと	-12857
の墓	-12858
ノム	-12859
分を	-12860
実証	-12861
条第	-12862
松井	-12863
稽古	-12864
自立	-12865
計測	-12866
長女	-12867
をとり	-12868
違いは	-12869
階級は	-12870
と呼んだ	-12871
ファクト	-12872
在学中に	-12873
用いられ	-12874
ビルボード	-12875
ブラジルの	-12876
ということで	-12877
知られており	-12878
記録されている	-12879
乗員	-12880
始動	-12881
最速	-12882
火曜	-12883
線形	-12884
船橋	-12885
ose	-12886
▁is	-12887
住民は	-12888
番組で	-12889
芸術家	-12890
首都圏	-12891
チオピア	-12892
ファンド	-12893
▁シーズン	-12894
。1982	-12895
に置かれた	-12896
MT	-12897
〜」	-12898
が新	-12899
めい	-12900
を誘	-12901
ネク	-12902
営利	-12903
外に	-12904
砲弾	-12905
納言	-12906
起工	-12907
食堂	-12908
ONE	-12909
が就任	-12910
が確定	-12911
の名で	-12912
を活用	-12913
を演奏	-12914
ワット	-12915
博覧会	-12916
大学は	-12917
審査員	-12918
立てた	-12919
細胞の	-12920
通りに	-12921
4000	-12922
を開いた	-12923
シャトル	-12924
ムービー	-12925
ことが多く	-12926
▁直	-12927
クビ	-12928
三十	-12929
地と	-12930
排水	-12931
激怒	-12932
野は	-12933
阿部	-12934
▁選手	-12935
に進む	-12936
みたい	-12937
ヤマハ	-12938
合衆国	-12939
評価は	-12940
関係が	-12941
をめぐる	-12942
インフラ	-12943
者による	-12944
。1979	-12945
することが可能	-12946
世話	-12947
主の	-12948
僧侶	-12949
力と	-12950
急激	-12951
愛の	-12952
早朝	-12953
軍艦	-12954
電灯	-12955
鳥羽	-12956
が出て	-12957
を殺害	-12958
ネイロ	-12959
視聴率	-12960
おおむね	-12961
を築いた	-12962
ビートル	-12963
日本大学	-12964
▁1943	-12965
ケンタッキー	-12966
▁赤	-12967
トの	-12968
双方	-12969
叩き	-12970
塗り	-12971
手は	-12972
気動	-12973
鎮守	-12974
!』(	-12975
に売却	-12976
カレン	-12977
フィニ	-12978
性的な	-12979
指揮者	-12980
最終回	-12981
現した	-12982
ヴィッチ	-12983
▁1965	-12984
。1975	-12985
することから	-12986
パシフィック	-12987
は元	-12988
十両	-12989
半導	-12990
危惧	-12991
水曜	-12992
謎の	-12993
に出会	-12994
に及ぶ	-12995
を解決	-12996
テール	-12997
台湾の	-12998
を結成し	-12999
ノーベル	-13000
▁1963	-13001
LO	-13002
すい	-13003
を分	-13004
を身	-13005
ズミ	-13006
囲碁	-13007
密度	-13008
特撮	-13009
足の	-13010
JRA	-13011
▁シュ	-13012
はまた	-13013
らしく	-13014
地から	-13015
楽曲は	-13016
現地の	-13017
銀行の	-13018
無かった	-13019
全国高等学校	-13020
が行われていた	-13021
EV	-13022
▁#	-13023
くろ	-13024
京王	-13025
動く	-13026
外で	-13027
彼に	-13028
永遠	-13029
終点	-13030
者数	-13031
の仕事	-13032
を確立	-13033
チェロ	-13034
トリー	-13035
ルーシ	-13036
分かる	-13037
に達する	-13038
を考える	-13039
アンティ	-13040
公開され	-13041
委員会が	-13042
獲得した	-13043
ジョンソン	-13044
バリエーション	-13045
人の基礎自治体	-13046
RS	-13047
久留	-13048
党が	-13049
公的	-13050
川口	-13051
車輪	-13052
辞典	-13053
が登場	-13054
ックル	-13055
ラング	-13056
天文台	-13057
able	-13058
開始した	-13059
重要である	-13060
ection	-13061
Le	-13062
▁光	-13063
万石	-13064
動態	-13065
召集	-13066
名鉄	-13067
城に	-13068
恋人	-13069
旗本	-13070
種別	-13071
NPB	-13072
▁天正	-13073
もはや	-13074
を描き	-13075
ヴィス	-13076
政権の	-13077
映画を	-13078
をかけて	-13079
をつけた	-13080
クエスト	-13081
マジック	-13082
小規模な	-13083
由来する	-13084
、1936	-13085
アーキテク	-13086
フランソワ	-13087
リンピック	-13088
などによって	-13089
していることを	-13090
La	-13091
▁不	-13092
宮の	-13093
願寺	-13094
馴染	-13095
ERS	-13096
が生じ	-13097
危険な	-13098
部では	-13099
▁Man	-13100
が現れる	-13101
とのこと	-13102
、1935	-13103
が開始され	-13104
を行なった	-13105
ピアニスト	-13106
リオデジャ	-13107
......	-13108
がし	-13109
エコ	-13110
オケ	-13111
下が	-13112
前進	-13113
忘れ	-13114
新生	-13115
砂糖	-13116
背負	-13117
駿河	-13118
じゅん	-13119
ときの	-13120
に進み	-13121
の間で	-13122
やかに	-13123
よって	-13124
ニコラ	-13125
中国語	-13126
事件は	-13127
病院で	-13128
バンダイ	-13129
戦死した	-13130
発売元は	-13131
管理する	-13132
発売されている	-13133
ツは	-13134
前回	-13135
加熱	-13136
天気	-13137
横綱	-13138
蓄積	-13139
裏に	-13140
豪華	-13141
道場	-13142
を辞任	-13143
川流域	-13144
製品の	-13145
Bill	-13146
とすると	-13147
どちらか	-13148
。1973	-13149
テレビ放送	-13150
は今	-13151
を閉	-13152
中川	-13153
化と	-13154
半数	-13155
渋滞	-13156
警報	-13157
豊橋	-13158
連立	-13159
ous	-13160
ピッツ	-13161
ホルム	-13162
レージ	-13163
三丁目	-13164
太陽系	-13165
月時点	-13166
との間の	-13167
テナント	-13168
一般県道	-13169
位を獲得	-13170
年代以降	-13171
▁1961	-13172
ハインリヒ	-13173
ハーバード	-13174
オックスフォード	-13175
AF	-13176
TH	-13177
を減	-13178
具合	-13179
客車	-13180
小川	-13181
町域	-13182
番手	-13183
罪で	-13184
若松	-13185
行進	-13186
階の	-13187
元々は	-13188
撮影所	-13189
新日本	-13190
▁ラジオ	-13191
とするが	-13192
バンタム	-13193
にならない	-13194
をもうけた	-13195
の一種である	-13196
同国	-13197
回し	-13198
国分	-13199
姓は	-13200
対処	-13201
平等	-13202
撃破	-13203
横山	-13204
、40	-13205
の整備	-13206
の範囲	-13207
主演の	-13208
互いの	-13209
多大な	-13210
ちょうど	-13211
などでも	-13212
作品では	-13213
数少ない	-13214
スペクトル	-13215
4)	-13216
キス	-13217
売買	-13218
提示	-13219
書房	-13220
池袋	-13221
集英	-13222
頃は	-13223
鳥類	-13224
が完了	-13225
ついて	-13226
の流れ	-13227
ターは	-13228
世田谷	-13229
幕府の	-13230
後楽園	-13231
楽曲の	-13232
▁多くの	-13233
シンプル	-13234
が設置され	-13235
キリスト教徒	-13236
ちゅうがっこう	-13237
OB	-13238
po	-13239
はな	-13240
は後	-13241
リベ	-13242
僅か	-13243
天才	-13244
宣告	-13245
座標	-13246
訴え	-13247
をかけ	-13248
公務員	-13249
大幅に	-13250
東京府	-13251
いでいる	-13252
の一つで	-13253
を目指し	-13254
増加した	-13255
大学卒業	-13256
enter	-13257
▁1942	-13258
▁with	-13259
、1937	-13260
ミャンマー	-13261
作品として	-13262
行っていた	-13263
ドは	-13264
フが	-13265
伝え	-13266
右投	-13267
夜に	-13268
招集	-13269
旗艦	-13270
権が	-13271
町長	-13272
総統	-13273
▁la	-13274
▁内容	-13275
を基に	-13276
を退団	-13277
オフの	-13278
ッパー	-13279
トリア	-13280
准教授	-13281
した後に	-13282
それほど	-13283
を取得し	-13284
ハウゼン	-13285
以外では	-13286
分離集落	-13287
吹き替え	-13288
国内では	-13289
血液型は	-13290
現役時代の	-13291
優勝を果たした	-13292
広東	-13293
我が	-13294
抑え	-13295
版画	-13296
聞こ	-13297
薄い	-13298
酒井	-13299
がよく	-13300
つけて	-13301
ペテル	-13302
レクト	-13303
1952	-13304
があると	-13305
家として	-13306
残された	-13307
されるまで	-13308
年に発表した	-13309
のキャラクター	-13310
あさ	-13311
マヌ	-13312
安芸	-13313
急遽	-13314
改定	-13315
西に	-13316
諸説	-13317
ult	-13318
▁En	-13319
けない	-13320
までも	-13321
ティム	-13322
企業が	-13323
形式は	-13324
最多の	-13325
それらを	-13326
位置する	-13327
東アジア	-13328
東北地方	-13329
特徴的な	-13330
のデザイン	-13331
デトロイト	-13332
の一部として	-13333
研究センター	-13334
込まれている	-13335
していたことが	-13336
▁き	-13337
リム	-13338
三好	-13339
川越	-13340
帰り	-13341
年版	-13342
氏と	-13343
永禄	-13344
浅野	-13345
目撃	-13346
話は	-13347
賞賛	-13348
風俗	-13349
食用	-13350
New	-13351
ari	-13352
こんな	-13353
寄りの	-13354
なくても	-13355
の最初の	-13356
乗り入れ	-13357
継がれた	-13358
にそれぞれ	-13359
に生息する	-13360
ドラえもん	-13361
シーズンには	-13362
スタンダード	-13363
が含まれている	-13364
KI	-13365
で覆	-13366
みん	-13367
フン	-13368
墳丘	-13369
教団	-13370
測量	-13371
王が	-13372
知能	-13373
若者	-13374
つつも	-13375
の調査	-13376
はある	-13377
カーは	-13378
バリア	-13379
ビルマ	-13380
フェイ	-13381
入りの	-13382
問題が	-13383
1949	-13384
6000	-13385
いけない	-13386
マイアミ	-13387
▁メ	-13388
カワ	-13389
バチ	-13390
ボロ	-13391
中小	-13392
喜び	-13393
嘉永	-13394
東に	-13395
漫才	-13396
します	-13397
の文字	-13398
の由来	-13399
の発生	-13400
ビリー	-13401
プラー	-13402
ンドラ	-13403
使える	-13404
内部の	-13405
好きで	-13406
意味で	-13407
運転台	-13408
が非常に	-13409
この時の	-13410
この時期	-13411
その後に	-13412
ニコニコ	-13413
ハイブリ	-13414
らによって	-13415
キャッシュ	-13416
しているという	-13417
UP	-13418
na	-13419
を乗	-13420
ヨシ	-13421
代々	-13422
仮名	-13423
密接	-13424
布告	-13425
従事	-13426
拡散	-13427
求め	-13428
祭神	-13429
舞踊	-13430
を原作	-13431
バブル	-13432
バーの	-13433
市役所	-13434
選手団	-13435
▁http	-13436
可能性が高い	-13437
GS	-13438
YS	-13439
移管	-13440
が現れ	-13441
の導入	-13442
ルーズ	-13443
万円で	-13444
制施行	-13445
振る舞	-13446
血液型	-13447
アルミニ	-13448
ドラマー	-13449
フレーズ	-13450
TOKYO	-13451
グループが	-13452
となっているが	-13453
より発売された	-13454
VS	-13455
が上	-13456
ませ	-13457
みは	-13458
を全	-13459
カシ	-13460
ハド	-13461
受章	-13462
改築	-13463
断層	-13464
旅館	-13465
春秋	-13466
造成	-13467
ith	-13468
let	-13469
と共通	-13470
と区別	-13471
にほん	-13472
は無く	-13473
カレー	-13474
サック	-13475
ディビ	-13476
フロン	-13477
主義者	-13478
本人の	-13479
発した	-13480
はさらに	-13481
決勝では	-13482
の一員として	-13483
年シーズンは	-13484
放送されている	-13485
ミュージックビデオ	-13486
並び	-13487
信徒	-13488
別れ	-13489
政の	-13490
有馬	-13491
条項	-13492
真っ	-13493
突如	-13494
苦労	-13495
追跡	-13496
の開催	-13497
アース	-13498
世界観	-13499
実際は	-13500
建造物	-13501
知った	-13502
100%	-13503
じんじゃ	-13504
の主題歌	-13505
を行って	-13506
宇宙飛行	-13507
シンガーソングライター	-13508
lo	-13509
▁セ	-13510
あま	-13511
ソタ	-13512
主流	-13513
北上	-13514
哺乳	-13515
捕手	-13516
教諭	-13517
湘南	-13518
聖母	-13519
阿弥	-13520
難易	-13521
飯田	-13522
の管理	-13523
チョコ	-13524
命じた	-13525
1959	-13526
安定した	-13527
酸化炭素	-13528
。1981	-13529
ドイツ連邦	-13530
行なわれた	-13531
ケンブリッジ	-13532
っこ	-13533
コイ	-13534
室で	-13535
発祥	-13536
課税	-13537
ome	-13538
▁He	-13539
が出来	-13540
くらい	-13541
とは言	-13542
なると	-13543
に指名	-13544
ウィキ	-13545
ドゥー	-13546
モンの	-13547
俳優の	-13548
合計で	-13549
小笠原	-13550
通常盤	-13551
1948	-13552
illi	-13553
に生まれ	-13554
ビクター	-13555
全国大会	-13556
労働者の	-13557
吸収合併	-13558
自身初の	-13559
、1939	-13560
リーグでは	-13561
契約を締結	-13562
RT	-13563
かえ	-13564
ブエ	-13565
中京	-13566
井戸	-13567
国語	-13568
改名	-13569
町が	-13570
"、"	-13571
▁OF	-13572
、、)	-13573
を反映	-13574
サマー	-13575
ヴュル	-13576
内務省	-13577
ここから	-13578
線を有する	-13579
が追加された	-13580
郡にあった村	-13581
冬の	-13582
暴動	-13583
田原	-13584
発現	-13585
ENT	-13586
ara	-13587
が出版	-13588
したの	-13589
シェン	-13590
動物園	-13591
文化的	-13592
本当に	-13593
▁駅周辺	-13594
と考える	-13595
ワークス	-13596
作られる	-13597
なっており	-13598
としての活動	-13599
サンディエゴ	-13600
ことはできない	-13601
EA	-13602
にの	-13603
はい	-13604
再選	-13605
単語	-13606
吹替	-13607
意志	-13608
日向	-13609
有権	-13610
武帝	-13611
点満	-13612
羽田	-13613
造営	-13614
COM	-13615
LED	-13616
ava	-13617
ロンの	-13618
優秀な	-13619
在する	-13620
あたりの	-13621
が可能な	-13622
を変える	-13623
スイスの	-13624
京都大学	-13625
年度から	-13626
▁1959	-13627
。1972	-13628
ライオンズ	-13629
されたものの	-13630
プロデューサーの	-13631
機動戦士ガンダム	-13632
▁ゆ	-13633
▁ベ	-13634
タキ	-13635
ノア	-13636
化や	-13637
大谷	-13638
娯楽	-13639
官が	-13640
技法	-13641
降水	-13642
の地震	-13643
は世界	-13644
サクラ	-13645
ダーズ	-13646
地球の	-13647
無所属	-13648
げられた	-13649
イリノイ	-13650
スターズ	-13651
部に位置し	-13652
▁World	-13653
▁ウ	-13654
和泉	-13655
尊敬	-13656
局所	-13657
持た	-13658
歓迎	-13659
治世	-13660
法政	-13661
趣旨	-13662
hel	-13663
はまだ	-13664
を演じ	-13665
コンの	-13666
ホップ	-13667
上での	-13668
出場権	-13669
言い渡	-13670
ream	-13671
▁DVD	-13672
▁ロシア	-13673
師範学校	-13674
解散した	-13675
証券取引	-13676
▁1958	-13677
されるため	-13678
するなどの	-13679
モーニング	-13680
クライアント	-13681
展示されている	-13682
枚目のアルバム	-13683
リオデジャネイロ	-13684
▁作	-13685
▁四	-13686
ィー	-13687
ガメ	-13688
休養	-13689
歌の	-13690
混ぜ	-13691
犯行	-13692
真理	-13693
魔女	-13694
JST	-13695
▁Me	-13696
▁路線	-13697
が続く	-13698
に行き	-13699
コット	-13700
ートは	-13701
刑務所	-13702
年度は	-13703
直ちに	-13704
自分で	-13705
に選ばれ	-13706
への出演	-13707
をかける	-13708
ミネソタ	-13709
日本人の	-13710
日本映画	-13711
に所属した	-13712
ナトリウム	-13713
リューション	-13714
ニは	-13715
定員	-13716
密な	-13717
御殿	-13718
旋回	-13719
残存	-13720
金庫	-13721
inc	-13722
に滞在	-13723
を公開	-13724
を考え	-13725
アスレ	-13726
テック	-13727
ビアン	-13728
レッジ	-13729
内容の	-13730
南北朝	-13731
友人の	-13732
近郊の	-13733
1939	-13734
フェザー	-13735
実質的に	-13736
部に所属	-13737
んでいたが	-13738
シングルとして	-13739
位にランクイン	-13740
▁Records	-13741
Co	-13742
は各	-13743
カデ	-13744
体と	-13745
挿絵	-13746
未明	-13747
椅子	-13748
樺太	-13749
音を	-13750
高木	-13751
ERO	-13752
red	-13753
の機能	-13754
ぶりに	-13755
デッキ	-13756
不安定	-13757
番組を	-13758
著した	-13759
選択肢	-13760
1958	-13761
に渡って	-13762
をマーク	-13763
出演する	-13764
撤退した	-13765
▁イタリア	-13766
作成された	-13767
番組として	-13768
クリスチャン	-13769
中学校の学区	-13770
UF	-13771
つう	-13772
ノは	-13773
・『	-13774
全集	-13775
大津	-13776
第五	-13777
高層	-13778
MBS	-13779
orn	-13780
は無い	-13781
を奪い	-13782
を提唱	-13783
フロア	-13784
執政官	-13785
戦いで	-13786
その際に	-13787
▁1920	-13788
▁こうした	-13789
がほとんど	-13790
が決まった	-13791
これまでに	-13792
認められた	-13793
レンタル移籍	-13794
を駆	-13795
流出	-13796
濃度	-13797
▁Co	-13798
▁学区	-13799
ッサー	-13800
東部の	-13801
部組織	-13802
1955	-13803
▁となる	-13804
パレード	-13805
フェロー	-13806
人による	-13807
▁1955	-13808
イスラエルの	-13809
オリンピックでは	-13810
さで	-13811
は長	-13812
川村	-13813
目黒	-13814
表の	-13815
を予定	-13816
カルの	-13817
サンス	-13818
スカー	-13819
分野の	-13820
徳川家	-13821
非常勤	-13822
鳥取県	-13823
rist	-13824
そこには	-13825
を越えて	-13826
アフガニ	-13827
カンファ	-13828
日本での	-13829
理由から	-13830
終了後に	-13831
などによる	-13832
やってきた	-13833
バッテリー	-13834
▁このような	-13835
ハイブリッド	-13836
ternational	-13837
を覆	-13838
カは	-13839
ナが	-13840
三条	-13841
休暇	-13842
個別	-13843
公布	-13844
地や	-13845
性別	-13846
採取	-13847
配属	-13848
IDE	-13849
が利用	-13850
の運営	-13851
は同年	-13852
ものに	-13853
オーネ	-13854
事件で	-13855
小学館	-13856
英語で	-13857
ストレス	-13858
工科大学	-13859
ステルダム	-13860
東京都出身	-13861
選手である	-13862
を目的として	-13863
がなされている	-13864
PV	-13865
▁か	-13866
ジロ	-13867
ッソ	-13868
リハ	-13869
如来	-13870
尊重	-13871
幸せ	-13872
数で	-13873
番目	-13874
伝える	-13875
古くは	-13876
歌った	-13877
法違反	-13878
1956	-13879
ジョセフ	-13880
ニコライ	-13881
翌年には	-13882
が得られる	-13883
エチオピア	-13884
するためには	-13885
存在している	-13886
▁隣接コムーネ	-13887
▁【	-13888
はん	-13889
を祀	-13890
下関	-13891
喜多	-13892
小牧	-13893
川上	-13894
触れ	-13895
読書	-13896
かせた	-13897
アミノ	-13898
グレン	-13899
シリン	-13900
トルク	-13901
島根県	-13902
と称する	-13903
エリック	-13904
欧州連合	-13905
傾向にある	-13906
リリースした	-13907
されることが多い	-13908
コーポレーション	-13909
がみ	-13910
予報	-13911
交際	-13912
十郎	-13913
器は	-13914
在来	-13915
好意	-13916
月は	-13917
気の	-13918
()。	-13919
▁24	-13920
▁Cl	-13921
▁SP	-13922
が展開	-13923
の編集	-13924
の設置	-13925
を強く	-13926
カーズ	-13927
パンの	-13928
回日本	-13929
姿を消	-13930
▁として	-13931
ヘッセン	-13932
。1976	-13933
に任命され	-13934
に分布する	-13935
定められた	-13936
所属事務所	-13937
立っている	-13938
させるために	-13939
わけではなく	-13940
位を獲得した	-13941
="2"|-||	-13942
Su	-13943
▁艦	-13944
せつ	-13945
へい	-13946
ノの	-13947
二塁	-13948
位が	-13949
公明	-13950
奇跡	-13951
寄贈	-13952
小山	-13953
当日	-13954
月間	-13955
機で	-13956
比率	-13957
炭鉱	-13958
▁参加	-13959
に帰還	-13960
を進め	-13961
ナンス	-13962
ハリス	-13963
ペスト	-13964
ボイス	-13965
広島市	-13966
瀬戸内	-13967
視聴者	-13968
いていたが	-13969
のアルバム	-13970
ブロードウェイ	-13971
のう	-13972
一等	-13973
冷房	-13974
実戦	-13975
田舎	-13976
調和	-13977
赤色	-13978
逃走	-13979
ons	-13980
▁Ed	-13981
▁by	-13982
▁概説	-13983
と関連	-13984
どもの	-13985
をより	-13986
オース	-13987
ボルン	-13988
支払う	-13989
高度な	-13990
させると	-13991
を集めて	-13992
トゥール	-13993
という考え	-13994
クイーンズ	-13995
委員会委員	-13996
となっていたが	-13997
NT	-13998
▁た	-13999
の字	-14000
の開	-14001
エウ	-14002
二度	-14003
決着	-14004
誤り	-14005
郡庁	-14006
▁古代	-14007
も可能	-14008
わたる	-14009
エリー	-14010
ギニア	-14011
モンゴ	-14012
方式の	-14013
時代劇	-14014
珍しく	-14015
科学的	-14016
ions	-14017
に乗って	-14018
アワード	-14019
オットー	-14020
場合が多い	-14021
ペテルブルク	-14022
を余儀なくされた	-14023
MM	-14024
一体	-14025
使節	-14026
天堂	-14027
封鎖	-14028
少尉	-14029
弥生	-14030
数日	-14031
明石	-14032
河野	-14033
田辺	-14034
銃撃	-14035
oot	-14036
▁生態	-14037
を掲載	-14038
を設定	-14039
アルミ	-14040
再放送	-14041
好成績	-14042
歳未満	-14043
form	-14044
で生まれ	-14045
を問わず	-14046
テネシー	-14047
客員教授	-14048
研究では	-14049
に従事した	-14050
フランシス	-14051
依然として	-14052
生没年不詳	-14053
YA	-14054
常陸	-14055
族が	-14056
正常	-14057
起因	-14058
で演奏	-14059
を上げ	-14060
オフに	-14061
ソール	-14062
タイル	-14063
年間は	-14064
演じた	-14065
系統の	-14066
のあった	-14067
営業運転	-14068
。1944	-14069
に就任する	-14070
一般的には	-14071
月に行われた	-14072
することができ	-14073
▁多	-14074
くく	-14075
サギ	-14076
シリ	-14077
トは	-14078
ヶ原	-14079
事典	-14080
店で	-14081
彗星	-14082
派と	-14083
那須	-14084
ail	-14085
▁政治	-14086
コラム	-14087
ザール	-14088
今日の	-14089
親しま	-14090
関係を	-14091
いったん	-14092
に応じた	-14093
ウィンド	-14094
ウェアの	-14095
ラテン語	-14096
教育機関	-14097
のタイトルで	-14098
ヒューストン	-14099
サッカークラブ	-14100
年目のシーズン	-14101
オマ	-14102
ホフ	-14103
寛文	-14104
届け	-14105
愛好	-14106
真言	-14107
社殿	-14108
神田	-14109
車に	-14110
郡山	-14111
面白	-14112
駅伝	-14113
魔術	-14114
▁当初	-14115
わせた	-14116
初登場	-14117
女の子	-14118
背景に	-14119
1954	-14120
▁私生活	-14121
せられる	-14122
ッシング	-14123
活動した	-14124
してしまい	-14125
によるものである	-14126
がも	-14127
外来	-14128
学を	-14129
客室	-14130
常任	-14131
忠誠	-14132
拉致	-14133
田園	-14134
男優	-14135
irl	-14136
▁ジャ	-14137
▁主要	-14138
が立ち	-14139
に直接	-14140
の種類	-14141
シアン	-14142
タンの	-14143
トミー	-14144
小型の	-14145
属する	-14146
時間で	-14147
目的に	-14148
芸能界	-14149
足利義	-14150
近隣の	-14151
に見える	-14152
を担当し	-14153
センサー	-14154
リメイク	-14155
が開発した	-14156
を残している	-14157
つに	-14158
一橋	-14159
作る	-14160
処置	-14161
場が	-14162
描く	-14163
法務	-14164
溶液	-14165
▁Pr	-14166
に移行	-14167
に際し	-14168
の動き	-14169
の死後	-14170
はほぼ	-14171
を決意	-14172
ランの	-14173
一部は	-14174
宣教師	-14175
日本軍	-14176
のほかに	-14177
バッファ	-14178
令和元年	-14179
括弧内は	-14180
点がある	-14181
管弦楽団	-14182
が与えられた	-14183
にとどまった	-14184
1・	-14185
で同	-14186
を授	-14187
両国	-14188
夕方	-14189
摂政	-14190
書く	-14191
松田	-14192
立教	-14193
遭遇	-14194
に出た	-14195
ノット	-14196
事件を	-14197
化合物	-14198
有力な	-14199
1951	-14200
と評した	-14201
を舞台に	-14202
リッシュ	-14203
3,000	-14204
▁1948	-14205
になったが	-14206
に復帰した	-14207
紹介された	-14208
▁岩	-14209
くじ	-14210
に悩	-14211
下院	-14212
公使	-14213
北に	-14214
参画	-14215
大変	-14216
小泉	-14217
座に	-14218
擁立	-14219
日活	-14220
番艦	-14221
表情	-14222
きょく	-14223
の後に	-14224
ドコモ	-14225
ラック	-14226
口から	-14227
広範囲	-14228
理学部	-14229
に陥った	-14230
事務所の	-14231
▁1946	-14232
につながる	-14233
公立中学校	-14234
に収録されている	-14235
▁校	-14236
くま	-14237
と組	-14238
を脱	-14239
コパ	-14240
付随	-14241
公示	-14242
吉川	-14243
地価	-14244
大井	-14245
帝侯	-14246
徴兵	-14247
抽象	-14248
文は	-14249
沿線	-14250
発覚	-14251
裕福	-14252
阿波	-14253
が開設	-14254
に力を	-14255
の構成	-14256
や他の	-14257
取り組	-14258
ener	-14259
roid	-14260
で行われ	-14261
アピール	-14262
ウィング	-14263
ワクチン	-14264
士官学校	-14265
5,000	-14266
。1969	-14267
を得ている	-14268
フォーラム	-14269
アーキテクチャ	-14270
販売されている	-14271
であったことから	-14272
を頼	-14273
光寺	-14274
喜劇	-14275
放置	-14276
村山	-14277
行使	-14278
-22	-14279
ACK	-14280
Net	-14281
ble	-14282
ict	-14283
の言葉	-14284
めない	-14285
を統合	-14286
消費者	-14287
▁Col	-14288
を認める	-14289
上院議員	-14290
パキスタン	-14291
マケドニア	-14292
与えられる	-14293
サッカーリーグ	-14294
Cl	-14295
を払	-14296
を聴	-14297
主教	-14298
前橋	-14299
割引	-14300
厳格	-14301
市電	-14302
断絶	-14303
新幹	-14304
無し	-14305
百合	-14306
破損	-14307
が実現	-14308
すぎる	-14309
の支援	-14310
を着用	-14311
を禁止	-14312
兄弟の	-14313
古代の	-14314
試合を	-14315
udio	-14316
開幕から	-14317
▁によって	-14318
が存在した	-14319
が放送された	-14320
一般的である	-14321
することになり	-14322
こうとうがっこう	-14323
亜科	-14324
再現	-14325
凍結	-14326
安田	-14327
液晶	-14328
能登	-14329
進路	-14330
cle	-14331
ini	-14332
に見舞	-14333
に配置	-14334
を用意	-14335
シャツ	-14336
艦隊は	-14337
金曜日	-14338
▁Mar	-14339
が起こる	-14340
を連れて	-14341
プライム	-14342
レンツェ	-14343
ってしまった	-14344
年に発売された	-14345
ちん	-14346
の分	-14347
わし	-14348
悪の	-14349
硬貨	-14350
福山	-14351
階層	-14352
▁たか	-14353
▁事故	-14354
の普及	-14355
を残し	-14356
全体が	-14357
共同体	-14358
重なる	-14359
1957	-14360
▁趣味は	-14361
ランドの	-14362
。1967	-14363
。1968	-14364
アクティブ	-14365
素晴らしい	-14366
LS	-14367
pl	-14368
とが	-14369
を仕	-14370
カブ	-14371
ノウ	-14372
優勢	-14373
国務	-14374
戴冠	-14375
本尊	-14376
秋の	-14377
解剖	-14378
鑑定	-14379
麻呂	-14380
▁構造	-14381
の増加	-14382
の必要	-14383
を修了	-14384
を停止	-14385
ディは	-14386
ドッグ	-14387
外野手	-14388
政府に	-14389
発する	-14390
達した	-14391
USIC	-14392
市出身の	-14393
。1974	-14394
という形で	-14395
も見られる	-14396
メカニズム	-14397
団体である	-14398
大学に進学	-14399
考えられている	-14400
MD	-14401
の異	-14402
を数	-14403
ベリ	-14404
今川	-14405
十八	-14406
喧嘩	-14407
村に	-14408
港区	-14409
足り	-14410
運ぶ	-14411
食材	-14412
▁研究	-14413
、23	-14414
が相次	-14415
が続き	-14416
が誕生	-14417
に変換	-14418
の最終	-14419
アーク	-14420
サロン	-14421
シュル	-14422
労働党	-14423
投票で	-14424
法改正	-14425
男性の	-14426
に終わる	-14427
の名前は	-14428
シベリア	-14429
ステレオ	-14430
シリーズで	-14431
大日本帝国	-14432
破壊された	-14433
追加された	-14434
サスペンション	-14435
公開されている	-14436
MB	-14437
yl	-14438
の基	-14439
任し	-14440
伊賀	-14441
水は	-14442
荒川	-14443
西暦	-14444
退社	-14445
離れ	-14446
▁後に	-14447
と知り	-14448
にのみ	-14449
を促進	-14450
パルト	-14451
多目的	-14452
扱った	-14453
日曜日	-14454
選帝侯	-14455
アンドレ	-14456
ミシガン	-14457
ライフル	-14458
中央競馬	-14459
で優勝した	-14460
が設立された	-14461
となったのは	-14462
することを目的	-14463
をリリースした	-14464
(=	-14465
NG	-14466
のス	-14467
の石	-14468
の門	-14469
住所	-14470
地裁	-14471
普遍	-14472
気を	-14473
見る	-14474
鳥居	-14475
が主流	-14476
を生成	-14477
グッズ	-14478
中学生	-14479
女学校	-14480
技術者	-14481
終わる	-14482
▁ここで	-14483
東京都立	-14484
評価され	-14485
えなかった	-14486
と称される	-14487
ロードレース	-14488
世帯数の推移	-14489
することが多い	-14490
.,	-14491
EE	-14492
FS	-14493
が後	-14494
に迫	-14495
を連	-14496
ブは	-14497
公安	-14498
水源	-14499
王室	-14500
▁Ad	-14501
たれた	-14502
ハンス	-14503
リンゴ	-14504
ルノー	-14505
一方の	-14506
事業は	-14507
出演者	-14508
家督を	-14509
する計画	-14510
医科大学	-14511
本項では	-14512
きっかけで	-14513
/3	-14514
▁ガ	-14515
合体	-14516
封入	-14517
幸福	-14518
意欲	-14519
潜在	-14520
踏切	-14521
進展	-14522
駐在	-14523
▁25	-14524
が残る	-14525
の活動	-14526
を聞き	-14527
フォト	-14528
危機に	-14529
哲学者	-14530
日本一	-14531
海軍は	-14532
親衛隊	-14533
越した	-14534
コースト	-14535
参加する	-14536
復活した	-14537
Linux	-14538
に移転した	-14539
建造された	-14540
位を記録した	-14541
年代にかけて	-14542
公正	-14543
大夫	-14544
宰相	-14545
平行	-14546
次長	-14547
産地	-14548
知る	-14549
緑色	-14550
道が	-14551
の女性	-14552
ノヴァ	-14553
パンチ	-14554
人間が	-14555
工場の	-14556
年度に	-14557
爆撃機	-14558
空軍の	-14559
諸国の	-14560
近年の	-14561
途中に	-14562
▁For	-14563
データの	-14564
政治的な	-14565
毎日放送	-14566
、1932	-14567
ことがあり	-14568
本塁打を放	-14569
の一人である	-14570
インストール	-14571
できるようになった	-14572
Te	-14573
を固	-14574
アデ	-14575
同校	-14576
役者	-14577
文脈	-14578
書紀	-14579
痕跡	-14580
目録	-14581
等級	-14582
集積	-14583
麻酔	-14584
105	-14585
に残る	-14586
アシュ	-14587
カルロ	-14588
生活の	-14589
航空隊	-14590
シチリア	-14591
、1928	-14592
。1940	-14593
かなかった	-14594
の中で最も	-14595
上げられた	-14596
インディーズ	-14597
エクスプレス	-14598
スティーブン	-14599
リアルタイム	-14600
ミッドフィール	-14601
▁英	-14602
し遂	-14603
に耐	-14604
ダウ	-14605
二の	-14606
出荷	-14607
多岐	-14608
撃沈	-14609
柔軟	-14610
欠場	-14611
玄関	-14612
開き	-14613
駅に	-14614
▁地域	-14615
の経緯	-14616
を起用	-14617
リップ	-14618
ルーン	-14619
報じた	-14620
本線の	-14621
標準時	-14622
この結果	-14623
||1||	-14624
▁Live	-14625
させられた	-14626
デヴィッド	-14627
重要文化財	-14628
ハードウェア	-14629
"-	-14630
2(	-14631
レバ	-14632
歩き	-14633
牧野	-14634
紀伊	-14635
key	-14636
につれ	-14637
民国の	-14638
求めた	-14639
IGHT	-14640
▁最初の	-14641
を採用し	-14642
世界中の	-14643
活動する	-14644
落とした	-14645
選手権で	-14646
▁Love	-14647
ショッピングセンター	-14648
じま	-14649
に輝	-14650
も同	-14651
プエ	-14652
低減	-14653
兵は	-14654
出血	-14655
形容	-14656
御所	-14657
撤回	-14658
有の	-14659
鈴鹿	-14660
の都市	-14661
ハット	-14662
定める	-14663
彼らを	-14664
と共同で	-14665
アドレス	-14666
リングは	-14667
章を受章	-14668
▁1956	-14669
記している	-14670
チームである	-14671
日に公開された	-14672
KB	-14673
▁ソ	-14674
つが	-14675
住み	-14676
光が	-14677
公会	-14678
火星	-14679
話で	-14680
転向	-14681
通知	-14682
遠藤	-14683
郵政	-14684
重い	-14685
階に	-14686
igh	-14687
いれば	-14688
が広が	-14689
とは別	-14690
チーズ	-14691
家族の	-14692
恵まれ	-14693
放射線	-14694
生する	-14695
空間の	-14696
ount	-14697
を命じた	-14698
ジェリー	-14699
積極的な	-14700
週刊少年	-14701
▁1939	-14702
。2025	-14703
することに	-14704
はそれぞれ	-14705
を手掛けた	-14706
めん	-14707
像が	-14708
原稿	-14709
振付	-14710
早川	-14711
様に	-14712
法に	-14713
知ら	-14714
紅白	-14715
除外	-14716
lex	-14717
▁ある	-14718
の総称	-14719
を知る	-14720
ウズベ	-14721
ガルの	-14722
コスロ	-14723
シーは	-14724
▁上記の	-14725
人以上の	-14726
工業大学	-14727
年に日本	-14728
▁グループ	-14729
ソーシャル	-14730
されるという	-14731
▁ブ	-14732
つる	-14733
カエ	-14734
ドの	-14735
人組	-14736
口に	-14737
増殖	-14738
当地	-14739
急性	-14740
明の	-14741
結核	-14742
見方	-14743
開戦	-14744
aff	-14745
の中間	-14746
ニーの	-14747
マック	-14748
時間に	-14749
皇太子	-14750
lect	-14751
との交流	-14752
付けられ	-14753
学研究科	-14754
SUPER	-14755
メダリスト	-14756
影響を受けた	-14757
日に開催された	-14758
)"	-14759
めに	-14760
を極	-14761
ネコ	-14762
中を	-14763
休み	-14764
入る	-14765
古巣	-14766
境内	-14767
専修	-14768
暴行	-14769
田駅	-14770
積分	-14771
飛鳥	-14772
につく	-14773
に寄与	-14774
写真を	-14775
後から	-14776
超える	-14777
部隊を	-14778
テレビ局	-14779
ヴェスト	-14780
初期には	-14781
判明した	-14782
、1929	-14783
。1930	-14784
。1941	-14785
オーディオ	-14786
ローマ皇帝	-14787
コンピューター	-14788
はま	-14789
は自	-14790
住職	-14791
確信	-14792
複素	-14793
電撃	-14794
▁よし	-14795
を巡る	-14796
を要請	-14797
げられる	-14798
ではこの	-14799
は行われ	-14800
有限会社	-14801
メーカーの	-14802
を持っており	-14803
することはできない	-14804
ミッドフィールダー	-14805
▁j	-14806
▁八	-14807
を移	-14808
オム	-14809
テュ	-14810
ヨウ	-14811
力に	-14812
喫茶	-14813
正統	-14814
産物	-14815
石灰	-14816
順番	-14817
が終了	-14818
れると	-14819
一時は	-14820
新聞の	-14821
日に第	-14822
焦点を	-14823
表彰台	-14824
しました	-14825
の一部の	-14826
を伝える	-14827
月までは	-14828
競技大会	-14829
定義される	-14830
日本の俳優	-14831
としていたが	-14832
_2	-14833
々が	-14834
』.	-14835
かで	-14836
ぼく	-14837
前線	-14838
器具	-14839
文政	-14840
柴田	-14841
死者	-14842
蝦夷	-14843
館で	-14844
sch	-14845
▁制作	-14846
オニア	-14847
グレゴ	-14848
何度か	-14849
協力を	-14850
リーマン	-14851
人の子供	-14852
停車する	-14853
年の映画	-14854
発見され	-14855
▁1953	-14856
に昇格した	-14857
をスタート	-14858
をベースに	-14859
カルチャー	-14860
確認された	-14861
テレビジョン	-14862
プレミアリーグ	-14863
▁ペ	-14864
▁単	-14865
▁父	-14866
すず	-14867
主席	-14868
値を	-14869
塩化	-14870
外線	-14871
忠実	-14872
愛国	-14873
新興	-14874
歩く	-14875
県内	-14876
色彩	-14877
面が	-14878
からず	-14879
の拡大	-14880
ひょう	-14881
わると	-14882
イエス	-14883
ジウム	-14884
タイの	-14885
副作用	-14886
法では	-14887
8000	-14888
NASA	-14889
から成る	-14890
の一部に	-14891
まとめた	-14892
広まった	-14893
イギリスで	-14894
チェコスロ	-14895
ベーション	-14896
販売された	-14897
ゲームソフト	-14898
クが	-14899
ホリ	-14900
主宰	-14901
団が	-14902
報復	-14903
有害	-14904
規約	-14905
親子	-14906
費は	-14907
3-0	-14908
Met	-14909
▁漫画	-14910
おかげ	-14911
と対立	-14912
メイド	-14913
天皇が	-14914
展覧会	-14915
最高位	-14916
本作では	-14917
、1934	-14918
リバウンド	-14919
を与えている	-14920
プロレスラー	-14921
に所属している	-14922
クォ	-14923
常設	-14924
本体	-14925
橋が	-14926
石が	-14927
50%	-14928
を出産	-14929
ウォン	-14930
バッグ	-14931
プラハ	-14932
ヨハネ	-14933
人員は	-14934
様式の	-14935
▁ジョン	-14936
ころから	-14937
はその後	-14938
シアトル	-14939
記載する	-14940
試合出場	-14941
逮捕され	-14942
スペイン語	-14943
▁*	-14944
のレ	-14945
を活	-14946
コリ	-14947
シマ	-14948
タグ	-14949
ッダ	-14950
ッラ	-14951
ワト	-14952
主体	-14953
人質	-14954
今の	-14955
伝道	-14956
余裕	-14957
出撃	-14958
奄美	-14959
幼虫	-14960
案が	-14961
歌を	-14962
氷河	-14963
爆破	-14964
稼ぎ	-14965
若年	-14966
誘拐	-14967
AKB	-14968
ROM	-14969
que	-14970
その間	-14971
地区は	-14972
柔らか	-14973
ところに	-14974
を上回る	-14975
カラオケ	-14976
プレゼン	-14977
伝統的に	-14978
カタルーニャ	-14979
▁System	-14980
UB	-14981
がき	-14982
に襲	-14983
公国	-14984
南省	-14985
合わ	-14986
多用	-14987
皇族	-14988
社で	-14989
稲荷	-14990
院長	-14991
さから	-14992
だけは	-14993
ギャグ	-14994
ニスト	-14995
全体に	-14996
及ぼす	-14997
▁大阪府	-14998
ストンの	-14999
負傷した	-15000
ジアラビア	-15001
アカデミー賞	-15002
mi	-15003
てて	-15004
ばね	-15005
を交	-15006
三大	-15007
井は	-15008
国営	-15009
岡本	-15010
書に	-15011
民謡	-15012
船体	-15013
衣服	-15014
館は	-15015
が発行	-15016
の中継	-15017
の撮影	-15018
は中国	-15019
カリブ	-15020
事故で	-15021
勢力の	-15022
向かう	-15023
困難な	-15024
市民の	-15025
裁判官	-15026
間では	-15027
ゼルバイ	-15028
化される	-15029
年の間に	-15030
日本ハム	-15031
▁デビュー	-15032
さなかった	-15033
せざるを得	-15034
デビューし	-15035
▁い	-15036
▁木	-15037
スで	-15038
信託	-15039
卓球	-15040
枚目	-15041
正月	-15042
特番	-15043
調教	-15044
論の	-15045
ony	-15046
▁組織	-15047
が計画	-15048
の地位	-15049
アーツ	-15050
ゲンの	-15051
シュテ	-15052
ネスコ	-15053
代将軍	-15054
男性は	-15055
▁ニュー	-15056
つかった	-15057
できるが	-15058
ギャング	-15059
担当した	-15060
人口の推移	-15061
と同じように	-15062
フレデリック	-15063
が設けられている	-15064
5.	-15065
サヨ	-15066
ミカ	-15067
島と	-15068
島町	-15069
所要	-15070
直す	-15071
神道	-15072
華族	-15073
頂点	-15074
▁Be	-15075
エステ	-15076
内容を	-15077
▁および	-15078
▁例えば	-15079
アーカイ	-15080
対応する	-15081
者もいる	-15082
▁1937	-15083
。1977	-15084
に似ている	-15085
をサポート	-15086
を利用する	-15087
傾向がある	-15088
などを務めた	-15089
予定だったが	-15090
イラストレーター	-15091
チャンピオンズリーグ	-15092
3、	-15093
AX	-15094
▁郡	-15095
ヘリ	-15096
佐竹	-15097
先は	-15098
同作	-15099
容器	-15100
年同	-15101
御用	-15102
本国	-15103
組成	-15104
菩提	-15105
赤坂	-15106
適当	-15107
遮断	-15108
雄の	-15109
鶴見	-15110
も含む	-15111
よりは	-15112
プトン	-15113
伝わる	-15114
墓所は	-15115
失った	-15116
宗教的	-15117
日深夜	-15118
管弦楽	-15119
高知県	-15120
キャンパ	-15121
当たりの	-15122
性がある	-15123
。1920	-15124
放映された	-15125
年に行われた	-15126
8,	-15127
の無	-15128
を患	-15129
公の	-15130
出産	-15131
塩基	-15132
家屋	-15133
府中	-15134
弘前	-15135
強盗	-15136
突起	-15137
美容	-15138
英文	-15139
▁Le	-15140
▁大正	-15141
が予定	-15142
ホスト	-15143
久留米	-15144
地上波	-15145
年ほど	-15146
母親は	-15147
あわせて	-15148
でもない	-15149
らかじめ	-15150
の代わりに	-15151
機関である	-15152
があったため	-15153
ことであった	-15154
エレクトリック	-15155
ND	-15156
Pa	-15157
の裏	-15158
テニ	-15159
予言	-15160
右打	-15161
尾崎	-15162
極東	-15163
派閥	-15164
皇太	-15165
立案	-15166
送電	-15167
rad	-15168
が製造	-15169
は全く	-15170
は再び	-15171
ベネズ	-15172
マルコ	-15173
代当主	-15174
本部長	-15175
John	-15176
し続けた	-15177
鎌倉時代	-15178
ement	-15179
契約を結び	-15180
承認された	-15181
映画である	-15182
設定された	-15183
フィレンツェ	-15184
▁テレビアニメ	-15185
試合に出場して打率	-15186
コムーネは以下の通り	-15187
EG	-15188
Ex	-15189
HA	-15190
作動	-15191
官職	-15192
実写	-15193
平坦	-15194
役を	-15195
慰安	-15196
断片	-15197
源流	-15198
白河	-15199
睡眠	-15200
館長	-15201
)」「	-15202
INA	-15203
いがく	-15204
に従軍	-15205
は現在	-15206
シッピ	-15207
ティの	-15208
メンテ	-15209
1953	-15210
いちらん	-15211
したのち	-15212
などして	-15213
世界的に	-15214
▁1952	-15215
▁1957	-15216
このことは	-15217
マイクロソフト	-15218
--	-15219
OT	-15220
▁対	-15221
は東	-15222
ビオ	-15223
人数	-15224
倒し	-15225
基幹	-15226
多少	-15227
目覚	-15228
野外	-15229
any	-15230
ton	-15231
urn	-15232
キッド	-15233
リン酸	-15234
内閣府	-15235
放送で	-15236
音楽祭	-15237
となると	-15238
スキャン	-15239
リハビリ	-15240
拡大した	-15241
この時点で	-15242
に留まった	-15243
とされており	-15244
と考えている	-15245
を描いている	-15246
スケジュール	-15247
LC	-15248
▁両	-15249
の書	-15250
ロジ	-15251
亜種	-15252
盛期	-15253
給与	-15254
ISS	-15255
で発売	-15256
ムーン	-15257
勝利し	-15258
太陽の	-15259
家から	-15260
気に入	-15261
生じた	-15262
非営利	-15263
そのほか	-15264
クリーム	-15265
市生まれ	-15266
形文化財	-15267
▁神奈川県	-15268
、1931	-15269
だけである	-15270
ヘビー級王座	-15271
年に設立された	-15272
確認されている	-15273
に新	-15274
わが	-15275
ベテ	-15276
与党	-15277
人格	-15278
出店	-15279
国産	-15280
学芸	-15281
整数	-15282
決済	-15283
満ち	-15284
特筆	-15285
野町	-15286
馬は	-15287
にとも	-15288
に限定	-15289
を読み	-15290
ジェラ	-15291
ユーザ	-15292
分ける	-15293
大久保	-15294
州知事	-15295
これらを	-15296
知らない	-15297
▁このほか	-15298
。1962	-15299
フラッシュ	-15300
とも言われる	-15301
になることを	-15302
を行っており	-15303
アルミニウム	-15304
フェニックス	-15305
採用されている	-15306
Billboard	-15307
デビューを果たした	-15308
に注	-15309
の命	-15310
両方	-15311
城壁	-15312
堤防	-15313
天下	-15314
石垣	-15315
顔を	-15316
▁TV	-15317
と合流	-15318
キュア	-15319
偉大な	-15320
協奏曲	-15321
機能が	-15322
と出会い	-15323
アパート	-15324
テイラー	-15325
日である	-15326
殺人事件	-15327
落選した	-15328
に分けられる	-15329
ものではない	-15330
%(	-15331
がと	-15332
せば	-15333
に似	-15334
は三	-15335
ダス	-15336
ハチ	-15337
ホセ	-15338
俳句	-15339
奉納	-15340
宝暦	-15341
実務	-15342
機雷	-15343
生が	-15344
自信	-15345
講習	-15346
遠隔	-15347
ana	-15348
』)。	-15349
ガンの	-15350
クロン	-15351
コイン	-15352
ラファ	-15353
二代目	-15354
人たち	-15355
物語の	-15356
1938	-15357
との関連	-15358
ることで	-15359
チームで	-15360
ハワード	-15361
公共交通	-15362
日までは	-15363
。1971	-15364
大統領選挙	-15365
アムステルダム	-15366
一般県道である	-15367
▁隣接するコムーネは以下の通り	-15368
He	-15369
SK	-15370
▁“	-15371
にか	-15372
に臨	-15373
エミ	-15374
ノミ	-15375
処罰	-15376
吹奏	-15377
回帰	-15378
在日	-15379
擁護	-15380
桃山	-15381
肉体	-15382
釈迦	-15383
高温	-15384
ものも	-15385
を締結	-15386
ゲリラ	-15387
サリー	-15388
プラグ	-15389
丁目の	-15390
双方の	-15391
最年少	-15392
科卒業	-15393
路線が	-15394
電車の	-15395
のライブ	-15396
を取って	-15397
減少した	-15398
航空会社	-15399
が担当した	-15400
ハンブルク	-15401
ヤンキース	-15402
▁ポ	-15403
公卿	-15404
曖昧	-15405
無視	-15406
然と	-15407
緑の	-15408
頭部	-15409
と日本	-15410
を象徴	-15411
インデ	-15412
ナンド	-15413
リッヒ	-15414
王者の	-15415
自由党	-15416
7000	-15417
を加えて	-15418
自治体の	-15419
。1964	-15420
アレクサンドル	-15421
されるようになり	-15422
▁五	-15423
▁現	-15424
を転	-15425
ラビ	-15426
凱旋	-15427
半球	-15428
思う	-15429
採集	-15430
放出	-15431
断念	-15432
旋律	-15433
構内	-15434
煙突	-15435
鉱物	-15436
3.5	-15437
の取り	-15438
下ろし	-15439
去った	-15440
様子が	-15441
に仕えた	-15442
に入学し	-15443
ゼネラル	-15444
ホームは	-15445
大学では	-15446
。1942	-15447
を目指した	-15448
と呼ばれるようになった	-15449
▁千	-15450
▁宮	-15451
すみ	-15452
友会	-15453
夏に	-15454
式が	-15455
指数	-15456
旧姓	-15457
東山	-15458
育つ	-15459
進水	-15460
雄は	-15461
AGE	-15462
▁韓国	-15463
のプロ	-15464
ザード	-15465
シャワ	-15466
ヒップ	-15467
時期の	-15468
評議員	-15469
遅れた	-15470
に加わり	-15471
を除いた	-15472
位を記録	-15473
月号まで	-15474
西ドイツ	-15475
が必要となる	-15476
が発見された	-15477
セントルイス	-15478
フォーマット	-15479
と主張している	-15480
▁黒	-15481
れい	-15482
ロメ	-15483
休刊	-15484
兵が	-15485
山地	-15486
巡回	-15487
木は	-15488
消失	-15489
特攻	-15490
用水	-15491
聴取	-15492
表に	-15493
農場	-15494
迅速	-15495
〜』(	-15496
に上陸	-15497
は同じ	-15498
インパ	-15499
的存在	-15500
についた	-15501
はるかに	-15502
▁参考文献	-15503
代表される	-15504
記載された	-15505
を担当している	-15506
キャッチコピーは	-15507
XT	-15508
イア	-15509
倉敷	-15510
古川	-15511
小児	-15512
戯曲	-15513
福寺	-15514
負荷	-15515
途絶	-15516
NET	-15517
の地下	-15518
を突き	-15519
グスタ	-15520
ストゥ	-15521
ティは	-15522
半導体	-15523
博士の	-15524
翌日の	-15525
選手を	-15526
面から	-15527
主義的な	-15528
協力して	-15529
が使われる	-15530
しながらも	-15531
はフランス	-15532
をそのまま	-15533
が公開された	-15534
キャスティング	-15535
は白	-15536
サハ	-15537
モラ	-15538
ヴル	-15539
兵を	-15540
別荘	-15541
名人	-15542
差は	-15543
差を	-15544
感動	-15545
樹脂	-15546
荒廃	-15547
解明	-15548
0.5	-15549
WWE	-15550
ave	-15551
たとえ	-15552
で行う	-15553
に変化	-15554
の実験	-15555
の構造	-15556
の発売	-15557
カンボ	-15558
デルタ	-15559
上から	-15560
南北に	-15561
日後の	-15562
生活を	-15563
rans	-15564
uper	-15565
を進めた	-15566
スケール	-15567
ロシア語	-15568
大統領が	-15569
▁スポーツ	-15570
ことはなく	-15571
ブランドの	-15572
▁このように	-15573
められていた	-15574
されてしまった	-15575
▁森	-15576
コシ	-15577
代官	-15578
全身	-15579
右岸	-15580
土砂	-15581
失脚	-15582
搬送	-15583
納入	-15584
資材	-15585
間が	-15586
AWA	-15587
CBS	-15588
にこの	-15589
の一角	-15590
マーガ	-15591
支払い	-15592
無関係	-15593
ブリテン	-15594
入れ替え	-15595
圧倒的な	-15596
大学野球	-15597
後述する	-15598
込まれて	-15599
高速バス	-15600
システムを	-15601
と名付けられた	-15602
アルバムである	-15603
問い	-15604
大輔	-15605
小沢	-15606
心が	-15607
挑む	-15608
没後	-15609
高麗	-15610
あいだ	-15611
の要素	-15612
みなみ	-15613
を希望	-15614
を強化	-15615
を無視	-15616
ジミー	-15617
トゥル	-15618
ノック	-15619
パンク	-15620
前年に	-15621
収容所	-15622
月以降	-15623
着する	-15624
集英社	-15625
をあげた	-15626
変わった	-15627
性の高い	-15628
教育学部	-15629
研究開発	-15630
裁判所の	-15631
クラッシュ	-15632
認定された	-15633
ations	-15634
▁エピソード	-15635
が設けられた	-15636
を組み合わせた	-15637
to	-15638
▁武	-15639
上院	-15640
区は	-15641
史の	-15642
号に	-15643
定住	-15644
楽譜	-15645
ery	-15646
▁50	-15647
に改造	-15648
を思い	-15649
を開業	-15650
エアロ	-15651
スラヴ	-15652
ツィヒ	-15653
両方の	-15654
利用者	-15655
等しい	-15656
製作の	-15657
貴族院	-15658
いずれの	-15659
ところを	-15660
に代わり	-15661
加入した	-15662
送られた	-15663
▁いずれも	-15664
と見られる	-15665
変わらない	-15666
を対象とした	-15667
デイヴィッド	-15668
を提供している	-15669
):	-15670
Mk	-15671
▁広	-15672
ばし	-15673
や大	-15674
アジ	-15675
コメ	-15676
シク	-15677
ドキ	-15678
債権	-15679
助成	-15680
境に	-15681
役は	-15682
手な	-15683
拷問	-15684
本種	-15685
添加	-15686
生み	-15687
留守	-15688
答え	-15689
精力	-15690
落成	-15691
蒸留	-15692
諸侯	-15693
鉄筋	-15694
高価	-15695
-24	-15696
▁ch	-15697
▁アイ	-15698
▁バー	-15699
を継ぐ	-15700
クロム	-15701
ムーア	-15702
次予選	-15703
自宅で	-15704
詳しい	-15705
ital	-15706
かという	-15707
を目的に	-15708
世紀半ば	-15709
平成元年	-15710
駅番号は	-15711
かったため	-15712
を見つける	-15713
▁有	-15714
▁総	-15715
が建	-15716
をう	-15717
デレ	-15718
剥奪	-15719
吊り	-15720
市営	-15721
提督	-15722
施策	-15723
450	-15724
が開通	-15725
の公式	-15726
わりの	-15727
ウルフ	-15728
ケルン	-15729
チョン	-15730
出入口	-15731
開幕戦	-15732
▁pro	-15733
▁当時の	-15734
と称した	-15735
の地点で	-15736
クリミア	-15737
タウンの	-15738
メンタル	-15739
持っている	-15740
試合の出場	-15741
カリフォルニア大学	-15742
8.	-15743
▁海	-15744
ロマ	-15745
・5	-15746
中尉	-15747
優位	-15748
実態	-15749
幅が	-15750
西村	-15751
進み	-15752
金剛	-15753
NPO	-15754
にくい	-15755
を断念	-15756
を生産	-15757
を通り	-15758
ゴット	-15759
メルセ	-15760
ライプ	-15761
伸びる	-15762
名を連	-15763
自分は	-15764
自由な	-15765
1936	-15766
roup	-15767
▁初期の	-15768
対照的に	-15769
月までの	-15770
殿堂入り	-15771
ビジュアル	-15772
が建設された	-15773
と指摘している	-15774
サウンドトラック	-15775
エンディングテーマ	-15776
GH	-15777
my	-15778
の孫	-15779
ユタ	-15780
一家	-15781
作者	-15782
収束	-15783
名も	-15784
局で	-15785
科目	-15786
追撃	-15787
fer	-15788
▁kg	-15789
▁上記	-15790
の設定	-15791
を終了	-15792
イブン	-15793
コーラ	-15794
ネズミ	-15795
リーと	-15796
住民が	-15797
考古学	-15798
落とす	-15799
路線を	-15800
開催の	-15801
1933	-15802
に分けて	-15803
を拠点に	-15804
ミズーリ	-15805
。1965	-15806
づけられた	-15807
カスティー	-15808
を始めとする	-15809
スティーヴン	-15810
ムン	-15811
リモ	-15812
争う	-15813
名と	-15814
専任	-15815
後日	-15816
著者	-15817
融資	-15818
風に	-15819
▁現代	-15820
を放棄	-15821
グルー	-15822
ケント	-15823
ングラ	-15824
ヴィエ	-15825
人々に	-15826
年日本	-15827
記念物	-15828
駅間の	-15829
バンドは	-15830
リントン	-15831
下院議員	-15832
作である	-15833
選手権の	-15834
。1966	-15835
リンカーン	-15836
適用される	-15837
アレクサンダー	-15838
防衛に成功した	-15839
FR	-15840
の対	-15841
ひど	-15842
先祖	-15843
写像	-15844
商事	-15845
悪く	-15846
教鞭	-15847
暗い	-15848
民放	-15849
猶予	-15850
荷物	-15851
防空	-15852
と並ぶ	-15853
ないと	-15854
の準備	-15855
ナーゼ	-15856
中期の	-15857
変わる	-15858
を名乗る	-15859
を超えて	-15860
フレンド	-15861
切り替え	-15862
▁1954	-15863
、1923	-15864
ジャーナル	-15865
デンブルク	-15866
ラテン文字	-15867
を有している	-15868
オープンでは	-15869
位に終わった	-15870
フィルハーモニー	-15871
My	-15872
「1	-15873
不在	-15874
倒れ	-15875
日露	-15876
獅子	-15877
途上	-15878
鋳造	-15879
enn	-15880
ita	-15881
が進み	-15882
これで	-15883
ままで	-15884
を失う	-15885
を直接	-15886
ガーは	-15887
向かい	-15888
当選し	-15889
掲示板	-15890
機体は	-15891
歳の時	-15892
社長の	-15893
駆逐隊	-15894
edia	-15895
いかなる	-15896
との共同	-15897
ふるさと	-15898
を通って	-15899
中である	-15900
代わって	-15901
変更され	-15902
引き分け	-15903
エルサレム	-15904
デザインの	-15905
フェラーリ	-15906
都市である	-15907
rosoft	-15908
Be	-15909
ズマ	-15910
ラオ	-15911
事変	-15912
原爆	-15913
増え	-15914
安置	-15915
水中	-15916
現金	-15917
賃金	-15918
風呂	-15919
飛騨	-15920
min	-15921
▁だが	-15922
、26	-15923
を伸ば	-15924
を保有	-15925
デスク	-15926
ナッツ	-15927
ハッチ	-15928
本来は	-15929
艦隊の	-15930
が出来る	-15931
けていた	-15932
ジョニー	-15933
ダグラス	-15934
時点での	-15935
が決定した	-15936
その中には	-15937
システムが	-15938
掛けている	-15939
試験に合格	-15940
をきっかけに	-15941
指摘している	-15942
ノースカロライ	-15943
▁ニ	-15944
をな	-15945
イグ	-15946
ツキ	-15947
ヘク	-15948
多彩	-15949
番付	-15950
百済	-15951
相関	-15952
西宮	-15953
谷の	-15954
10%	-15955
、22	-15956
を巻き	-15957
を退社	-15958
乗務員	-15959
出来た	-15960
小学生	-15961
本人が	-15962
線の駅	-15963
▁NHK	-15964
に就いた	-15965
シールド	-15966
パラメー	-15967
フェース	-15968
をしており	-15969
住んでいた	-15970
を取り入れた	-15971
TM	-15972
がお	-15973
は旧	-15974
クハ	-15975
一揆	-15976
勢の	-15977
土俵	-15978
地蔵	-15979
奨学	-15980
後部	-15981
決断	-15982
火力	-15983
費や	-15984
賛同	-15985
風土	-15986
BOX	-15987
OVA	-15988
する際	-15989
その時	-15990
で運行	-15991
に送り	-15992
の役割	-15993
を共有	-15994
ニアン	-15995
日の第	-15996
細かい	-15997
1937	-15998
のうちの	-15999
のもとに	-16000
サイバー	-16001
ステーク	-16002
なくなって	-16003
ミステリー	-16004
オーストリアの	-16005
レギュラーシーズン	-16006
ky	-16007
▁村	-16008
ざき	-16009
づき	-16010
メア	-16011
摂津	-16012
朝倉	-16013
機銃	-16014
次期	-16015
葉樹	-16016
西方	-16017
近縁	-16018
酷な	-16019
長調	-16020
170	-16021
ECT	-16022
eng	-16023
とも称	-16024
を刊行	-16025
内容が	-16026
学校は	-16027
家庭用	-16028
正教会	-16029
渡って	-16030
距離は	-16031
▁Inc	-16032
▁des	-16033
ウイング	-16034
スクエア	-16035
リンゲン	-16036
に進出した	-16037
を行ったが	-16038
上映された	-16039
として初めて	-16040
が担当している	-16041
年に公開された	-16042
日のダイヤ改正	-16043
試合に出場した	-16044
エンターテイメント	-16045
CB	-16046
を読	-16047
全線	-16048
幅は	-16049
弾き	-16050
戦が	-16051
月と	-16052
有用	-16053
石原	-16054
織り	-16055
老人	-16056
西口	-16057
に続き	-16058
の中核	-16059
みると	-16060
を前に	-16061
を強調	-16062
を押し	-16063
カザフ	-16064
ニカル	-16065
原作の	-16066
建築物	-16067
選んだ	-16068
集まり	-16069
://」	-16070
ユネスコ	-16071
使用され	-16072
初ゴール	-16073
異なった	-16074
発掘調査	-16075
造られた	-16076
▁1949	-16077
。1955	-16078
を受けたが	-16079
ウクライナの	-16080
スタートした	-16081
キャラクターは	-16082
クトペテルブルク	-16083
出身の元サッカー選手	-16084
に手	-16085
バカ	-16086
前面	-16087
却下	-16088
天平	-16089
尚書	-16090
崇拝	-16091
左派	-16092
後年	-16093
星は	-16094
馬力	-16095
app	-16096
▁中央	-16097
を想定	-16098
号から	-16099
地区に	-16100
月末に	-16101
東京市	-16102
歩兵第	-16103
父親が	-16104
町から	-16105
Xbox	-16106
azon	-16107
ったため	-16108
に合わせ	-16109
のテーマ	-16110
まつわる	-16111
コーラス	-16112
万ユーロ	-16113
従五位下	-16114
復帰した	-16115
標準的な	-16116
組み立て	-16117
と並行して	-16118
のサウンド	-16119
フィッシュ	-16120
しら	-16121
ぞく	-16122
のと	-16123
エグ	-16124
ッポ	-16125
入国	-16126
券売	-16127
周回	-16128
均衡	-16129
大山	-16130
戦績	-16131
料を	-16132
生殖	-16133
空き	-16134
馬が	-16135
』()	-16136
この後	-16137
も含め	-16138
シュト	-16139
周辺は	-16140
能力は	-16141
自治区	-16142
関係で	-16143
reat	-16144
せんしゅ	-16145
ハンドル	-16146
描かれる	-16147
部リーグ	-16148
▁1936	-16149
つけられた	-16150
▁ヨーロッパ	-16151
などが挙げられる	-16152
が届	-16153
きわ	-16154
の海	-16155
も兼	-16156
を飲	-16157
休日	-16158
大内	-16159
左岸	-16160
混雑	-16161
発症	-16162
艦は	-16163
の設立	-16164
を意識	-16165
クレオ	-16166
シーの	-16167
マッカ	-16168
ミー賞	-16169
ラーゼ	-16170
に切り替	-16171
のモデル	-16172
マッカー	-16173
提案した	-16174
貢献した	-16175
などを経て	-16176
にあたった	-16177
に際しては	-16178
主張している	-16179
ディフェンダー	-16180
で破	-16181
と新	-16182
ベス	-16183
モト	-16184
以内	-16185
北極	-16186
友達	-16187
吾妻	-16188
呼ぶ	-16189
小島	-16190
換算	-16191
星野	-16192
朝は	-16193
松尾	-16194
武力	-16195
説は	-16196
造り	-16197
-25	-16198
chn	-16199
権力を	-16200
▁日本語	-16201
から指名	-16202
ゆっくり	-16203
コーディ	-16204
サーバー	-16205
地方競馬	-16206
という用語	-16207
エンジンを	-16208
カンボジア	-16209
ストローク	-16210
学者である	-16211
されていないが	-16212
グランドスラム	-16213
pm	-16214
▁晩	-16215
上部	-16216
下位	-16217
主将	-16218
寄進	-16219
旭川	-16220
曲で	-16221
激減	-16222
特命	-16223
瑞宝	-16224
▁et	-16225
この際	-16226
を加え	-16227
インズ	-16228
コンペ	-16229
ジェロ	-16230
占める	-16231
受容体	-16232
宝塚歌	-16233
発表し	-16234
直線で	-16235
郊外の	-16236
モニター	-16237
現行行政	-16238
結婚した	-16239
、1933	-16240
れなかった	-16241
サイエンス	-16242
ワルシャワ	-16243
を参照のこと	-16244
アンドリュー	-16245
成功を収めた	-16246
SR	-16247
▁ピ	-16248
▁名	-16249
なみ	-16250
マダ	-16251
上空	-16252
味の	-16253
園芸	-16254
安藤	-16255
幻想	-16256
待機	-16257
掃海	-16258
本質	-16259
花は	-16260
豊島	-16261
▁英語	-16262
、27	-16263
がおり	-16264
が進む	-16265
の基礎	-16266
ガルト	-16267
クラン	-16268
ペトロ	-16269
代理店	-16270
市内に	-16271
市議会	-16272
活躍し	-16273
登録を	-16274
重大な	-16275
すために	-16276
ブラウザ	-16277
ブレット	-16278
ボスニア	-16279
経済成長	-16280
ファミコン	-16281
ミシシッピ	-16282
働いていた	-16283
中止となった	-16284
9,	-16285
=2	-16286
GR	-16287
すす	-16288
ふれ	-16289
上皇	-16290
他社	-16291
余り	-16292
原田	-16293
多項	-16294
州と	-16295
平定	-16296
招聘	-16297
馬を	-16298
103	-16299
osh	-16300
ren	-16301
に集中	-16302
を前提	-16303
を回避	-16304
カープ	-16305
クロウ	-16306
スパル	-16307
ダーは	-16308
ビザン	-16309
マニラ	-16310
今回の	-16311
天皇は	-16312
真珠湾	-16313
結婚式	-16314
途中の	-16315
1200	-16316
この地域	-16317
を加える	-16318
スターの	-16319
リングの	-16320
共産党の	-16321
大ヒット	-16322
背番号は	-16323
▁アルバム	-16324
▁引退後は	-16325
付けている	-16326
を中心として	-16327
による日本の漫画作品	-16328
令第	-16329
像を	-16330
号車	-16331
工廠	-16332
応答	-16333
換装	-16334
津田	-16335
警官	-16336
!!』	-16337
コロム	-16338
スタイ	-16339
バルの	-16340
長谷川	-16341
と異なる	-16342
どちらの	-16343
シャフト	-16344
ティアン	-16345
、1926	-16346
ストロング	-16347
ユダヤ人の	-16348
対策として	-16349
されていった	-16350
による事業所	-16351
所属していた	-16352
ブリティッシュ	-16353
Ab	-16354
]]	-16355
に充	-16356
ゴス	-16357
山内	-16358
常磐	-16359
必殺	-16360
敗と	-16361
石田	-16362
請け	-16363
arl	-16364
」)。	-16365
を監督	-16366
前者は	-16367
帰国後	-16368
研究は	-16369
を設置し	-16370
作成した	-16371
歴史的な	-16372
述の通り	-16373
。1963	-16374
など多くの	-16375
やその他の	-16376
蒸気機関車	-16377
プレイヤーは	-16378
クリーブランド	-16379
設定されている	-16380
の時	-16381
ゥル	-16382
ゴミ	-16383
テア	-16384
側で	-16385
公判	-16386
出羽	-16387
単一	-16388
山を	-16389
崩れ	-16390
強豪	-16391
指向	-16392
様な	-16393
水深	-16394
薬の	-16395
部位	-16396
EMI	-16397
▁車両	-16398
から一	-16399
が同じ	-16400
まとめ	-16401
を退職	-16402
候補者	-16403
入りし	-16404
勢力が	-16405
競技場	-16406
誤って	-16407
1934	-16408
が必要な	-16409
なかなか	-16410
を結んだ	-16411
サイズの	-16412
シーンの	-16413
先発出場	-16414
用された	-16415
▁その後は	-16416
アクセント	-16417
ファーレン	-16418
が採用された	-16419
ことについて	-16420
オフィシャル	-16421
一般社団法人	-16422
▁久	-16423
▁外	-16424
サリ	-16425
ホマ	-16426
事象	-16427
二つ	-16428
休業	-16429
公司	-16430
南区	-16431
品を	-16432
姿で	-16433
待遇	-16434
投下	-16435
棄却	-16436
目指	-16437
私が	-16438
脱落	-16439
辺境	-16440
駐留	-16441
▁歴代	-16442
の三男	-16443
の意向	-16444
オーガ	-16445
サーン	-16446
スクー	-16447
ドゥル	-16448
バスク	-16449
ペドロ	-16450
ホース	-16451
全体を	-16452
小規模	-16453
跡地に	-16454
に携わる	-16455
コンビニ	-16456
ナッシュ	-16457
右投右打	-16458
歳以上の	-16459
解説する	-16460
という成績	-16461
を結成した	-16462
アベニュー	-16463
地域である	-16464
多くの場合	-16465
メリーランド	-16466
を担当していた	-16467
現役を引退した	-16468
で全	-16469
シム	-16470
佐渡	-16471
写本	-16472
及ば	-16473
可愛	-16474
意に	-16475
文を	-16476
歯科	-16477
率の	-16478
脅迫	-16479
茶屋	-16480
閉館	-16481
-00	-16482
Vol	-16483
▁受賞	-16484
、、、	-16485
を開く	-16486
ジュン	-16487
価格は	-16488
出演は	-16489
卒業生	-16490
国から	-16491
情報は	-16492
施設が	-16493
日本が	-16494
機能は	-16495
減少し	-16496
産業の	-16497
留学生	-16498
を与えて	-16499
を見つけ	-16500
バンクー	-16501
ファイア	-16502
リオール	-16503
江戸幕府	-16504
相次いで	-16505
▁メンバー	-16506
をイメージ	-16507
ウェルター	-16508
ジェイムズ	-16509
処刑された	-16510
を引き継いだ	-16511
▁勝	-16512
ざん	-16513
に係	-16514
アソ	-16515
ホウ	-16516
一門	-16517
中核	-16518
京浜	-16519
元に	-16520
告示	-16521
封印	-16522
崩御	-16523
州市	-16524
新羅	-16525
最長	-16526
浮世	-16527
私鉄	-16528
覚醒	-16529
貯蔵	-16530
越え	-16531
跡地	-16532
軽い	-16533
関税	-16534
飾り	-16535
:55	-16536
つくば	-16537
どおり	-16538
の養子	-16539
ハイル	-16540
考え方	-16541
膨大な	-16542
1900	-16543
▁Ass	-16544
▁過去の	-16545
に戻って	-16546
シグナル	-16547
ヨーゼフ	-16548
施行された	-16549
ということを	-16550
などといった	-16551
によって異なる	-16552
オープンソース	-16553
ニューヨーク市	-16554
愛知県名古屋市	-16555
コンサルティング	-16556
中華人民共和国の	-16557
することを発表した	-16558
▁国勢調査による人口の推移	-16559
PO	-16560
みで	-16561
シラ	-16562
不要	-16563
射程	-16564
山麓	-16565
帝の	-16566
母艦	-16567
現職	-16568
終焉	-16569
血統	-16570
車輌	-16571
MHz	-16572
が制作	-16573
に属す	-16574
の規定	-16575
ネスト	-16576
今後の	-16577
が多いが	-16578
に因んで	-16579
に移籍し	-16580
ブンデス	-16581
レックス	-16582
人だった	-16583
公表した	-16584
的であり	-16585
競馬場で	-16586
車として	-16587
関係者の	-16588
類似した	-16589
▁日本での	-16590
によっても	-16591
を終了した	-16592
ストリーム	-16593
少なくない	-16594
バージニア州	-16595
に参加している	-16596
することもできる	-16597
現役時代のポジションは	-16598
yo	-16599
あお	-16600
あれ	-16601
の音	-16602
フッ	-16603
儀礼	-16604
品は	-16605
嫡男	-16606
献上	-16607
祖母	-16608
神学	-16609
秋に	-16610
肺炎	-16611
胞子	-16612
荘園	-16613
視野	-16614
誘致	-16615
通告	-16616
750	-16617
org	-16618
▁とも	-16619
▁より	-16620
の距離	-16621
を出港	-16622
を有し	-16623
コンゴ	-16624
チェー	-16625
チンコ	-16626
ヒンド	-16627
上には	-16628
年の間	-16629
情報が	-16630
言えば	-16631
ings	-16632
▁または	-16633
の大統領	-16634
カードの	-16635
サンプル	-16636
変更した	-16637
航空機の	-16638
起用され	-16639
カルシウム	-16640
コロムビア	-16641
少なかった	-16642
ことがあった	-16643
参議院議員通常	-16644
GN	-16645
じ込	-16646
に於	-16647
イロ	-16648
ナギ	-16649
フス	-16650
南下	-16651
年月	-16652
戦し	-16653
起動	-16654
▁シャ	-16655
から逃	-16656
が出現	-16657
に向け	-16658
らえる	-16659
を全て	-16660
仕掛け	-16661
女優の	-16662
放射性	-16663
条件で	-16664
理事会	-16665
美少女	-16666
進んだ	-16667
この曲は	-16668
への移行	-16669
カリスト	-16670
バックス	-16671
世紀前半	-16672
展開する	-16673
度の高い	-16674
日本書紀	-16675
立候補し	-16676
のシングル	-16677
を開催した	-16678
カテゴリー	-16679
フォックス	-16680
厚生労働省	-16681
構成される	-16682
アルファベット	-16683
we	-16684
うら	-16685
なぐ	-16686
に覆	-16687
の女	-16688
サト	-16689
シノ	-16690
三冠	-16691
免除	-16692
汎用	-16693
疎開	-16694
くなり	-16695
の実施	-16696
の物語	-16697
の製作	-16698
イース	-16699
ソナタ	-16700
タイア	-16701
ブリア	-16702
人物は	-16703
当たる	-16704
簡単な	-16705
資料館	-16706
までには	-16707
を出して	-16708
コンプレ	-16709
▁TOUR	-16710
、1925	-16711
に所在する	-16712
教育委員会	-16713
日平均乗車	-16714
現在に至る	-16715
スーパーマーケット	-16716
値が	-16717
加茂	-16718
商船	-16719
家や	-16720
曽根	-16721
確か	-16722
近似	-16723
鉱業	-16724
麻痺	-16725
ICE	-16726
の一族	-16727
まんが	-16728
を完成	-16729
アレン	-16730
シズム	-16731
センの	-16732
ホルン	-16733
彼女を	-16734
方面の	-16735
連合軍	-16736
▁Art	-16737
だけでは	-16738
に属した	-16739
得られた	-16740
。1949	-16741
という名前	-16742
に携わった	-16743
パトリック	-16744
に属していた	-16745
ピッツバーグ	-16746
サウジアラビア	-16747
よこ	-16748
を補	-16749
カ月	-16750
メト	-16751
之介	-16752
元老	-16753
内装	-16754
分泌	-16755
反面	-16756
台が	-16757
字幕	-16758
守る	-16759
完璧	-16760
掘削	-16761
琵琶	-16762
祈願	-16763
置換	-16764
逝去	-16765
頭取	-16766
che	-16767
ins	-16768
way	-16769
ガンダ	-16770
ダイス	-16771
デール	-16772
トラス	-16773
ナート	-16774
及んだ	-16775
地理学	-16776
奇妙な	-16777
工事を	-16778
年に第	-16779
庁長官	-16780
撮影した	-16781
▁1938	-16782
のイメージ	-16783
はイギリス	-16784
予定だった	-16785
であるとして	-16786
UL	-16787
▁』	-16788
の計	-16789
を改	-16790
一塁	-16791
八郎	-16792
型で	-16793
延暦	-16794
水に	-16795
湾岸	-16796
無罪	-16797
長州	-16798
WBO	-16799
ane	-16800
ero	-16801
▁ほか	-16802
と戦う	-16803
に出馬	-16804
に選定	-16805
キネマ	-16806
ドック	-16807
ピンの	-16808
主義的	-16809
従四位	-16810
政権は	-16811
方式は	-16812
様子を	-16813
特徴は	-16814
▁Tom	-16815
▁太字は	-16816
になるが	-16817
に沿った	-16818
の大きさ	-16819
ウォルト	-16820
ドライン	-16821
位となる	-16822
成長した	-16823
、1927	-16824
ことが可能	-16825
として参加	-16826
このことから	-16827
に属している	-16828
プレイヤーが	-16829
section	-16830
アフガニスタン	-16831
VR	-16832
ya	-16833
の目	-16834
ぼる	-16835
不利	-16836
墓地	-16837
奉仕	-16838
山中	-16839
死傷	-16840
水田	-16841
硫酸	-16842
竹内	-16843
系で	-16844
詩集	-16845
部作	-16846
階は	-16847
ALL	-16848
、60	-16849
グルス	-16850
予備役	-16851
住宅地	-16852
小田急	-16853
影響力	-16854
Open	-16855
チャンス	-16856
ヘビー級	-16857
体として	-16858
候補として	-16859
北アメリカ	-16860
年国勢調査	-16861
サッカー連盟	-16862
PL	-16863
つい	-16864
バダ	-16865
原始	-16866
口を	-16867
家具	-16868
版と	-16869
疲労	-16870
2.0	-16871
代目の	-16872
初めに	-16873
北条氏	-16874
合いが	-16875
大学に	-16876
戦後は	-16877
技術を	-16878
方式で	-16879
札幌市	-16880
から分離	-16881
でしょう	-16882
はドイツ	-16883
またこの	-16884
スタメン	-16885
金融機関	-16886
▁シリーズ	-16887
。1961	-16888
コミューン	-16889
スターリン	-16890
形となった	-16891
派遣された	-16892
年にわたって	-16893
するものである	-16894
とも表記される	-16895
メーカーである	-16896
として使用された	-16897
')	-16898
▁信	-16899
▁成	-16900
はお	-16901
ひら	-16902
ガウ	-16903
クン	-16904
党員	-16905
制裁	-16906
参拝	-16907
慕容	-16908
暴走	-16909
枚組	-16910
無効	-16911
線型	-16912
自伝	-16913
遠い	-16914
騒ぎ	-16915
▁ハイ	-16916
』・『	-16917
たどり	-16918
を行使	-16919
会議の	-16920
特技は	-16921
率いて	-16922
したとき	-16923
ラッセル	-16924
戦国時代の	-16925
が確認された	-16926
することである	-16927
キャラクターが	-16928
保存されている	-16929
開催されている	-16930
イヌ	-16931
タマ	-16932
バオ	-16933
バビ	-16934
人文	-16935
初戦	-16936
揺れ	-16937
文が	-16938
有志	-16939
百科	-16940
群れ	-16941
迎撃	-16942
遺族	-16943
uro	-16944
▁けん	-16945
の定義	-16946
を理解	-16947
大司教	-16948
面には	-16949
ORLD	-16950
が少ない	-16951
試合では	-16952
(2010	-16953
こととなり	-16954
も行われた	-16955
▁聖	-16956
かと	-16957
の増	-16958
内藤	-16959
利便	-16960
域は	-16961
密着	-16962
慈善	-16963
栄誉	-16964
渡米	-16965
産卵	-16966
盆地	-16967
県都	-16968
竹本	-16969
通訳	-16970
-30	-16971
づける	-16972
は一切	-16973
を専門	-16974
スノー	-16975
全てが	-16976
写真集	-16977
正確に	-16978
▁試合数	-16979
ジュネー	-16980
テレビで	-16981
▁1951	-16982
アメリカ海軍	-16983
とのトレードで	-16984
回参議院議員通常	-16985
,0	-16986
で下	-16987
丸山	-16988
佐伯	-16989
履歴	-16990
春季	-16991
有人	-16992
未成	-16993
築造	-16994
青葉	-16995
▁at	-16996
▁ロー	-16997
▁幼少	-16998
の名誉	-16999
を勝ち	-17000
コリン	-17001
ポーズ	-17002
中央の	-17003
全体で	-17004
協会は	-17005
太郎は	-17006
幾何学	-17007
思いを	-17008
1932	-17009
illa	-17010
▁bes	-17011
サイトの	-17012
チームに	-17013
かのように	-17014
を必要とする	-17015
▁Windows	-17016
サンクトペテルブルク	-17017
アメリカンフットボール	-17018
-)	-17019
MR	-17020
しな	-17021
を勧	-17022
キラ	-17023
マは	-17024
ヶ崎	-17025
充電	-17026
反転	-17027
囲む	-17028
多発	-17029
新潮	-17030
日蓮	-17031
服装	-17032
樹木	-17033
狙撃	-17034
貨車	-17035
超人	-17036
ura	-17037
▁40	-17038
に合意	-17039
の基本	-17040
を踏襲	-17041
下では	-17042
京都の	-17043
全国に	-17044
文部省	-17045
程度で	-17046
系列局	-17047
1935	-17048
▁Vol	-17049
を知った	-17050
エリート	-17051
カルタゴ	-17052
サヨナラ	-17053
デイリー	-17054
例がある	-17055
型である	-17056
大阪府立	-17057
社会福祉	-17058
いないため	-17059
レイアウト	-17060
続けていた	-17061
閉鎖された	-17062
▁School	-17063
コンサルタント	-17064
ys	-17065
ざわ	-17066
やむ	-17067
ロア	-17068
外科	-17069
大の	-17070
子で	-17071
島市	-17072
巡礼	-17073
恐慌	-17074
敬意	-17075
給付	-17076
補欠	-17077
造形	-17078
露出	-17079
ald	-17080
alk	-17081
use	-17082
▁OS	-17083
づけた	-17084
に達し	-17085
の記述	-17086
へ移動	-17087
ゴード	-17088
ダール	-17089
バータ	-17090
地上駅	-17091
演奏会	-17092
そういう	-17093
での活動	-17094
のものは	-17095
を支える	-17096
を模した	-17097
を聞いた	-17098
を送った	-17099
シュトゥ	-17100
バイバル	-17101
世界初の	-17102
合併して	-17103
情報番組	-17104
日放送の	-17105
背景には	-17106
フランチャ	-17107
指定された	-17108
自分たちの	-17109
に住んでいた	-17110
アドバイザー	-17111
されているため	-17112
年に発表された	-17113
Mi	-17114
ゃく	-17115
ナノ	-17116
党派	-17117
円盤	-17118
号で	-17119
外相	-17120
大切	-17121
小樽	-17122
小麦	-17123
性も	-17124
操業	-17125
本木	-17126
横に	-17127
炭酸	-17128
番は	-17129
疑い	-17130
船で	-17131
領有	-17132
魚類	-17133
IBF	-17134
ino	-17135
の支配	-17136
ガンは	-17137
前後に	-17138
替わり	-17139
気温は	-17140
起こり	-17141
LIVE	-17142
ents	-17143
その年の	-17144
と答えた	-17145
ウラジー	-17146
化により	-17147
執行役員	-17148
、1924	-17149
。1947	-17150
が置かれた	-17151
サービスが	-17152
二酸化炭素	-17153
提供している	-17154
ブンデスリーガ	-17155
aj	-17156
ガの	-17157
ナリ	-17158
協調	-17159
祭祀	-17160
豪雨	-17161
隆盛	-17162
風刺	-17163
にかか	-17164
の地名	-17165
を書く	-17166
サリン	-17167
テージ	-17168
パター	-17169
位入賞	-17170
価値観	-17171
団体が	-17172
最寄り	-17173
ason	-17174
が生まれ	-17175
してくる	-17176
を巡って	-17177
オルガン	-17178
キーパー	-17179
購入した	-17180
これに伴い	-17181
もともとは	-17182
報告された	-17183
と推定される	-17184
に編入された	-17185
ニッポン放送	-17186
▁x	-17187
に励	-17188
ニヤ	-17189
ピカ	-17190
三等	-17191
京区	-17192
信念	-17193
出口	-17194
千歳	-17195
培養	-17196
大関	-17197
寄稿	-17198
後続	-17199
情熱	-17200
教官	-17201
料の	-17202
病の	-17203
発酵	-17204
(、)	-17205
dro	-17206
hip	-17207
▁マル	-17208
▁構成	-17209
を参考	-17210
を所有	-17211
ウラン	-17212
ブラー	-17213
リーフ	-17214
レバー	-17215
レーヌ	-17216
ロビー	-17217
勝った	-17218
固有の	-17219
専門店	-17220
年初頭	-17221
行為を	-17222
1600	-17223
1924	-17224
が入った	-17225
クロード	-17226
ジャマイ	-17227
ダイエー	-17228
変わらず	-17229
日本語の	-17230
日発売の	-17231
記録した	-17232
が主催する	-17233
になっても	-17234
ペンネーム	-17235
平方メートル	-17236
▁米	-17237
▁野	-17238
ぎり	-17239
に処	-17240
わい	-17241
を贈	-17242
アグ	-17243
イカ	-17244
クワ	-17245
三の	-17246
内田	-17247
冷戦	-17248
友情	-17249
在職	-17250
型式	-17251
基底	-17252
本州	-17253
構図	-17254
王女	-17255
異母	-17256
立方	-17257
観念	-17258
鎮座	-17259
20%	-17260
enc	-17261
するの	-17262
の責任	-17263
ようで	-17264
を図り	-17265
ジャワ	-17266
フック	-17267
リフト	-17268
万人が	-17269
人物の	-17270
停留場	-17271
多額の	-17272
年末に	-17273
映画で	-17274
裕福な	-17275
1800	-17276
NATO	-17277
への対応	-17278
わずかな	-17279
モーツァ	-17280
に登場した	-17281
アンケート	-17282
ジャンルの	-17283
プロトコル	-17284
モジュール	-17285
リミックス	-17286
事業として	-17287
現役を引退	-17288
が認められる	-17289
バンクーバー	-17290
ポーランドの	-17291
▁テレビドラマ	-17292
"&	-17293
Ge	-17294
ぐら	-17295
を覚	-17296
カツ	-17297
スチ	-17298
バの	-17299
・6	-17300
厚い	-17301
屋外	-17302
湖の	-17303
火器	-17304
由紀	-17305
直営	-17306
系が	-17307
級で	-17308
絶望	-17309
自家	-17310
舞鶴	-17311
適合	-17312
馬車	-17313
鳥の	-17314
▁IN	-17315
▁学校	-17316
でのみ	-17317
と関係	-17318
の共同	-17319
の愛称	-17320
を変え	-17321
ウルス	-17322
キャピ	-17323
バスが	-17324
マティ	-17325
ロッド	-17326
中継局	-17327
合併し	-17328
同性愛	-17329
地域を	-17330
短距離	-17331
バルカン	-17332
バーデン	-17333
ミューズ	-17334
成り立つ	-17335
(2018	-17336
が発表され	-17337
に反対する	-17338
エストニア	-17339
タッグ王座	-17340
整備された	-17341
路線である	-17342
,6	-17343
uc	-17344
に列	-17345
ろく	-17346
円筒	-17347
可動	-17348
山東	-17349
廃業	-17350
絶賛	-17351
見て	-17352
調印	-17353
起点	-17354
足立	-17355
遊園	-17356
109	-17357
ARD	-17358
▁作詞	-17359
と定義	-17360
の経営	-17361
ザース	-17362
スパー	-17363
バスは	-17364
パリで	-17365
フアン	-17366
ロッキ	-17367
民族の	-17368
に用いる	-17369
クラウン	-17370
ヴァージ	-17371
日本初の	-17372
更新した	-17373
竣工した	-17374
。1948	-17375
。1959	-17376
中国共産党	-17377
放送時間は	-17378
活動を行う	-17379
Android	-17380
現行行政地名は	-17381
Pr	-17382
▁吉	-17383
▁義	-17384
ゲッ	-17385
レコ	-17386
レノ	-17387
世襲	-17388
原町	-17389
打数	-17390
朗読	-17391
親戚	-17392
通報	-17393
野市	-17394
ute	-17395
に応じ	-17396
を成功	-17397
ダンの	-17398
ツァー	-17399
ツキー	-17400
下に置	-17401
良好な	-17402
貧しい	-17403
ater	-17404
を遂げた	-17405
セールス	-17406
バロック	-17407
ヴァルト	-17408
初回生産	-17409
南北戦争	-17410
豊臣秀吉	-17411
コフスキー	-17412
としているが	-17413
に登録された	-17414
に関する研究	-17415
は存在しない	-17416
ニックネーム	-17417
がち	-17418
たれ	-17419
を貫	-17420
ェン	-17421
エナ	-17422
チカ	-17423
ミヤ	-17424
三位	-17425
地盤	-17426
多重	-17427
実力	-17428
投獄	-17429
接合	-17430
立川	-17431
雄が	-17432
飛ぶ	-17433
ext	-17434
||3	-17435
▁人間	-17436
を振り	-17437
を阻止	-17438
ケーキ	-17439
ニウス	-17440
ロップ	-17441
映画化	-17442
純粋な	-17443
言った	-17444
大阪市立	-17445
語である	-17446
農林水産	-17447
ことにした	-17448
させていた	-17449
と発表した	-17450
はいずれも	-17451
ドラゴンズ	-17452
ライターの	-17453
ルネサンス	-17454
報道された	-17455
挙げている	-17456
歳のときに	-17457
の後任として	-17458
キリスト教の	-17459
ユニフォーム	-17460
を企	-17461
丹後	-17462
十六	-17463
号と	-17464
子音	-17465
寄生	-17466
捕鯨	-17467
救出	-17468
景気	-17469
正の	-17470
水野	-17471
納得	-17472
顕彰	-17473
ett	-17474
oon	-17475
▁チャ	-17476
が再び	-17477
の映像	-17478
を目標	-17479
シンセ	-17480
トリニ	-17481
ナショ	-17482
ライス	-17483
ワンダ	-17484
劇場で	-17485
在住の	-17486
戦いを	-17487
長い間	-17488
関数の	-17489
顕著な	-17490
▁ライブ	-17491
ゴシック	-17492
ホテルの	-17493
用ソフト	-17494
年時点では	-17495
持っていた	-17496
されることを	-17497
ミニアルバム	-17498
などを歴任した	-17499
Wh	-17500
クシ	-17501
低温	-17502
南端	-17503
回目	-17504
基督	-17505
強度	-17506
時折	-17507
書が	-17508
曹操	-17509
榴弾	-17510
絵本	-17511
調停	-17512
阿蘇	-17513
飛躍	-17514
115	-17515
360	-17516
▁使用	-17517
へ移行	-17518
アング	-17519
アンチ	-17520
仕様の	-17521
仙台市	-17522
前期の	-17523
書記官	-17524
最大で	-17525
最高裁	-17526
うために	-17527
する方針	-17528
デンティ	-17529
レッスン	-17530
変わって	-17531
市の地名	-17532
▁メディア	-17533
掲載された	-17534
総合格闘技	-17535
込んでいる	-17536
ことが出来る	-17537
チョコレート	-17538
ミュージアム	-17539
世界スーパー	-17540
年代後半から	-17541
パワ	-17542
入札	-17543
古河	-17544
問屋	-17545
声の	-17546
悪な	-17547
接収	-17548
支線	-17549
文久	-17550
暗黒	-17551
枠で	-17552
欠陥	-17553
為替	-17554
請願	-17555
静止	-17556
驚く	-17557
102	-17558
▁SH	-17559
▁かず	-17560
と提携	-17561
にしか	-17562
に転換	-17563
を奪取	-17564
ゲノム	-17565
ポピュ	-17566
創業者	-17567
未勝利	-17568
機体の	-17569
番組が	-17570
総督府	-17571
表面に	-17572
設計は	-17573
▁Res	-17574
は下記の	-17575
セメント	-17576
ナリズム	-17577
例もある	-17578
最近では	-17579
独立して	-17580
認められ	-17581
。1937	-17582
。1943	-17583
。1953	-17584
させるため	-17585
に分かれる	-17586
を発見した	-17587
レースでは	-17588
と呼んでいる	-17589
トヨタ自動車	-17590
可能性もある	-17591
フランチャイズ	-17592
▁田	-17593
の要	-17594
の金	-17595
今井	-17596
克服	-17597
公転	-17598
受託	-17599
後円	-17600
志向	-17601
手順	-17602
牛乳	-17603
訪れ	-17604
電信	-17605
の試合	-17606
を目撃	-17607
を配置	-17608
キエフ	-17609
サール	-17610
ナイル	-17611
ニンテ	-17612
リスは	-17613
今まで	-17614
仲間の	-17615
伝統的	-17616
単位で	-17617
同一の	-17618
本作が	-17619
法律第	-17620
研究室	-17621
を付けた	-17622
ノーザン	-17623
損害賠償	-17624
▁1932	-17625
ことだった	-17626
日本の漫画家	-17627
シューティング	-17628
モータースポーツ	-17629
ヴュルテンベルク	-17630
オキ	-17631
ユン	-17632
ルが	-17633
並み	-17634
別府	-17635
対外	-17636
広範	-17637
怒り	-17638
文法	-17639
本貫	-17640
機と	-17641
炎症	-17642
砲の	-17643
視点	-17644
観戦	-17645
釜山	-17646
難波	-17647
おこな	-17648
に入門	-17649
の国際	-17650
の模様	-17651
の機会	-17652
の続編	-17653
はより	-17654
ふさわ	-17655
を以て	-17656
ガブリ	-17657
レシピ	-17658
同級生	-17659
場合の	-17660
少数の	-17661
話では	-17662
輸送船	-17663
に進んだ	-17664
クルーズ	-17665
世界的な	-17666
日本軍の	-17667
(2024	-17668
。1938	-17669
じられている	-17670
チャートでは	-17671
ベストセラー	-17672
モデルとして	-17673
修士課程修了	-17674
出来なかった	-17675
世界選手権では	-17676
メインキャラクター	-17677
▁無	-17678
▁車	-17679
ひこ	-17680
供養	-17681
分間	-17682
工藤	-17683
拡充	-17684
明示	-17685
練馬	-17686
進撃	-17687
録画	-17688
電荷	-17689
oto	-17690
▁ヴィ	-17691
せられ	-17692
のです	-17693
グラー	-17694
入り口	-17695
四日市	-17696
更なる	-17697
都市は	-17698
endo	-17699
ファイブ	-17700
ファイン	-17701
ペディア	-17702
ヴェント	-17703
最初から	-17704
最終的な	-17705
硬式野球	-17706
そのために	-17707
ウィンブル	-17708
フロリダ州	-17709
illiam	-17710
でプレーした	-17711
を表している	-17712
カトリック教会	-17713
オペレーティング	-17714
BD	-17715
とエ	-17716
の変	-17717
アセ	-17718
カ国	-17719
レは	-17720
上手	-17721
不二	-17722
再興	-17723
可変	-17724
執り	-17725
帝は	-17726
志摩	-17727
桜井	-17728
漬け	-17729
総監	-17730
112	-17731
lic	-17732
を示唆	-17733
ギャン	-17734
ツィオ	-17735
ローグ	-17736
周囲に	-17737
章受章	-17738
速度が	-17739
1928	-17740
があれば	-17741
アドルフ	-17742
シャープ	-17743
スロット	-17744
ティーン	-17745
。1939	-17746
を立ち上げ	-17747
を設置した	-17748
アメリカ人	-17749
アルバート	-17750
キャニオン	-17751
ベルリンの	-17752
正式名称は	-17753
組織である	-17754
が導入された	-17755
させることで	-17756
mb	-17757
リブ	-17758
兵役	-17759
再発	-17760
国旗	-17761
家電	-17762
律令	-17763
後援	-17764
高岡	-17765
▁Se	-17766
が再開	-17767
したら	-17768
に住み	-17769
に入隊	-17770
の第一	-17771
を買い	-17772
クラリ	-17773
ダラス	-17774
ラスベ	-17775
周辺に	-17776
戦いの	-17777
最高峰	-17778
礼拝堂	-17779
連盟の	-17780
lack	-17781
に初めて	-17782
を呼んだ	-17783
んできた	-17784
ミュエル	-17785
リリーフ	-17786
亡くなる	-17787
人口統計	-17788
活動休止	-17789
過去には	-17790
あまりにも	-17791
する場合は	-17792
に関わった	-17793
もう一つの	-17794
アゼルバイ	-17795
ヘクタール	-17796
準々決勝で	-17797
マクドナルド	-17798
▁日本における	-17799
テレビシリーズ	-17800
とん	-17801
へも	-17802
バタ	-17803
ママ	-17804
ムラ	-17805
両者	-17806
域の	-17807
宮本	-17808
常時	-17809
広瀬	-17810
戸田	-17811
朝に	-17812
未遂	-17813
植え	-17814
犯人	-17815
皇子	-17816
ism	-17817
を営む	-17818
を投入	-17819
テイク	-17820
フェデ	-17821
日後に	-17822
月曜日	-17823
機能の	-17824
自体の	-17825
表題曲	-17826
高性能	-17827
ベートー	-17828
事務局長	-17829
呼びかけ	-17830
移籍した	-17831
部分的に	-17832
限られた	-17833
を支持する	-17834
公表された	-17835
務めている	-17836
江戸時代に	-17837
ノーフォーク	-17838
出演していた	-17839
予定であったが	-17840
DX	-17841
いっ	-17842
と西	-17843
みて	-17844
を配	-17845
リフ	-17846
中原	-17847
光を	-17848
円の	-17849
四球	-17850
脊椎	-17851
議決	-17852
に定着	-17853
に対処	-17854
に就く	-17855
アポロ	-17856
小説の	-17857
川水系	-17858
言語の	-17859
▁Tra	-17860
を繰り広	-17861
クスピア	-17862
今日では	-17863
自衛隊の	-17864
芸術大学	-17865
。1956	-17866
。1958	-17867
がみられる	-17868
ことを目的	-17869
にもなった	-17870
われており	-17871
セクション	-17872
朝鮮民主主義	-17873
と推定されている	-17874
NK	-17875
レの	-17876
ヶ所	-17877
万国	-17878
世を	-17879
体格	-17880
匹敵	-17881
合金	-17882
明神	-17883
松浦	-17884
決戦	-17885
葛飾	-17886
賞は	-17887
質な	-17888
門下	-17889
ISO	-17890
ere	-17891
▁Is	-17892
が発表	-17893
くない	-17894
をもち	-17895
を説明	-17896
を送る	-17897
少年の	-17898
東西に	-17899
江戸川	-17900
ジョーン	-17901
Phone	-17902
▁1934	-17903
に変更され	-17904
用いられていた	-17905
VA	-17906
はく	-17907
グッ	-17908
信任	-17909
四季	-17910
学級	-17911
平原	-17912
推し	-17913
河北	-17914
灯台	-17915
蔣介	-17916
連装	-17917
ret	-17918
まれて	-17919
不定期	-17920
付いた	-17921
公式の	-17922
内部に	-17923
増加し	-17924
日午後	-17925
カセット	-17926
フォント	-17927
日放送分	-17928
機である	-17929
ology	-17930
されるのは	-17931
に使われる	-17932
フランクリン	-17933
フリーアナウンサー	-17934
でお	-17935
に誘	-17936
コト	-17937
一宮	-17938
不法	-17939
停滞	-17940
六角	-17941
大森	-17942
庁は	-17943
放火	-17944
故に	-17945
流用	-17946
真空	-17947
舗装	-17948
荷重	-17949
諮問	-17950
遠ざ	-17951
長に	-17952
麻生	-17953
の多い	-17954
を守り	-17955
ターズ	-17956
マート	-17957
リーブ	-17958
レータ	-17959
ローブ	-17960
枠組み	-17961
社会学	-17962
編集者	-17963
雑誌の	-17964
1918	-17965
クラホマ	-17966
フォンソ	-17967
人のうち	-17968
決勝進出	-17969
記された	-17970
▁に対して	-17971
は無かった	-17972
決定された	-17973
関係にある	-17974
Amazon	-17975
モーツァルト	-17976
から構成される	-17977
奪三振を記録した	-17978
たど	-17979
とを	-17980
もも	-17981
クィ	-17982
元和	-17983
宅地	-17984
小銃	-17985
政令	-17986
本田	-17987
松戸	-17988
物流	-17989
直列	-17990
祭壇	-17991
行が	-17992
部員	-17993
銘柄	-17994
▁近年	-17995
の前で	-17996
を指導	-17997
パナマ	-17998
マウン	-17999
レシー	-18000
一時期	-18001
北西部	-18002
単一の	-18003
吹奏楽	-18004
地区で	-18005
知らせ	-18006
▁近年の	-18007
のファン	-18008
アラスカ	-18009
シーンは	-18010
スタイン	-18011
ニュルン	-18012
フラワー	-18013
ポルシェ	-18014
ントンの	-18015
大臣官房	-18016
(2021	-18017
▁シングル	-18018
▁ディスコ	-18019
、1922	-18020
。1954	-18021
の大部分は	-18022
トライアル	-18023
マーガレット	-18024
ことができない	-18025
タイトルマッチ	-18026
以下の通りである	-18027
と呼ばれることもある	-18028
7.	-18029
が丘	-18030
ユリ	-18031
児の	-18032
共鳴	-18033
劇中	-18034
南市	-18035
同誌	-18036
大神	-18037
後で	-18038
支社	-18039
法制	-18040
秋季	-18041
糖尿	-18042
落合	-18043
虚偽	-18044
除籍	-18045
NBC	-18046
ler	-18047
▁Bl	-18048
▁全国	-18049
シェー	-18050
シーク	-18051
両者は	-18052
共和政	-18053
海兵隊	-18054
点満点	-18055
無料で	-18056
由来の	-18057
運動は	-18058
rand	-18059
があって	-18060
を作って	-18061
アルプス	-18062
ローラー	-18063
年契約で	-18064
段階では	-18065
行政区画	-18066
説もある	-18067
(2014	-18068
とも呼ばれ	-18069
ないように	-18070
としての役割	-18071
ディビジョン	-18072
ニンテンドー	-18073
ようになっていた	-18074
オールスターゲーム	-18075
td	-18076
▁先	-18077
▁藤	-18078
はち	-18079
ホモ	-18080
司の	-18081
尾根	-18082
弾道	-18083
改変	-18084
数も	-18085
醤油	-18086
面会	-18087
しての	-18088
を製作	-18089
を調査	-18090
ビック	-18091
古墳群	-18092
者への	-18093
週間の	-18094
避ける	-18095
OVID	-18096
する前に	-18097
意図的に	-18098
近代的な	-18099
重傷を負	-18100
▁1923	-18101
、1914	-18102
アルバニア	-18103
アイルランドの	-18104
シェイクスピア	-18105
新型コロナウイルス感染症	-18106
▁開	-18107
傑作	-18108
制式	-18109
寄与	-18110
帯の	-18111
持株	-18112
敗れ	-18113
本郷	-18114
治水	-18115
補充	-18116
角を	-18117
隠れ	-18118
香川	-18119
▁be	-18120
そうな	-18121
に譲渡	-18122
を超え	-18123
ナムコ	-18124
リッド	-18125
位タイ	-18126
停車場	-18127
原子炉	-18128
合いの	-18129
市場の	-18130
慰安婦	-18131
条約の	-18132
相手を	-18133
部活動	-18134
ouse	-18135
に拠点を	-18136
ますます	-18137
ミスター	-18138
に過ぎない	-18139
を紹介する	-18140
ウィルソン	-18141
バーチャル	-18142
になってしまう	-18143
Bl	-18144
の曲	-18145
セネ	-18146
チは	-18147
伊那	-18148
光は	-18149
国政	-18150
妹の	-18151
山村	-18152
島田	-18153
待合	-18154
援護	-18155
東口	-18156
極端	-18157
経費	-18158
貯水	-18159
貼り	-18160
離陸	-18161
108	-18162
と連携	-18163
を発症	-18164
を表示	-18165
を装着	-18166
スクラ	-18167
ティエ	-18168
一族の	-18169
問題視	-18170
撮影は	-18171
普通科	-18172
海外の	-18173
騎士団	-18174
time	-18175
▁以上の	-18176
が見える	-18177
ソロモン	-18178
レースは	-18179
接続する	-18180
開通した	-18181
間もない	-18182
してからは	-18183
を繰り返し	-18184
ハミルトン	-18185
的であった	-18186
編成された	-18187
の一部である	-18188
ハンドボール	-18189
慶應義塾大学	-18190
とされているが	-18191
クリストファー	-18192
VF	-18193
だし	-18194
ねじ	-18195
の根	-18196
内務	-18197
妥当	-18198
安土	-18199
完封	-18200
平衡	-18201
治郎	-18202
特色	-18203
皮肉	-18204
結ぶ	-18205
装填	-18206
製紙	-18207
負債	-18208
=2|	-18209
NEC	-18210
▁GT	-18211
の支持	-18212
を保護	-18213
を帯び	-18214
国では	-18215
病院に	-18216
軍事的	-18217
フルート	-18218
ロベルト	-18219
スティーブ	-18220
で開催される	-18221
イギリスでは	-18222
することとなる	-18223
が伝	-18224
そく	-18225
に含	-18226
めき	-18227
を祝	-18228
サキ	-18229
ンダ	-18230
伴奏	-18231
備考	-18232
土屋	-18233
奪還	-18234
尼崎	-18235
辞退	-18236
退却	-18237
進軍	-18238
門司	-18239
院は	-18240
104	-18241
Con	-18242
con	-18243
las	-18244
▁De	-18245
▁それ	-18246
▁同じ	-18247
うかが	-18248
が建て	-18249
との共	-18250
と違い	-18251
に強い	-18252
の権利	-18253
までが	-18254
を調べ	-18255
アルビ	-18256
コスタ	-18257
ポニー	-18258
効果は	-18259
宇宙船	-18260
期間に	-18261
気動車	-18262
浮世絵	-18263
監督が	-18264
社名を	-18265
細かく	-18266
が少なく	-18267
を備える	-18268
アストロ	-18269
オレゴン	-18270
一般には	-18271
実質的な	-18272
年以降の	-18273
性のある	-18274
に移行した	-18275
ウルグアイ	-18276
オールナイト	-18277
年ぶりとなる	-18278
監督を務めた	-18279
ニュルンベルク	-18280
周年を記念して	-18281
エンジニアリング	-18282
GC	-18283
▁江	-18284
に包	-18285
に数	-18286
クモ	-18287
サマ	-18288
ナと	-18289
ネの	-18290
不定	-18291
休憩	-18292
天満	-18293
川内	-18294
年第	-18295
!!」	-18296
▁とし	-18297
▁運行	-18298
から東	-18299
シール	-18300
フェッ	-18301
ベント	-18302
マッハ	-18303
モダン	-18304
ランは	-18305
レーツ	-18306
教育者	-18307
正しく	-18308
長時間	-18309
▁One	-18310
ハーゲン	-18311
ヨハネス	-18312
分布する	-18313
取られた	-18314
学部教授	-18315
性を持つ	-18316
経済産業	-18317
自由契約	-18318
資本主義	-18319
静岡県立	-18320
score	-18321
、1919	-18322
ともいえる	-18323
を出版した	-18324
パラメータ	-18325
マスコット	-18326
展開している	-18327
しようとしたが	-18328
も手	-18329
イオ	-18330
ガタ	-18331
ゴリ	-18332
ラバ	-18333
人目	-18334
内定	-18335
外側	-18336
大塚	-18337
奇襲	-18338
守り	-18339
島を	-18340
摩擦	-18341
武家	-18342
泣き	-18343
神秘	-18344
積も	-18345
納税	-18346
諜報	-18347
重臣	-18348
骨の	-18349
:54	-18350
だけに	-18351
に関心	-18352
に陥り	-18353
を組む	-18354
スーパ	-18355
チウム	-18356
トリノ	-18357
ナイフ	-18358
ホーン	-18359
人間に	-18360
任天堂	-18361
呼称は	-18362
大阪の	-18363
寄せた	-18364
当日の	-18365
後者の	-18366
最終戦	-18367
残した	-18368
自分を	-18369
走した	-18370
こちらも	-18371
るところ	-18372
を実施し	-18373
クラブは	-18374
ドラッグ	-18375
フェミニ	-18376
レポート	-18377
同年には	-18378
楽しめる	-18379
記事では	-18380
リクエスト	-18381
ローリング	-18382
例としては	-18383
名前の由来	-18384
最も重要な	-18385
東京ドーム	-18386
▁オリジナル	-18387
で発売された	-18388
アイデンティ	-18389
ディビシオン	-18390
バッファロー	-18391
ヒップホップ	-18392
勝ちを収めた	-18393
市に本社を置く	-18394
▁第一次世界大戦	-18395
be	-18396
か国	-18397
アパ	-18398
ゴラ	-18399
上を	-18400
伝導	-18401
反省	-18402
回で	-18403
大師	-18404
宝石	-18405
職人	-18406
西郷	-18407
賃貸	-18408
POP	-18409
UND	-18410
▁Ph	-18411
▁コン	-18412
に通い	-18413
の形で	-18414
ウィス	-18415
ジョナ	-18416
タリア	-18417
テュー	-18418
ヌード	-18419
パーソ	-18420
ボルチ	-18421
人類の	-18422
位指名	-18423
優勝し	-18424
挙げる	-18425
決まり	-18426
▁チーム	-18427
いずれか	-18428
での放送	-18429
ウィック	-18430
グラード	-18431
ユリウス	-18432
一貫して	-18433
数である	-18434
した際には	-18435
ウェスタン	-18436
スピンオフ	-18437
プリキュア	-18438
投入された	-18439
欧州選手権	-18440
焦点を当て	-18441
フェルナンド	-18442
モントリオール	-18443
新型コロナウイルスの	-18444
BN	-18445
▁z	-18446
は行	-18447
を整	-18448
ハヤ	-18449
ブダ	-18450
外伝	-18451
島が	-18452
往来	-18453
憧れ	-18454
日経	-18455
案を	-18456
秋葉	-18457
習い	-18458
規範	-18459
配偶	-18460
0.0	-18461
240	-18462
▁しん	-18463
▁中世	-18464
で敗れ	-18465
を中止	-18466
プロの	-18467
マイヤ	-18468
仁親王	-18469
制度は	-18470
協会が	-18471
文学者	-18472
男性が	-18473
経済の	-18474
1919	-18475
1922	-18476
1925	-18477
に面した	-18478
まらない	-18479
イエロー	-18480
スティン	-18481
ドイツ人	-18482
番人気に	-18483
表明した	-18484
から始まる	-18485
この作品は	-18486
パイオニア	-18487
メルセデス	-18488
メーション	-18489
日本の男性	-18490
▁プロ入り前	-18491
ものではなく	-18492
ランキングで	-18493
が置かれている	-18494
FT	-18495
▁°	-18496
▁学	-18497
つば	-18498
やめ	-18499
カビ	-18500
ヘア	-18501
上方	-18502
丸の	-18503
全権	-18504
単発	-18505
啓蒙	-18506
喫煙	-18507
壁画	-18508
嫌い	-18509
屈指	-18510
店は	-18511
延喜	-18512
日清	-18513
梅田	-18514
法華	-18515
津川	-18516
片側	-18517
養殖	-18518
こそが	-18519
たびに	-18520
におよ	-18521
を提示	-18522
ザック	-18523
ネスの	-18524
バーは	-18525
ピュー	-18526
ムント	-18527
公園の	-18528
内でも	-18529
名称が	-18530
当局は	-18531
拡大し	-18532
本部は	-18533
状況は	-18534
距離が	-18535
▁Eng	-18536
が見つか	-18537
フライト	-18538
即位した	-18539
▁ここでは	-18540
を導入した	-18541
カウンター	-18542
日本語吹替	-18543
非常勤講師	-18544
高等学校の	-18545
▁地名の由来	-18546
アップデート	-18547
当時としては	-18548
カンファレンス	-18549
になってしまった	-18550
▁×	-18551
▁ノ	-18552
と号	-18553
の兵	-18554
万博	-18555
会派	-18556
天明	-18557
奥州	-18558
店が	-18559
承諾	-18560
白石	-18561
粘土	-18562
讃岐	-18563
農地	-18564
を過ぎ	-18565
ストル	-18566
ッシー	-18567
取り扱	-18568
の名称で	-18569
を設ける	-18570
を高める	-18571
インテル	-18572
ゲームを	-18573
ホールド	-18574
日付けで	-18575
立ち上げ	-18576
(2006	-18577
witch	-18578
▁1929	-18579
のであった	-18580
メキシコの	-18581
オークランド	-18582
ウィンブルドン	-18583
バスターミナル	-18584
メンバーとして	-18585
オープニングテーマ	-18586
トランスミッション	-18587
2-	-18588
UK	-18589
ZO	-18590
そろ	-18591
とお	-18592
に富	-18593
の旧	-18594
の聖	-18595
を新	-18596
スム	-18597
ペリ	-18598
下野	-18599
再会	-18600
同型	-18601
服部	-18602
次女	-18603
発作	-18604
にすぎ	-18605
に統一	-18606
カント	-18607
サザン	-18608
リビア	-18609
天王寺	-18610
太郎の	-18611
工学科	-18612
本願寺	-18613
決める	-18614
活動家	-18615
系統は	-18616
が率いる	-18617
ソマリア	-18618
中だった	-18619
年である	-18620
結成した	-18621
ATION	-18622
と考えられ	-18623
に尽力した	-18624
大きかった	-18625
施設である	-18626
これを受けて	-18627
すると発表した	-18628
アメリカ海軍の	-18629
ローテーション	-18630
?)	-18631
と小	-18632
びん	-18633
まき	-18634
ギブ	-18635
コタ	-18636
名簿	-18637
妖精	-18638
役場	-18639
撤廃	-18640
日高	-18641
機密	-18642
流し	-18643
細い	-18644
縁起	-18645
自称	-18646
蔵書	-18647
1,0	-18648
ife	-18649
rum	-18650
、28	-18651
に居住	-18652
に抜擢	-18653
を運行	-18654
ハノー	-18655
ヒート	-18656
リュウ	-18657
同大学	-18658
有効な	-18659
述した	-18660
1910	-18661
1931	-18662
を破って	-18663
タイガー	-18664
フェクト	-18665
フルエン	-18666
ベテラン	-18667
上にある	-18668
▁その後も	-18669
せなかった	-18670
作られている	-18671
活動していた	-18672
相対式ホーム	-18673
カスティーリャ	-18674
Microsoft	-18675
_3	-18676
▁建	-18677
ざい	-18678
まし	-18679
アポ	-18680
ハブ	-18681
伐採	-18682
処女	-18683
召喚	-18684
法定	-18685
浅い	-18686
病原	-18687
矢野	-18688
結城	-18689
転移	-18690
部落	-18691
銀の	-18692
%)、	-18693
URO	-18694
▁Or	-18695
▁世帯	-18696
▁原作	-18697
▁大会	-18698
おける	-18699
世界を	-18700
人には	-18701
持ち主	-18702
王朝の	-18703
発展し	-18704
を終えて	-18705
シュトラ	-18706
ディープ	-18707
ニュート	-18708
ヘルマン	-18709
モロッコ	-18710
先発登板	-18711
到着した	-18712
失敗した	-18713
宗の寺院	-18714
最大級の	-18715
テクニック	-18716
ブラザーズ	-18717
上演された	-18718
最優秀選手	-18719
開設された	-18720
利用されている	-18721
にノミネートされた	-18722
1(	-18723
FI	-18724
PE	-18725
ZA	-18726
▁ち	-18727
ふみ	-18728
みる	-18729
ヒュ	-18730
乗合	-18731
国宝	-18732
妥協	-18733
富田	-18734
征伐	-18735
授賞	-18736
掲げ	-18737
浮き	-18738
積載	-18739
築城	-18740
花を	-18741
軍需	-18742
陸地	-18743
頭を	-18744
1-2	-18745
▁アー	-18746
はずの	-18747
まわり	-18748
クジラ	-18749
ベータ	-18750
マザー	-18751
争いを	-18752
方向の	-18753
最新の	-18754
未来の	-18755
から撤退	-18756
これ以降	-18757
に代わる	-18758
まとめて	-18759
を擁する	-18760
インド洋	-18761
サンブル	-18762
出会った	-18763
周辺には	-18764
者たちは	-18765
自由主義	-18766
。1957	-18767
年になって	-18768
確認できる	-18769
ファクトリー	-18770
販売している	-18771
パラリンピック	-18772
ワールドシリーズ	-18773
."	-18774
HF	-18775
▁青	-18776
▁～	-18777
っ子	-18778
ネは	-18779
ヘビ	-18780
三宅	-18781
信越	-18782
川西	-18783
旨を	-18784
検閲	-18785
海老	-18786
端は	-18787
近辺	-18788
迫害	-18789
▁決勝	-18790
が広く	-18791
と並び	-18792
に打ち	-18793
の強い	-18794
エスカ	-18795
場合も	-18796
市では	-18797
核兵器	-18798
遅れて	-18799
▁com	-18800
すことで	-18801
せている	-18802
を兼ねた	-18803
チャップ	-18804
ルイジア	-18805
レースで	-18806
協会会長	-18807
国である	-18808
歳のとき	-18809
現在まで	-18810
販売する	-18811
(2011	-18812
▁1933	-18813
アフリカの	-18814
アレックス	-18815
プリンセス	-18816
程度である	-18817
にあたっては	-18818
パナソニック	-18819
プロジェクトの	-18820
場合によっては	-18821
鉄筋コンクリート	-18822
AE	-18823
ka	-18824
▁社	-18825
▁道	-18826
くう	-18827
を汲	-18828
ウッ	-18829
三段	-18830
南道	-18831
史実	-18832
天の	-18833
射殺	-18834
棄権	-18835
相馬	-18836
西区	-18837
起業	-18838
近接	-18839
適正	-18840
野戦	-18841
LAN	-18842
でその	-18843
に侵攻	-18844
の部分	-18845
を創刊	-18846
フェス	-18847
マスカ	-18848
ロドリ	-18849
期間の	-18850
権を握	-18851
歴史家	-18852
監査役	-18853
高める	-18854
atch	-18855
▁兵庫県	-18856
おかげで	-18857
と称して	-18858
は多くの	-18859
われたが	-18860
を成し遂	-18861
を行なう	-18862
を逃した	-18863
アドバン	-18864
ウェイン	-18865
ベンガル	-18866
並行して	-18867
管轄区域	-18868
▁1931	-18869
▁スーパー	-18870
するものの	-18871
のため死去	-18872
マスターズ	-18873
ローマ教皇	-18874
を占めている	-18875
挙げられている	-18876
コミュニティバス	-18877
コンピレーション	-18878
,8	-18879
SI	-18880
おは	-18881
すり	-18882
オウ	-18883
乙女	-18884
動揺	-18885
差が	-18886
復刻	-18887
慢性	-18888
指し	-18889
橋で	-18890
民兵	-18891
法と	-18892
海で	-18893
畠山	-18894
進党	-18895
金子	-18896
頭が	-18897
IME	-18898
air	-18899
eth	-18900
とあり	-18901
エイト	-18902
トリエ	-18903
レンチ	-18904
合いを	-18905
契機に	-18906
期間中	-18907
構成は	-18908
環境の	-18909
飛行隊	-18910
への攻撃	-18911
を離れた	-18912
アリゾナ	-18913
ゲームは	-18914
ツブルク	-18915
マルティ	-18916
ミシェル	-18917
万ポンド	-18918
国立大学	-18919
手がけた	-18920
明治維新	-18921
遺伝子の	-18922
(2022	-18923
、1921	-18924
が実施され	-18925
が設立され	-18926
とほぼ同じ	-18927
と合わせて	-18928
スタジオで	-18929
利用される	-18930
書いている	-18931
フェルディナ	-18932
結果となった	-18933
使用されていた	-18934
に変更されている	-18935
▁例	-18936
ずれ	-18937
に居	-18938
中性	-18939
固体	-18940
声は	-18941
大友	-18942
天津	-18943
岡村	-18944
弦楽	-18945
新曲	-18946
明日	-18947
治の	-18948
相応	-18949
鉄の	-18950
2)、	-18951
ash	-18952
▁Go	-18953
▁慶長	-18954
から西	-18955
がった	-18956
が発覚	-18957
すため	-18958
に本拠	-18959
を奪う	-18960
トール	-18961
ビッチ	-18962
マスの	-18963
リアは	-18964
中世の	-18965
動かす	-18966
北東部	-18967
密かに	-18968
明るく	-18969
映画や	-18970
替える	-18971
Inst	-18972
としない	-18973
の中心地	-18974
アンディ	-18975
ミッキー	-18976
レーサー	-18977
内閣官房	-18978
子どもの	-18979
建設され	-18980
相当する	-18981
、1910	-18982
したとして	-18983
に特化した	-18984
イスラム教	-18985
ウォルター	-18986
シングルの	-18987
対象となる	-18988
それによって	-18989
の一つであり	-18990
の影響を受け	-18991
件のレビュー	-18992
っていなかった	-18993
に対応している	-18994
紹介されている	-18995
ことが発表された	-18996
おと	-18997
が図	-18998
まね	-18999
ベッ	-19000
便は	-19001
分は	-19002
名乗	-19003
戸籍	-19004
日比	-19005
日系	-19006
本多	-19007
歌は	-19008
洗浄	-19009
灌漑	-19010
特例	-19011
秋山	-19012
郷の	-19013
釧路	-19014
AVE	-19015
For	-19016
Rob	-19017
Ste	-19018
たちも	-19019
と再婚	-19020
を優先	-19021
を出て	-19022
セリフ	-19023
プティ	-19024
リーチ	-19025
ヴェイ	-19026
会会長	-19027
参謀長	-19028
平日の	-19029
文字で	-19030
日本と	-19031
的かつ	-19032
確実に	-19033
自らを	-19034
限定の	-19035
1914	-19036
▁Car	-19037
みんなの	-19038
テライト	-19039
ネット局	-19040
フリート	-19041
ペーパー	-19042
幾つかの	-19043
(2009	-19044
▁1927	-19045
ことに成功	-19046
市議会議員	-19047
役を演じた	-19048
登録された	-19049
者によって	-19050
▁と呼ばれる	-19051
が存在しない	-19052
で使用される	-19053
に使用される	-19054
こい	-19055
の身	-19056
アロ	-19057
イソ	-19058
コカ	-19059
ニム	-19060
四角	-19061
庇護	-19062
戦前	-19063
校区	-19064
白山	-19065
眼鏡	-19066
短調	-19067
細な	-19068
菅原	-19069
車掌	-19070
重ね	-19071
閉塞	-19072
閉校	-19073
開口	-19074
GHQ	-19075
いわき	-19076
とは限	-19077
に招待	-19078
わかり	-19079
を抱き	-19080
会議所	-19081
初当選	-19082
大学と	-19083
川を渡	-19084
市中心	-19085
行きの	-19086
装置の	-19087
製造業	-19088
言葉を	-19089
阿弥陀	-19090
そこでは	-19091
その間に	-19092
に拠れば	-19093
を発見し	-19094
を置いた	-19095
ピストン	-19096
望ましい	-19097
裁判所は	-19098
通学区域	-19099
ision	-19100
キャンセル	-19101
マニュアル	-19102
日本共産党	-19103
という意味で	-19104
という理由で	-19105
インターハイ	-19106
シーズンから	-19107
コースティック	-19108
』「	-19109
クマ	-19110
ダメ	-19111
ヵ月	-19112
公平	-19113
手塚	-19114
提言	-19115
本堂	-19116
松江	-19117
火の	-19118
球の	-19119
用地	-19120
症の	-19121
立命	-19122
身は	-19123
長安	-19124
高雄	-19125
80%	-19126
90%	-19127
がより	-19128
が引き	-19129
を捨て	-19130
アイン	-19131
スクリ	-19132
ステア	-19133
帰国し	-19134
年代記	-19135
微生物	-19136
物語は	-19137
設計の	-19138
過ごし	-19139
2500	-19140
に当たり	-19141
を下した	-19142
を完全に	-19143
カタログ	-19144
クローン	-19145
グルジア	-19146
ハッタン	-19147
地方公共	-19148
外務大臣	-19149
採用され	-19150
方面への	-19151
開始から	-19152
で死去した	-19153
というのが	-19154
を搭載する	-19155
ジェンダー	-19156
ダンジョン	-19157
運営していた	-19158
▁codice	-19159
としてデビュー	-19160
として用いられる	-19161
日にリリースされた	-19162
に追	-19163
ニシ	-19164
元気	-19165
列挙	-19166
区立	-19167
士が	-19168
売春	-19169
大成	-19170
失業	-19171
室蘭	-19172
格子	-19173
案は	-19174
母が	-19175
渡る	-19176
簡素	-19177
補正	-19178
▁Gu	-19179
▁On	-19180
▁横浜	-19181
▁登場	-19182
の立場	-19183
まるで	-19184
ジーン	-19185
マカオ	-19186
交通局	-19187
故郷の	-19188
期間が	-19189
看護師	-19190
▁本作の	-19191
』(18	-19192
から引き	-19193
きわめて	-19194
に加わる	-19195
めていく	-19196
を越える	-19197
▁1935	-19198
。1951	-19199
とも言える	-19200
に選ばれる	-19201
[...]
