<pad>	0
<unk>	0
<s>	0
</s>	0
して	-0
した	-1
った	-2
され	-3
する	-4
てい	-5
ある	-6
から	-7
こと	-8
19	-9
20	-10
ている	-11
って	-12
である	-13
には	-14
では	-15
として	-16
ない	-17
その	-18
された	-19
してい	-20
られ	-21
によ	-22
この	-23
とい	-24
とな	-25
よう	-26
であ	-27
など	-28
ため	-29
リー	-30
もの	-31
にな	-32
という	-33
いて	-34
ール	-35
ていた	-36
ラン	-37
している	-38
また	-39
..	-40
スト	-41
ック	-42
イン	-43
ター	-44
10	-45
日本	-46
それ	-47
まで	-48
ット	-49
年に	-50
200	-51
これ	-52
される	-53
れた	-54
ート	-55
かった	-56
18	-57
ング	-58
ュー	-59
っている	-60
れる	-61
ティ	-62
いた	-63
、「	-64
であった	-65
、19	-66
ディ	-67
ことが	-68
でも	-69
されている	-70
ード	-71
にお	-72
12	-73
なく	-74
00	-75
おり	-76
ント	-77
でき	-78
にも	-79
日に	-80
していた	-81
より	-82
しか	-83
11	-84
ーム	-85
となった	-86
ショ	-87
とも	-88
なかった	-89
ると	-90
リア	-91
的な	-92
ライ	-93
によって	-94
大学	-95
がある	-96
)、	-97
。19	-98
であり	-99
」「	-100
により	-101
ース	-102
んで	-103
しい	-104
られた	-105
だった	-106
との	-107
ことを	-108
ける	-109
年の	-110
ンド	-111
人の	-112
あり	-113
による	-114
バー	-115
んだ	-116
に対	-117
につ	-118
リカ	-119
15	-120
▁19	-121
の中	-122
を受	-123
られる	-124
ンの	-125
。「	-126
プロ	-127
17	-128
ファ	-129
ーク	-130
16	-131
ジャ	-132
めた	-133
アル	-134
しかし	-135
けて	-136
させ	-137
れば	-138
への	-139
ように	-140
ップ	-141
レー	-142
の一	-143
アメ	-144
er	-145
になった	-146
的に	-147
....	-148
える	-149
つて	-150
けた	-151
ーズ	-152
アメリカ	-153
しま	-154
での	-155
あった	-156
のは	-157
ような	-158
を行	-159
において	-160
っていた	-161
その後	-162
世界	-163
となる	-164
▁(	-165
ション	-166
フィ	-167
われ	-168
について	-169
スの	-170
とは	-171
多く	-172
時代	-173
13	-174
)。	-175
スタ	-176
14	-177
チャ	-178
ロー	-179
学校	-180
ので	-181
コン	-182
めて	-183
なが	-184
ために	-185
月に	-186
▁-	-187
現在	-188
放送	-189
いる	-190
場合	-191
リン	-192
▁20	-193
たち	-194
、20	-195
えた	-196
in	-197
なる	-198
なら	-199
フォ	-200
カー	-201
研究	-202
ラー	-203
ステ	-204
シュ	-205
すること	-206
などの	-207
ジョ	-208
東京	-209
昭和	-210
on	-211
できる	-212
を持	-213
an	-214
後に	-215
ランド	-216
ころ	-217
そう	-218
作品	-219
シャ	-220
ながら	-221
を見	-222
タイ	-223
キャ	-224
とする	-225
だけ	-226
使用	-227
当時	-228
つた	-229
ルー	-230
める	-231
大き	-232
ます	-233
したが	-234
マン	-235
れて	-236
オー	-237
およ	-238
になる	-239
ベル	-240
さん	-241
フラン	-242
に入	-243
日の	-244
取り	-245
自分	-246
可能	-247
後の	-248
されて	-249
リス	-250
アン	-251
すると	-252
サー	-253
。20	-254
30	-255
イル	-256
ジェ	-257
or	-258
しく	-259
ウェ	-260
映画	-261
活動	-262
われた	-263
さら	-264
となり	-265
選手	-266
クラ	-267
と呼	-268
同じ	-269
存在	-270
ろう	-271
国の	-272
および	-273
ブル	-274
んな	-275
ッド	-276
えて	-277
者の	-278
ンは	-279
ました	-280
に関	-281
年には	-282
に出	-283
21	-284
en	-285
ージ	-286
らの	-287
そして	-288
とした	-289
ヴィ	-290
テレ	-291
にある	-292
られている	-293
きた	-294
フェ	-295
会社	-296
22	-297
ar	-298
つの	-299
ヴァ	-300
25	-301
シア	-302
同年	-303
』(	-304
――	-305
ーン	-306
エン	-307
スター	-308
りの	-309
24	-310
されていた	-311
23	-312
開発	-313
もある	-314
うち	-315
ニュー	-316
ルの	-317
発表	-318
年から	-319
間の	-320
ルト	-321
ニア	-322
考え	-323
これは	-324
番組	-325
サン	-326
時に	-327
からの	-328
、『	-329
、200	-330
ところ	-331
レイ	-332
年代	-333
テレビ	-334
ほど	-335
チーム	-336
地域	-337
まり	-338
▁S	-339
さらに	-340
なり	-341
なお	-342
ダー	-343
記録	-344
セン	-345
パー	-346
と思	-347
イツ	-348
における	-349
上げ	-350
ことは	-351
上の	-352
です	-353
以降	-354
どう	-355
at	-356
レン	-357
のみ	-358
われる	-359
関係	-360
代表	-361
アー	-362
ウィ	-363
人が	-364
初の	-365
サイ	-366
ナー	-367
時間	-368
問題	-369
引き	-370
他の	-371
必要	-372
試合	-373
こう	-374
al	-375
そこ	-376
ドイツ	-377
開始	-378
かり	-379
参加	-380
社会	-381
es	-382
の大	-383
シーズ	-384
ともに	-385
ょう	-386
と呼ば	-387
コー	-388
だが	-389
に対して	-390
家の	-391
彼は	-392
50	-393
部の	-394
をも	-395
明治	-396
かに	-397
ではない	-398
があり	-399
多くの	-400
しており	-401
ただ	-402
人は	-403
とき	-404
オン	-405
開催	-406
自身	-407
ニー	-408
間に	-409
メン	-410
リーズ	-411
にて	-412
が行	-413
音楽	-414
......	-415
を務	-416
一方	-417
結果	-418
リーグ	-419
トル	-420
イス	-421
ic	-422
と言	-423
」(	-424
ックス	-425
らず	-426
▁200	-427
平成	-428
ものの	-429
ませ	-430
影響	-431
大会	-432
になり	-433
利用	-434
世紀	-435
前に	-436
イギ	-437
委員	-438
となっている	-439
マー	-440
日本の	-441
▁C	-442
目の	-443
発売	-444
チェ	-445
。200	-446
国際	-447
鉄道	-448
わせ	-449
ことで	-450
グラ	-451
りに	-452
am	-453
政府	-454
監督	-455
を受け	-456
まれ	-457
のが	-458
戦争	-459
ブラ	-460
一般	-461
計画	-462
ゲーム	-463
主義	-464
共に	-465
ってい	-466
ビュー	-467
シリーズ	-468
199	-469
ドラ	-470
カル	-471
すべ	-472
スク	-473
事業	-474
アルバ	-475
キー	-476
スは	-477
多い	-478
都市	-479
まま	-480
優勝	-481
があった	-482
エル	-483
it	-484
あた	-485
スペ	-486
者は	-487
ナル	-488
にか	-489
ほか	-490
を得	-491
登場	-492
、2	-493
クト	-494
のため	-495
の名	-496
▁M	-497
彼女	-498
事件	-499
もう	-500
者が	-501
のである	-502
アイ	-503
ことから	-504
の上	-505
文化	-506
000	-507
を出	-508
地方	-509
しない	-510
ポー	-511
意味	-512
子の	-513
▁A	-514
来た	-515
is	-516
デル	-517
フランス	-518
he	-519
シーズン	-520
変更	-521
28	-522
中心	-523
としては	-524
ウン	-525
教育	-526
いで	-527
を経	-528
起こ	-529
。」	-530
に移	-531
することが	-532
特に	-533
の人	-534
レス	-535
26	-536
からは	-537
ッチ	-538
と同	-539
建設	-540
中に	-541
のだ	-542
させる	-543
かな	-544
27	-545
40	-546
前の	-547
選挙	-548
ことも	-549
ロッ	-550
力を	-551
女性	-552
80	-553
シー	-554
出身	-555
を含	-556
60	-557
軍の	-558
獲得	-559
クロ	-560
位置	-561
ソン	-562
つか	-563
が出	-564
リスト	-565
ループ	-566
に対する	-567
最も	-568
大きな	-569
ではなく	-570
設立	-571
ラク	-572
アルバム	-573
部分	-574
を通	-575
担当	-576
のように	-577
生活	-578
のか	-579
卒業	-580
とともに	-581
かれ	-582
モン	-583
ければ	-584
ようになった	-585
リング	-586
または	-587
内の	-588
経済	-589
29	-590
ヴェ	-591
攻撃	-592
シン	-593
シング	-594
設置	-595
イト	-596
ジョン	-597
私は	-598
の方	-599
ジュ	-600
、199	-601
バス	-602
数の	-603
フト	-604
ドル	-605
機関	-606
までの	-607
いは	-608
ネル	-609
政治	-610
ものである	-611
▁T	-612
70	-613
情報	-614
調査	-615
ぞれ	-616
場所	-617
イギリス	-618
それぞれ	-619
付け	-620
ウス	-621
状態	-622
まった	-623
られて	-624
発生	-625
デン	-626
のような	-627
ジオ	-628
決定	-629
マイ	-630
技術	-631
歴史	-632
グループ	-633
出場	-634
タン	-635
制作	-636
彼の	-637
中国	-638
を持つ	-639
le	-640
ことに	-641
なった	-642
マル	-643
それを	-644
んど	-645
以上	-646
になって	-647
▁『	-648
わた	-649
現在の	-650
としての	-651
いに	-652
えば	-653
に就	-654
所属	-655
▁この	-656
100	-657
第一	-658
じて	-659
、3	-660
及び	-661
)」	-662
la	-663
よく	-664
高い	-665
と共に	-666
ハン	-667
中の	-668
ールド	-669
▁B	-670
ジア	-671
述べ	-672
よりも	-673
事を	-674
、18	-675
といった	-676
ここ	-677
初めて	-678
▁P	-679
最終	-680
っと	-681
月の	-682
しば	-683
中央	-684
ion	-685
大阪	-686
当初	-687
それは	-688
システ	-689
に関する	-690
については	-691
と呼ばれる	-692
以外	-693
re	-694
ません	-695
ロン	-696
ビー	-697
じた	-698
などを	-699
らない	-700
システム	-701
を行う	-702
際に	-703
ロシア	-704
アニ	-705
テン	-706
ネット	-707
らは	-708
にと	-709
自動	-710
果た	-711
これを	-712
契約	-713
まれた	-714
トリ	-715
体の	-716
にして	-717
▁と	-718
出した	-719
させた	-720
ハイ	-721
当時の	-722
議員	-723
ou	-724
構成	-725
自由	-726
なければ	-727
議会	-728
組織	-729
ーション	-730
かけ	-731
採用	-732
のために	-733
31	-734
じゃ	-735
教授	-736
を受けた	-737
常に	-738
地区	-739
合わせ	-740
自分の	-741
▁は	-742
km	-743
をつ	-744
航空	-745
に向	-746
下の	-747
バル	-748
、1	-749
スコ	-750
公開	-751
st	-752
たい	-753
勝利	-754
バイ	-755
物の	-756
第二	-757
ほと	-758
198	-759
年間	-760
出来	-761
いい	-762
後は	-763
いう	-764
するため	-765
販売	-766
度の	-767
発見	-768
人を	-769
と考え	-770
合衆	-771
ヨー	-772
生産	-773
まだ	-774
デー	-775
施設	-776
運動	-777
さい	-778
立ち	-779
ジャー	-780
へと	-781
とし	-782
終了	-783
トラ	-784
el	-785
日には	-786
されており	-787
挙げ	-788
立て	-789
メート	-790
を与	-791
デビュー	-792
ro	-793
メンバー	-794
メント	-795
子供	-796
部隊	-797
いている	-798
これらの	-799
を果た	-800
期の	-801
委員会	-802
言葉	-803
ゐる	-804
スを	-805
ほとんど	-806
科学	-807
ジン	-808
ただし	-809
機能	-810
高等	-811
行われた	-812
まる	-813
▁"	-814
地の	-815
パン	-816
▁の	-817
わり	-818
とされる	-819
製造	-820
カン	-821
重要	-822
成功	-823
通り	-824
しょう	-825
最高	-826
いつ	-827
▁L	-828
目的	-829
実施	-830
プラ	-831
車両	-832
いの	-833
評価	-834
最大	-835
ch	-836
45	-837
しまった	-838
タル	-839
チャン	-840
▁F	-841
独立	-842
かけて	-843
本作	-844
の下	-845
アメリカ合衆	-846
月には	-847
出演	-848
日から	-849
ての	-850
収録	-851
再び	-852
っており	-853
戦で	-854
われている	-855
の中で	-856
やう	-857
ッシュ	-858
用い	-859
理由	-860
を作	-861
管理	-862
ダン	-863
組み	-864
ーの	-865
シェ	-866
トン	-867
ダイ	-868
。199	-869
ていない	-870
ひと	-871
オリ	-872
などが	-873
。『	-874
年まで	-875
構造	-876
ケット	-877
を経て	-878
しまう	-879
に加	-880
テー	-881
et	-882
スー	-883
わる	-884
▁R	-885
路線	-886
を結	-887
文学	-888
部に	-889
最初の	-890
かつて	-891
アニメ	-892
を取	-893
選手権	-894
を獲得	-895
江戸	-896
▁D	-897
ディア	-898
かれた	-899
プリ	-900
ダム	-901
タリア	-902
企業	-903
ガン	-904
のある	-905
()	-906
であったが	-907
ブリ	-908
時代の	-909
入れ	-910
教会	-911
はその	-912
入り	-913
ルス	-914
197	-915
ウォ	-916
ol	-917
センター	-918
すぐ	-919
▁199	-920
ハー	-921
であるが	-922
ッカー	-923
主張	-924
大きく	-925
新た	-926
バン	-927
なか	-928
人間	-929
できない	-930
子は	-931
新聞	-932
を行った	-933
可能性	-934
のです	-935
リリー	-936
労働	-937
自然	-938
時点	-939
に対し	-940
規模	-941
キング	-942
▁G	-943
せる	-944
そんな	-945
はじ	-946
設計	-947
に就任	-948
決勝	-949
に分	-950
来の	-951
ガー	-952
時の	-953
通常	-954
ロック	-955
と同じ	-956
内容	-957
全国	-958
戦闘	-959
デザ	-960
高校	-961
に伴	-962
▁t	-963
il	-964
時期	-965
いく	-966
ボー	-967
ものが	-968
ッツ	-969
ても	-970
ビア	-971
om	-972
あの	-973
内に	-974
わった	-975
学生	-976
モデル	-977
飛行	-978
ロッパ	-979
テル	-980
結婚	-981
インド	-982
わず	-983
としている	-984
。18	-985
▁「	-986
ものは	-987
ばかり	-988
▁18	-989
らく	-990
のうち	-991
完全	-992
ヨーロッパ	-993
特別	-994
帝国	-995
製作	-996
行く	-997
ちゃ	-998
提供	-999
ティー	-1000
予定	-1001
されたが	-1002
にした	-1003
まれる	-1004
連合	-1005
はこの	-1006
のも	-1007
ビル	-1008
打ち	-1009
記念	-1010
ユー	-1011
なん	-1012
、198	-1013
株式	-1014
を取り	-1015
セル	-1016
共和	-1017
れない	-1018
主に	-1019
々の	-1020
ザー	-1021
を含む	-1022
プレ	-1023
しよう	-1024
導入	-1025
道路	-1026
ミュー	-1027
を記録	-1028
指揮	-1029
搭載	-1030
協会	-1031
イタリア	-1032
メートル	-1033
になっている	-1034
▁)	-1035
を中心	-1036
っても	-1037
アク	-1038
ーター	-1039
のを	-1040
新しい	-1041
▁I	-1042
を示	-1043
ならない	-1044
人に	-1045
せた	-1046
の一部	-1047
指導	-1048
を務めた	-1049
クラブ	-1050
の手	-1051
支援	-1052
統領	-1053
バンド	-1054
わけ	-1055
をした	-1056
持ち	-1057
あるいは	-1058
ファン	-1059
35	-1060
196	-1061
、4	-1062
地に	-1063
,000	-1064
国民	-1065
支配	-1066
ing	-1067
を用	-1068
スが	-1069
ずれ	-1070
らか	-1071
を使	-1072
様に	-1073
かか	-1074
レース	-1075
らしい	-1076
ラクター	-1077
対象	-1078
様々	-1079
リオ	-1080
くる	-1081
ローマ	-1082
列車	-1083
のち	-1084
の後	-1085
切り	-1086
海軍	-1087
野球	-1088
of	-1089
出し	-1090
レク	-1091
もし	-1092
小説	-1093
認め	-1094
していたが	-1095
コード	-1096
の主	-1097
特徴	-1098
活躍	-1099
と云	-1100
会議	-1101
裁判	-1102
物を	-1103
スカ	-1104
相手	-1105
ミュ	-1106
京都	-1107
を開始	-1108
天皇	-1109
用の	-1110
は一	-1111
することを	-1112
▁m	-1113
するが	-1114
までは	-1115
異なる	-1116
as	-1117
連続	-1118
さま	-1119
ライブ	-1120
事務	-1121
設定	-1122
はい	-1123
等の	-1124
太郎	-1125
基本	-1126
べき	-1127
もので	-1128
それが	-1129
文字	-1130
編成	-1131
に見	-1132
られていた	-1133
はない	-1134
に参加	-1135
国内	-1136
候補	-1137
自動車	-1138
")	-1139
報告	-1140
思い	-1141
シングル	-1142
以上の	-1143
ゆる	-1144
リリース	-1145
子が	-1146
向け	-1147
環境	-1148
運営	-1149
変化	-1150
大統領	-1151
のに	-1152
ござ	-1153
のア	-1154
ストラ	-1155
ac	-1156
国家	-1157
警察	-1158
運転	-1159
せず	-1160
少し	-1161
に基	-1162
非常に	-1163
専門	-1164
者を	-1165
によると	-1166
表現	-1167
ども	-1168
▁H	-1169
中で	-1170
ジャン	-1171
ワー	-1172
朝鮮	-1173
ジー	-1174
完成	-1175
においては	-1176
経営	-1177
キャラクター	-1178
48	-1179
ギー	-1180
と述べ	-1181
オリン	-1182
形成	-1183
のお	-1184
学部	-1185
子を	-1186
が生	-1187
、197	-1188
ライン	-1189
(18	-1190
様々な	-1191
指定	-1192
カップ	-1193
かい	-1194
だろう	-1195
デザイン	-1196
がない	-1197
状況	-1198
ボール	-1199
▁W	-1200
的には	-1201
プレイ	-1202
NA	-1203
大正	-1204
ピック	-1205
場合は	-1206
スタン	-1207
せて	-1208
共同	-1209
連邦	-1210
人気	-1211
にあた	-1212
de	-1213
じる	-1214
撮影	-1215
アフ	-1216
amp	-1217
年は	-1218
民主	-1219
ディング	-1220
▁また	-1221
受け	-1222
を使用	-1223
パイ	-1224
たる	-1225
上が	-1226
交通	-1227
だけで	-1228
名の	-1229
ノー	-1230
が見	-1231
数は	-1232
公式	-1233
事実	-1234
▁E	-1235
以来	-1236
ミー	-1237
に基づ	-1238
サービ	-1239
大な	-1240
に至	-1241
トロ	-1242
展開	-1243
近く	-1244
強い	-1245
とに	-1246
ウム	-1247
美術	-1248
方法	-1249
us	-1250
するために	-1251
フリー	-1252
の一つ	-1253
人物	-1254
反対	-1255
比較	-1256
ソフト	-1257
ポーツ	-1258
廃止	-1259
ヨーク	-1260
ニング	-1261
for	-1262
を発	-1263
らが	-1264
年度	-1265
ラム	-1266
来る	-1267
れている	-1268
大戦	-1269
宇宙	-1270
だったが	-1271
いだ	-1272
長の	-1273
.5	-1274
をして	-1275
小さ	-1276
支持	-1277
んでいる	-1278
名は	-1279
込み	-1280
物語	-1281
所の	-1282
に進	-1283
社の	-1284
を始	-1285
ウル	-1286
性を	-1287
期間	-1288
行動	-1289
ものを	-1290
タイトル	-1291
そこで	-1292
36	-1293
乗り	-1294
といふ	-1295
批判	-1296
ユニ	-1297
イド	-1298
と見	-1299
、5	-1300
上に	-1301
実際	-1302
アメリカ合衆国	-1303
代の	-1304
によれば	-1305
形式	-1306
たちは	-1307
とう	-1308
トゥ	-1309
データ	-1310
を目	-1311
演奏	-1312
に従	-1313
をと	-1314
ことができる	-1315
株式会社	-1316
イング	-1317
44	-1318
そのため	-1319
周辺	-1320
ドラマ	-1321
ッグ	-1322
細胞	-1323
建築	-1324
ほぼ	-1325
の間	-1326
舞台	-1327
38	-1328
にとって	-1329
性の	-1330
を開	-1331
インター	-1332
が一	-1333
女子	-1334
線の	-1335
スポーツ	-1336
37	-1337
確認	-1338
団体	-1339
形で	-1340
を受けて	-1341
月から	-1342
輸送	-1343
運行	-1344
やす	-1345
落ち	-1346
工場	-1347
側の	-1348
フレ	-1349
もなく	-1350
海道	-1351
作戦	-1352
ベン	-1353
ールの	-1354
上で	-1355
55	-1356
距離	-1357
高等学校	-1358
ダル	-1359
博士	-1360
英語	-1361
大臣	-1362
クス	-1363
クリ	-1364
オープ	-1365
軍は	-1366
一の	-1367
方の	-1368
ズム	-1369
カリ	-1370
整備	-1371
説明	-1372
であろう	-1373
電気	-1374
and	-1375
ed	-1376
だと	-1377
最初	-1378
んでいた	-1379
芸術	-1380
ラジオ	-1381
の前	-1382
33	-1383
、196	-1384
自身の	-1385
住民	-1386
試験	-1387
しても	-1388
事が	-1389
スペイン	-1390
一方で	-1391
に戻	-1392
の地	-1393
点を	-1394
▁of	-1395
エンジン	-1396
できた	-1397
存在する	-1398
いていた	-1399
つつ	-1400
発展	-1401
32	-1402
部屋	-1403
総合	-1404
体を	-1405
銀行	-1406
は大	-1407
ミュージ	-1408
▁N	-1409
ヤー	-1410
ra	-1411
名を	-1412
ファー	-1413
世の	-1414
書き	-1415
げた	-1416
ent	-1417
出版	-1418
定の	-1419
出す	-1420
に選	-1421
人口	-1422
あって	-1423
います	-1424
ラス	-1425
工業	-1426
市の	-1427
を求	-1428
作曲	-1429
に生	-1430
登録	-1431
イベ	-1432
写真	-1433
拡大	-1434
いか	-1435
フォー	-1436
アジア	-1437
をする	-1438
学者	-1439
90	-1440
シャル	-1441
47	-1442
企画	-1443
ニューヨーク	-1444
いずれ	-1445
46	-1446
政権	-1447
行った	-1448
いが	-1449
したため	-1450
の戦	-1451
ヴォ	-1452
以下	-1453
陸軍	-1454
公園	-1455
しながら	-1456
トー	-1457
やが	-1458
チュ	-1459
ディー	-1460
』『	-1461
FC	-1462
なし	-1463
フル	-1464
増加	-1465
保護	-1466
までに	-1467
アナ	-1468
に出場	-1469
などで	-1470
産業	-1471
とか	-1472
オリンピック	-1473
当初は	-1474
地を	-1475
条件	-1476
にあった	-1477
ation	-1478
手を	-1479
42	-1480
続け	-1481
トラン	-1482
を行い	-1483
競技	-1484
39	-1485
続き	-1486
の家	-1487
ピア	-1488
り返	-1489
サッカー	-1490
としても	-1491
あら	-1492
ること	-1493
」、	-1494
ウンド	-1495
精神	-1496
ッジ	-1497
カード	-1498
人で	-1499
なた	-1500
アラ	-1501
メー	-1502
の中に	-1503
型の	-1504
直接	-1505
指摘	-1506
。198	-1507
だから	-1508
最後の	-1509
ポン	-1510
II	-1511
楽曲	-1512
種の	-1513
もあり	-1514
気が	-1515
43	-1516
体は	-1517
度は	-1518
したり	-1519
効果	-1520
成立	-1521
んです	-1522
に任	-1523
さう	-1524
漫画	-1525
色の	-1526
装置	-1527
司令	-1528
州の	-1529
はじめ	-1530
りを	-1531
発表した	-1532
41	-1533
同時に	-1534
スーパー	-1535
次世界	-1536
まず	-1537
例えば	-1538
過ぎ	-1539
BS	-1540
政策	-1541
死去	-1542
本の	-1543
を除	-1544
であると	-1545
デュー	-1546
生の	-1547
サイト	-1548
トップ	-1549
ot	-1550
プト	-1551
えている	-1552
クライ	-1553
言語	-1554
近い	-1555
行き	-1556
後半	-1557
劇場	-1558
を引き	-1559
経験	-1560
プレー	-1561
営業	-1562
あまり	-1563
これが	-1564
らう	-1565
ルド	-1566
un	-1567
ベース	-1568
クレ	-1569
パリ	-1570
けれ	-1571
者に	-1572
になると	-1573
重要な	-1574
イベント	-1575
えられた	-1576
たり	-1577
▁O	-1578
歳の	-1579
ねえ	-1580
34	-1581
▁198	-1582
いを	-1583
病院	-1584
、6	-1585
部は	-1586
部門	-1587
ロンド	-1588
種類	-1589
私の	-1590
化した	-1591
会長	-1592
ポート	-1593
復帰	-1594
合併	-1595
FA	-1596
人々	-1597
次世界大戦	-1598
められた	-1599
体が	-1600
よい	-1601
195	-1602
小学校	-1603
目を	-1604
有名	-1605
マーク	-1606
万円	-1607
に改	-1608
時には	-1609
IC	-1610
紹介	-1611
が行われた	-1612
それに	-1613
バラ	-1614
たら	-1615
つけ	-1616
長い	-1617
を一	-1618
出身の	-1619
付近	-1620
表記	-1621
掲載	-1622
開催された	-1623
▁その	-1624
セント	-1625
すれば	-1626
引退	-1627
由来	-1628
ゴール	-1629
ri	-1630
!」	-1631
ワールド	-1632
どこ	-1633
すべて	-1634
ブルク	-1635
感じ	-1636
ter	-1637
島の	-1638
追加	-1639
たちの	-1640
ことがある	-1641
を受賞	-1642
何か	-1643
をか	-1644
しの	-1645
程度	-1646
49	-1647
分の	-1648
ワーク	-1649
運用	-1650
事故	-1651
名称	-1652
正式	-1653
力の	-1654
様の	-1655
自治	-1656
移籍	-1657
過去	-1658
▁しかし	-1659
キュ	-1660
ピー	-1661
関連	-1662
を描	-1663
女の	-1664
成績	-1665
チン	-1666
に伴い	-1667
別の	-1668
を務め	-1669
タイム	-1670
げる	-1671
を担当	-1672
カナ	-1673
位の	-1674
通信	-1675
軍事	-1676
チャー	-1677
地球	-1678
知られる	-1679
アウ	-1680
元年	-1681
以降は	-1682
北海道	-1683
。」「	-1684
ギュ	-1685
家族	-1686
それから	-1687
▁が	-1688
原因	-1689
あなた	-1690
全て	-1691
山の	-1692
以前	-1693
ピン	-1694
ホール	-1695
配信	-1696
対応	-1697
編集	-1698
わらず	-1699
ルム	-1700
スティ	-1701
社長	-1702
早く	-1703
被害	-1704
を表	-1705
時は	-1706
ナイ	-1707
全く	-1708
することで	-1709
CD	-1710
生き	-1711
に転	-1712
キャン	-1713
川の	-1714
ow	-1715
平均	-1716
発売された	-1717
。197	-1718
以外の	-1719
安全	-1720
現在は	-1721
仕事	-1722
」、「	-1723
キシ	-1724
少年	-1725
コロ	-1726
マス	-1727
ペン	-1728
ER	-1729
いや	-1730
雑誌	-1731
来て	-1732
りと	-1733
フロ	-1734
にかけて	-1735
目に	-1736
出された	-1737
行為	-1738
内で	-1739
mm	-1740
東京都	-1741
。(	-1742
ゐた	-1743
革命	-1744
協力	-1745
市民	-1746
方面	-1747
の影響	-1748
AN	-1749
勝ち	-1750
こともある	-1751
が進	-1752
制度	-1753
キン	-1754
ライト	-1755
高く	-1756
の実	-1757
ケー	-1758
アップ	-1759
地元	-1760
所有	-1761
▁J	-1762
いろ	-1763
不明	-1764
をもって	-1765
場の	-1766
form	-1767
、7	-1768
グラム	-1769
500	-1770
艦隊	-1771
製品	-1772
理論	-1773
彼女は	-1774
機の	-1775
指す	-1776
移動	-1777
に属	-1778
りで	-1779
ちゃん	-1780
を持ち	-1781
。2	-1782
かう	-1783
モー	-1784
ズの	-1785
アフリカ	-1786
するなど	-1787
今日	-1788
少なく	-1789
側に	-1790
ったが	-1791
生まれ	-1792
ケン	-1793
らい	-1794
きの	-1795
cm	-1796
とその	-1797
ナン	-1798
力が	-1799
やがて	-1800
、10	-1801
広く	-1802
映像	-1803
AR	-1804
ギリ	-1805
こんな	-1806
ジェクト	-1807
ワン	-1808
AT	-1809
かつ	-1810
出して	-1811
ig	-1812
なかったが	-1813
もない	-1814
統合	-1815
派遣	-1816
共和国	-1817
を知	-1818
高速	-1819
車の	-1820
空港	-1821
破壊	-1822
々に	-1823
いわ	-1824
将軍	-1825
時代に	-1826
維持	-1827
さえ	-1828
動物	-1829
呼び	-1830
行政	-1831
os	-1832
ur	-1833
ントン	-1834
アカ	-1835
次の	-1836
方が	-1837
を受ける	-1838
民族	-1839
ウェー	-1840
横浜	-1841
方式	-1842
メディア	-1843
外国	-1844
アンド	-1845
伝統	-1846
性が	-1847
宗教	-1848
を手	-1849
ゲン	-1850
プロデュー	-1851
装備	-1852
そのまま	-1853
メイン	-1854
図書	-1855
所に	-1856
オブ	-1857
下に	-1858
かる	-1859
内閣	-1860
条約	-1861
しろ	-1862
発行	-1863
ST	-1864
初代	-1865
古屋	-1866
オープン	-1867
個人	-1868
えない	-1869
流れ	-1870
テーマ	-1871
こそ	-1872
が開	-1873
初期	-1874
系の	-1875
ゴル	-1876
チョ	-1877
対戦	-1878
続く	-1879
58	-1880
間で	-1881
に変更	-1882
iv	-1883
位を	-1884
グレ	-1885
時点で	-1886
大学の	-1887
町の	-1888
競馬	-1889
数が	-1890
取締	-1891
ことになった	-1892
デオ	-1893
安定	-1894
ファイ	-1895
ロード	-1896
限定	-1897
新たな	-1898
、8	-1899
法人	-1900
と一	-1901
などに	-1902
ヘン	-1903
ガル	-1904
配置	-1905
学の	-1906
ゅう	-1907
法律	-1908
ula	-1909
アの	-1910
呼ば	-1911
代わ	-1912
BC	-1913
サル	-1914
要求	-1915
に終	-1916
のこと	-1917
ツアー	-1918
▁V	-1919
われて	-1920
兄弟	-1921
発表された	-1922
韓国	-1923
成長	-1924
を果たした	-1925
に当	-1926
イント	-1927
小さな	-1928
人民	-1929
たちが	-1930
強く	-1931
国立	-1932
1,	-1933
ほう	-1934
を残	-1935
責任	-1936
電話	-1937
系統	-1938
に関して	-1939
シャー	-1940
意識	-1941
規定	-1942
を挙げ	-1943
("	-1944
太平	-1945
が必要	-1946
リスの	-1947
居る	-1948
オル	-1949
十分	-1950
食べ	-1951
タイプ	-1952
ではないか	-1953
ad	-1954
od	-1955
普通	-1956
のための	-1957
貢献	-1958
作業	-1959
パート	-1960
られない	-1961
ベスト	-1962
追い	-1963
方向	-1964
スタジオ	-1965
ラル	-1966
に立	-1967
を中心に	-1968
していない	-1969
くり	-1970
となって	-1971
違い	-1972
▁197	-1973
いくつか	-1974
を有	-1975
役割	-1976
生物	-1977
▁2	-1978
選択	-1979
しゃ	-1980
レーション	-1981
キリスト	-1982
かの	-1983
をお	-1984
アメリカの	-1985
ティング	-1986
発電	-1987
ブレ	-1988
統一	-1989
サービス	-1990
の第	-1991
標準	-1992
院議員	-1993
若い	-1994
するという	-1995
げて	-1996
。196	-1997
まい	-1998
ドゥ	-1999
が発生	-2000
フラ	-2001
が始	-2002
ランダ	-2003
全体	-2004
表示	-2005
のない	-2006
レコード	-2007
をあ	-2008
ミニ	-2009
広島	-2010
購入	-2011
要素	-2012
主人	-2013
自己	-2014
比べ	-2015
党の	-2016
名古屋	-2017
でもある	-2018
もあった	-2019
ちら	-2020
番号	-2021
達成	-2022
分野	-2023
を決	-2024
料理	-2025
ミン	-2026
金を	-2027
市場	-2028
ていたが	-2029
の子	-2030
56	-2031
くれ	-2032
自ら	-2033
無い	-2034
中学校	-2035
エー	-2036
判断	-2037
▁日本	-2038
やり	-2039
公演	-2040
の長	-2041
現代	-2042
建て	-2043
IN	-2044
バック	-2045
クル	-2046
相当	-2047
台湾	-2048
セット	-2049
(20	-2050
と称	-2051
実現	-2052
観光	-2053
formula	-2054
一つ	-2055
死亡	-2056
からも	-2057
創設	-2058
かれている	-2059
(19	-2060
提案	-2061
せん	-2062
ピュー	-2063
ソ連	-2064
57	-2065
記述	-2066
ec	-2067
um	-2068
オス	-2069
を生	-2070
失敗	-2071
神社	-2072
障害	-2073
バート	-2074
みな	-2075
実験	-2076
ようになり	-2077
めている	-2078
th	-2079
)3	-2080
報道	-2081
なければならない	-2082
集団	-2083
オリジ	-2084
。――	-2085
ールズ	-2086
らし	-2087
を迎	-2088
ON	-2089
トレ	-2090
氏の	-2091
衛門	-2092
に帰	-2093
くと	-2094
独自	-2095
好き	-2096
しなかった	-2097
事は	-2098
に応	-2099
連載	-2100
白い	-2101
ネス	-2102
と思う	-2103
.0	-2104
体制	-2105
作家	-2106
を訪	-2107
区間	-2108
59	-2109
54	-2110
すな	-2111
スキー	-2112
▁K	-2113
やって	-2114
プロジェクト	-2115
ごろ	-2116
(15	-2117
されていない	-2118
を送	-2119
バッ	-2120
を起こ	-2121
面に	-2122
2000	-2123
フォン	-2124
込んだ	-2125
とされている	-2126
防衛	-2127
▁the	-2128
父親	-2129
会の	-2130
派の	-2131
語の	-2132
誕生	-2133
オフ	-2134
してきた	-2135
コース	-2136
名が	-2137
日まで	-2138
ir	-2139
の中心	-2140
を通じて	-2141
長は	-2142
つき	-2143
形の	-2144
を解	-2145
グリ	-2146
意見	-2147
植物	-2148
戦の	-2149
リアム	-2150
ゴン	-2151
可能な	-2152
▁その後	-2153
を超	-2154
制御	-2155
はず	-2156
▁3	-2157
メージ	-2158
さんは	-2159
すぎ	-2160
父の	-2161
SS	-2162
ことになる	-2163
51	-2164
ケル	-2165
法の	-2166
ッション	-2167
に位置	-2168
ジョージ	-2169
ストン	-2170
した後	-2171
反応	-2172
ロンドン	-2173
息子	-2174
男性	-2175
既に	-2176
制限	-2177
段階	-2178
すで	-2179
ブランド	-2180
こうした	-2181
ギャ	-2182
人と	-2183
ゼン	-2184
手の	-2185
パラ	-2186
名前	-2187
取締役	-2188
次郎	-2189
投票	-2190
が多い	-2191
、"	-2192
組合	-2193
グラン	-2194
困難	-2195
、17	-2196
継続	-2197
に一	-2198
JR	-2199
イングランド	-2200
52	-2201
、9	-2202
処理	-2203
動き	-2204
九州	-2205
id	-2206
改正	-2207
到着	-2208
かし	-2209
二十	-2210
クリー	-2211
置き	-2212
カラ	-2213
設け	-2214
家は	-2215
込む	-2216
さを	-2217
▁s	-2218
のもの	-2219
共産	-2220
参照	-2221
っていたが	-2222
出て	-2223
リック	-2224
ワイ	-2225
貴族	-2226
することは	-2227
定義	-2228
きっ	-2229
と語	-2230
地下	-2231
福岡	-2232
したもの	-2233
かれる	-2234
▁1	-2235
ag	-2236
im	-2237
シル	-2238
飛び	-2239
付き	-2240
次第	-2241
すべき	-2242
複数の	-2243
が大	-2244
主要	-2245
ボン	-2246
かく	-2247
先生	-2248
更に	-2249
エイ	-2250
ニュ	-2251
太陽	-2252
同盟	-2253
アド	-2254
The	-2255
者として	-2256
ワード	-2257
エネル	-2258
ットの	-2259
ニック	-2260
オランダ	-2261
業務	-2262
53	-2263
三郎	-2264
史上	-2265
イー	-2266
商業	-2267
ネー	-2268
フォル	-2269
em	-2270
るが	-2271
ロス	-2272
太平洋	-2273
(16	-2274
理事	-2275
範囲	-2276
デイ	-2277
ビン	-2278
首相	-2279
皇帝	-2280
を利用	-2281
たと	-2282
以後	-2283
多数	-2284
商品	-2285
建物	-2286
押し	-2287
ボル	-2288
理解	-2289
を卒業	-2290
力は	-2291
研究所	-2292
海外	-2293
命令	-2294
ストー	-2295
年ぶ	-2296
ずに	-2297
チュー	-2298
形態	-2299
一部	-2300
すべての	-2301
継承	-2302
▁km	-2303
が行われ	-2304
参戦	-2305
述の	-2306
。3	-2307
ステージ	-2308
を占	-2309
図書館	-2310
を下	-2311
思想	-2312
結成	-2313
コンピュー	-2314
機構	-2315
▁d	-2316
紀元	-2317
フォード	-2318
カナダ	-2319
式の	-2320
観測	-2321
改革	-2322
ざる	-2323
兵衛	-2324
王国	-2325
)4	-2326
くな	-2327
わち	-2328
宣言	-2329
このような	-2330
禁止	-2331
の上に	-2332
まと	-2333
掛け	-2334
パス	-2335
イギリスの	-2336
ることが	-2337
地で	-2338
米国	-2339
ub	-2340
代目	-2341
を失	-2342
つまり	-2343
ヴァン	-2344
読み	-2345
キロ	-2346
合わせて	-2347
停止	-2348
王座	-2349
〳〵	-2350
を抱	-2351
オール	-2352
HK	-2353
少ない	-2354
リエ	-2355
店舗	-2356
軌道	-2357
しくは	-2358
▁196	-2359
すなわち	-2360
文書	-2361
減少	-2362
しは	-2363
ポイント	-2364
コミ	-2365
しばしば	-2366
スケ	-2367
を加	-2368
記載	-2369
なくなった	-2370
、、	-2371
の高	-2372
-1	-2373
治療	-2374
ウィリアム	-2375
たび	-2376
しみ	-2377
ようになる	-2378
第二次世界大戦	-2379
塁打	-2380
機械	-2381
訓練	-2382
ut	-2383
対立	-2384
レベル	-2385
メラ	-2386
医療	-2387
全ての	-2388
メイ	-2389
地は	-2390
昇格	-2391
デジ	-2392
すでに	-2393
ニコ	-2394
の小	-2395
場で	-2396
の本	-2397
登場する	-2398
テスト	-2399
を獲得した	-2400
資料	-2401
しました	-2402
関東	-2403
共通	-2404
メーカー	-2405
量の	-2406
々と	-2407
一度	-2408
年頃	-2409
県の	-2410
チャンピ	-2411
SA	-2412
他に	-2413
交渉	-2414
化学	-2415
を見て	-2416
同じく	-2417
)・	-2418
軍が	-2419
おらず	-2420
得点	-2421
をはじめ	-2422
oc	-2423
お前	-2424
幕府	-2425
クー	-2426
これに	-2427
できなかった	-2428
ひとつ	-2429
フィリ	-2430
ビデオ	-2431
しまい	-2432
生まれた	-2433
を採用	-2434
▁c	-2435
ルは	-2436
住宅	-2437
にする	-2438
一人	-2439
回の	-2440
一部の	-2441
行われ	-2442
最大の	-2443
シティ	-2444
が発	-2445
ホー	-2446
傾向	-2447
トリック	-2448
俳優	-2449
を収	-2450
新たに	-2451
に所属	-2452
リティ	-2453
復活	-2454
放送された	-2455
ヒット	-2456
ールは	-2457
教師	-2458
も知	-2459
方に	-2460
が存在	-2461
ありません	-2462
刊行	-2463
が多く	-2464
彼らは	-2465
に入り	-2466
作用	-2467
ための	-2468
団の	-2469
ざま	-2470
わない	-2471
ia	-2472
手に	-2473
オーストラ	-2474
供給	-2475
ほどの	-2476
ナム	-2477
ユダ	-2478
上げた	-2479
すぐに	-2480
っぱ	-2481
原作	-2482
主人公	-2483
賞を受賞	-2484
周囲	-2485
、12	-2486
されていたが	-2487
ay	-2488
理学	-2489
人間の	-2490
しているが	-2491
者である	-2492
られており	-2493
ミュージック	-2494
ッセ	-2495
に出演	-2496
▁p	-2497
きっかけ	-2498
を進	-2499
ドリ	-2500
電子	-2501
BA	-2502
これにより	-2503
機会	-2504
ul	-2505
危険	-2506
いま	-2507
開業	-2508
ヒト	-2509
面積	-2510
なもの	-2511
開幕	-2512
オーストラリア	-2513
逮捕	-2514
欧州	-2515
を聞	-2516
工事	-2517
ウェア	-2518
系列	-2519
いった	-2520
▁U	-2521
レギュ	-2522
認識	-2523
ヘル	-2524
始めた	-2525
させて	-2526
彼女の	-2527
プル	-2528
世は	-2529
第三	-2530
ウェイ	-2531
殺害	-2532
ガス	-2533
続けた	-2534
試み	-2535
にあたる	-2536
検討	-2537
確保	-2538
強化	-2539
西洋	-2540
農業	-2541
インタ	-2542
したのは	-2543
ポリ	-2544
を設立	-2545
ならず	-2546
イスラ	-2547
村の	-2548
AM	-2549
領域	-2550
。1	-2551
ならば	-2552
結局	-2553
スラ	-2554
必ず	-2555
競走	-2556
繰り返	-2557
リーン	-2558
近代	-2559
申し	-2560
大学院	-2561
プログラム	-2562
どんな	-2563
にわた	-2564
かかわらず	-2565
ソー	-2566
を再	-2567
でない	-2568
古い	-2569
ap	-2570
っていない	-2571
交換	-2572
日は	-2573
基準	-2574
含まれ	-2575
感染	-2576
東北	-2577
軍を	-2578
らを	-2579
の研究	-2580
チャンピオン	-2581
ホテル	-2582
主演	-2583
ポーランド	-2584
このため	-2585
電車	-2586
ポール	-2587
不足	-2588
ニュース	-2589
ザン	-2590
300	-2591
ユダヤ	-2592
部を	-2593
リーの	-2594
戦では	-2595
以下の	-2596
知られている	-2597
母親	-2598
えられ	-2599
AC	-2600
拠点	-2601
士の	-2602
ツィ	-2603
づけ	-2604
年より	-2605
OS	-2606
に敗	-2607
しが	-2608
なども	-2609
エア	-2610
保存	-2611
れていた	-2612
スタート	-2613
にもかかわらず	-2614
スピ	-2615
▁6	-2616
推定	-2617
概念	-2618
フランスの	-2619
の発	-2620
特殊	-2621
接続	-2622
準備	-2623
博物	-2624
連盟	-2625
エネルギー	-2626
対策	-2627
NHK	-2628
▁大	-2629
推進	-2630
遺伝	-2631
用いられる	-2632
なかつた	-2633
ダウン	-2634
だけでなく	-2635
クリス	-2636
デュ	-2637
員が	-2638
紀元前	-2639
うちに	-2640
いずれも	-2641
トラック	-2642
込んで	-2643
生徒	-2644
エンジ	-2645
朝日	-2646
あれ	-2647
千葉	-2648
▁なお	-2649
に変	-2650
価値	-2651
などは	-2652
ベルク	-2653
ところが	-2654
権利	-2655
言う	-2656
緒に	-2657
(17	-2658
?」	-2659
手紙	-2660
海岸	-2661
▁本	-2662
に対応	-2663
イメージ	-2664
言い	-2665
ストリア	-2666
性能	-2667
沖縄	-2668
に取り	-2669
OR	-2670
に乗	-2671
部長	-2672
国道	-2673
ションの	-2674
首都	-2675
つく	-2676
丁目	-2677
たが	-2678
グル	-2679
歳で	-2680
良い	-2681
を発表	-2682
となっていた	-2683
と考えられている	-2684
を務める	-2685
においても	-2686
クラス	-2687
本塁打	-2688
権を	-2689
惑星	-2690
深い	-2691
オリジナル	-2692
五郎	-2693
さんの	-2694
階級	-2695
はり	-2696
を学	-2697
速度	-2698
IS	-2699
じゃない	-2700
県立	-2701
注意	-2702
売り	-2703
メル	-2704
行われる	-2705
低い	-2706
を記録した	-2707
知ら	-2708
交流	-2709
に着	-2710
リーは	-2711
することができる	-2712
op	-2713
1.	-2714
大きい	-2715
オペ	-2716
きて	-2717
▁ア	-2718
はや	-2719
ずつ	-2720
ミア	-2721
展示	-2722
面の	-2723
イズ	-2724
こととなった	-2725
ノル	-2726
価格	-2727
ございます	-2728
期待	-2729
後も	-2730
予選	-2731
員の	-2732
議論	-2733
先発	-2734
優秀	-2735
えられる	-2736
を取得	-2737
の外	-2738
登板	-2739
を行っている	-2740
ポジ	-2741
広が	-2742
指名	-2743
ってきた	-2744
逃げ	-2745
位に	-2746
99	-2747
土地	-2748
彼が	-2749
セス	-2750
異なり	-2751
起用	-2752
したという	-2753
しも	-2754
神戸	-2755
当て	-2756
ほん	-2757
取引	-2758
ers	-2759
スタイル	-2760
を重	-2761
ルート	-2762
任務	-2763
屋の	-2764
ラの	-2765
らかに	-2766
レギュラー	-2767
ドン	-2768
子に	-2769
地震	-2770
少女	-2771
を開始した	-2772
あと	-2773
日付	-2774
防御	-2775
くら	-2776
をしている	-2777
つも	-2778
否定	-2779
がい	-2780
EC	-2781
機に	-2782
っき	-2783
が入	-2784
事務所	-2785
製の	-2786
og	-2787
ちな	-2788
王の	-2789
ウクライ	-2790
を投	-2791
ばれた	-2792
著作	-2793
マイル	-2794
ソロ	-2795
は無	-2796
受賞	-2797
に住	-2798
結合	-2799
と述べている	-2800
ウクライナ	-2801
を図	-2802
スタッ	-2803
しき	-2804
その他の	-2805
、)	-2806
家庭	-2807
▁お	-2808
が設置	-2809
之助	-2810
やうに	-2811
であつた	-2812
レンジ	-2813
立場	-2814
心を	-2815
計算	-2816
があ	-2817
コーチ	-2818
するもの	-2819
がな	-2820
どうか	-2821
コミュ	-2822
ショー	-2823
許可	-2824
としていた	-2825
nd	-2826
憲法	-2827
マリ	-2828
物質	-2829
撤退	-2830
植民	-2831
が主	-2832
プライ	-2833
ニャ	-2834
ミング	-2835
朝の	-2836
期に	-2837
やうな	-2838
めていた	-2839
0.	-2840
富士	-2841
隊の	-2842
大陸	-2843
普及	-2844
原子	-2845
を得た	-2846
初め	-2847
延長	-2848
カイ	-2849
かない	-2850
能力	-2851
クション	-2852
古代	-2853
脚本	-2854
か月	-2855
シャン	-2856
ウイル	-2857
エリ	-2858
75	-2859
論文	-2860
空間	-2861
いわゆる	-2862
当時は	-2863
作品の	-2864
AA	-2865
たく	-2866
フィン	-2867
ねて	-2868
コル	-2869
任した	-2870
すと	-2871
更新	-2872
執筆	-2873
ブン	-2874
ごとに	-2875
ルイ	-2876
に至る	-2877
レオ	-2878
デジタル	-2879
ドイツの	-2880
さが	-2881
名誉	-2882
建造	-2883
平和	-2884
完全に	-2885
けない	-2886
スコット	-2887
の意	-2888
ノン	-2889
資金	-2890
比較的	-2891
ごと	-2892
背景	-2893
しに	-2894
依頼	-2895
振り	-2896
道の	-2897
されると	-2898
コンピュータ	-2899
神経	-2900
メダル	-2901
▁4	-2902
年にかけて	-2903
になっていた	-2904
実に	-2905
ッカ	-2906
kg	-2907
最終的に	-2908
健康	-2909
ことである	-2910
連絡	-2911
毎日	-2912
多数の	-2913
パル	-2914
統治	-2915
▁St	-2916
もしくは	-2917
際には	-2918
したと	-2919
ブロ	-2920
っとも	-2921
AP	-2922
、(	-2923
操作	-2924
毎年	-2925
分析	-2926
博物館	-2927
、11	-2928
コミュニ	-2929
いくつかの	-2930
。......	-2931
ショナル	-2932
勤務	-2933
関西	-2934
に近い	-2935
長官	-2936
に達	-2937
、16	-2938
替え	-2939
男の	-2940
2007	-2941
中継	-2942
実行	-2943
南部	-2944
規模な	-2945
を意味	-2946
▁第	-2947
唯一の	-2948
イエ	-2949
マク	-2950
ピアノ	-2951
書いた	-2952
ゴー	-2953
の新	-2954
限り	-2955
現役	-2956
初期の	-2957
と言う	-2958
続いて	-2959
ランキング	-2960
みの	-2961
線を	-2962
が残	-2963
ゼル	-2964
ベルト	-2965
チー	-2966
設立された	-2967
広い	-2968
日本語	-2969
を集	-2970
2008	-2971
』、『	-2972
プロデューサー	-2973
ard	-2974
長く	-2975
さまざま	-2976
マラ	-2977
みに	-2978
ときに	-2979
田は	-2980
率いる	-2981
者も	-2982
まって	-2983
さは	-2984
旅行	-2985
フは	-2986
所在	-2987
消費	-2988
週間	-2989
向上	-2990
と同様に	-2991
解散	-2992
つと	-2993
しばらく	-2994
現象	-2995
師団	-2996
りが	-2997
ブレー	-2998
シーン	-2999
メジャー	-3000
すが	-3001
区別	-3002
拒否	-3003
実際に	-3004
へ向	-3005
アカデ	-3006
かれて	-3007
分類	-3008
パーク	-3009
化された	-3010
マリア	-3011
侵攻	-3012
ならぬ	-3013
中止	-3014
を奪	-3015
合い	-3016
ヴァー	-3017
日本では	-3018
民主党	-3019
▁を	-3020
族の	-3021
気の	-3022
レット	-3023
弁護	-3024
St	-3025
リズム	-3026
目標	-3027
の結果	-3028
くなった	-3029
そこに	-3030
回転	-3031
学科	-3032
承認	-3033
するための	-3034
つてゐる	-3035
多かった	-3036
最後に	-3037
2010	-3038
当選	-3039
見た	-3040
クター	-3041
えていた	-3042
エト	-3043
興味	-3044
の三	-3045
市立	-3046
性格	-3047
事に	-3048
したこと	-3049
ムの	-3050
と呼ぶ	-3051
を追	-3052
ちょ	-3053
を示す	-3054
レッド	-3055
アント	-3056
ロール	-3057
とされた	-3058
で行われた	-3059
76	-3060
エレ	-3061
人も	-3062
人である	-3063
の場合	-3064
活動を	-3065
分離	-3066
後には	-3067
同社	-3068
が起こ	-3069
可能である	-3070
の内	-3071
オーストリア	-3072
悪い	-3073
ce	-3074
2009	-3075
ak	-3076
キリスト教	-3077
コーナー	-3078
挑戦	-3079
単に	-3080
められ	-3081
。4	-3082
リード	-3083
ことが多い	-3084
率は	-3085
あるが	-3086
作成	-3087
定期	-3088
ab	-3089
家に	-3090
途中	-3091
を搭載	-3092
捨て	-3093
中華	-3094
ov	-3095
必要がある	-3096
に入った	-3097
家が	-3098
手が	-3099
一つの	-3100
ロイ	-3101
TV	-3102
かって	-3103
を守	-3104
を主	-3105
ネットワーク	-3106
カール	-3107
ては	-3108
ウィン	-3109
-0	-3110
ツェ	-3111
ッサ	-3112
88	-3113
に合	-3114
帰国	-3115
改造	-3116
2006	-3117
-6	-3118
その後は	-3119
フの	-3120
VD	-3121
田の	-3122
ークス	-3123
立つ	-3124
と名	-3125
テク	-3126
回復	-3127
エド	-3128
左右	-3129
2)	-3130
?」「	-3131
を実施	-3132
ズは	-3133
コール	-3134
ie	-3135
点で	-3136
GP	-3137
これら	-3138
検査	-3139
に大	-3140
反乱	-3141
女優	-3142
裁判所	-3143
チェン	-3144
道を	-3145
練習	-3146
を演	-3147
シナ	-3148
▁17	-3149
の国	-3150
でしょう	-3151
知識	-3152
りは	-3153
ミル	-3154
制定	-3155
を離	-3156
僕は	-3157
改善	-3158
詳細	-3159
調整	-3160
を保	-3161
希望	-3162
を放	-3163
190	-3164
ロット	-3165
駆逐	-3166
いと	-3167
さに	-3168
ミサ	-3169
相互	-3170
適用	-3171
一郎	-3172
機器	-3173
までも	-3174
低下	-3175
こともあり	-3176
TO	-3177
明らか	-3178
南北	-3179
CM	-3180
とも呼ば	-3181
様な	-3182
ワシ	-3183
視聴	-3184
シュタ	-3185
ヶ月	-3186
ティン	-3187
98	-3188
犯罪	-3189
その他	-3190
金の	-3191
AS	-3192
明らかに	-3193
金属	-3194
アリ	-3195
作品は	-3196
絵画	-3197
に通	-3198
従来の	-3199
ラスト	-3200
」。	-3201
かん	-3202
の名前	-3203
含まれる	-3204
フォルニア	-3205
と改	-3206
そういう	-3207
崩壊	-3208
ペル	-3209
司令官	-3210
その後も	-3211
代わりに	-3212
についての	-3213
基礎	-3214
を達成	-3215
と結婚	-3216
ったり	-3217
生命	-3218
衆議	-3219
▁b	-3220
会員	-3221
スキ	-3222
顔を	-3223
していく	-3224
録音	-3225
を見た	-3226
温泉	-3227
りて	-3228
ていく	-3229
支払	-3230
に渡	-3231
を提	-3232
披露	-3233
(1	-3234
深く	-3235
次第に	-3236
けれども	-3237
それでも	-3238
!』	-3239
本当	-3240
月号	-3241
可能性がある	-3242
地上	-3243
突き	-3244
改良	-3245
美しい	-3246
av	-3247
カリフォルニア	-3248
65	-3249
くれた	-3250
差し	-3251
っかり	-3252
判決	-3253
やすい	-3254
カメラ	-3255
ユニット	-3256
リート	-3257
カタ	-3258
さんが	-3259
に残	-3260
徳川	-3261
みんな	-3262
64	-3263
なっている	-3264
クの	-3265
っち	-3266
容易	-3267
専用	-3268
翌年	-3269
新潟	-3270
などと	-3271
68	-3272
フジ	-3273
資格	-3274
々は	-3275
負傷	-3276
EN	-3277
置く	-3278
メキシ	-3279
地域の	-3280
本格	-3281
現実	-3282
大型	-3283
1000	-3284
ブラジ	-3285
最初に	-3286
次いで	-3287
身を	-3288
ハウス	-3289
)1	-3290
部が	-3291
周年	-3292
ここで	-3293
側は	-3294
過程	-3295
77	-3296
元の	-3297
うえ	-3298
▁and	-3299
事情	-3300
歩兵	-3301
されない	-3302
抵抗	-3303
ブルー	-3304
スティー	-3305
ゆく	-3306
施行	-3307
行って	-3308
らなかった	-3309
半島	-3310
についても	-3311
貿易	-3312
決して	-3313
スウェー	-3314
アウト	-3315
医師	-3316
ベイ	-3317
進出	-3318
まえ	-3319
感情	-3320
木の	-3321
ものであった	-3322
青年	-3323
長崎	-3324
ind	-3325
燃料	-3326
サイド	-3327
初頭	-3328
状の	-3329
に貢献	-3330
じられた	-3331
処分	-3332
巻き	-3333
ートの	-3334
男子	-3335
フィールド	-3336
信仰	-3337
事態	-3338
単位	-3339
合計	-3340
場に	-3341
アメリカ合衆国の	-3342
称は	-3343
解釈	-3344
中には	-3345
ティスト	-3346
62	-3347
積極	-3348
PC	-3349
サラ	-3350
山口	-3351
修道	-3352
作の	-3353
解放	-3354
であることを	-3355
ねば	-3356
を終	-3357
全日本	-3358
ボード	-3359
2011	-3360
の出	-3361
がその	-3362
流行	-3363
にあ	-3364
一時	-3365
ポルト	-3366
78	-3367
You	-3368
批評	-3369
かえ	-3370
ケース	-3371
さまざまな	-3372
を着	-3373
発言	-3374
極めて	-3375
ドー	-3376
ねた	-3377
やる	-3378
ダイヤ	-3379
イルランド	-3380
市街	-3381
設備	-3382
学園	-3383
民間	-3384
認定	-3385
スマ	-3386
ウッド	-3387
出来る	-3388
らしく	-3389
諸島	-3390
95	-3391
仕様	-3392
メキシコ	-3393
▁に	-3394
知事	-3395
過ご	-3396
使われる	-3397
フェン	-3398
コント	-3399
明した	-3400
総選挙	-3401
ニン	-3402
まれて	-3403
令和	-3404
est	-3405
頃から	-3406
ブラン	-3407
画家	-3408
がこの	-3409
外の	-3410
方針	-3411
末に	-3412
潜水	-3413
声が	-3414
のちに	-3415
陸上	-3416
どの	-3417
を買	-3418
それぞれの	-3419
連隊	-3420
ハウ	-3421
おそ	-3422
数を	-3423
貨物	-3424
彼らの	-3425
ゲスト	-3426
確立	-3427
を目指	-3428
ります	-3429
続いた	-3430
に就任した	-3431
ソング	-3432
証拠	-3433
を立て	-3434
先に	-3435
球団	-3436
考える	-3437
務省	-3438
2012	-3439
ガイ	-3440
量は	-3441
をし	-3442
やく	-3443
エジ	-3444
固定	-3445
ターン	-3446
インタビュー	-3447
収入	-3448
知り	-3449
が起	-3450
2005	-3451
タウン	-3452
おう	-3453
規制	-3454
、2010	-3455
度が	-3456
するよう	-3457
を始め	-3458
相談	-3459
ドロ	-3460
エピ	-3461
。5	-3462
テキ	-3463
線が	-3464
に成功	-3465
もと	-3466
前半	-3467
カレ	-3468
コス	-3469
命名	-3470
自身が	-3471
とされ	-3472
スル	-3473
ブロック	-3474
単独	-3475
に留	-3476
私が	-3477
の世界	-3478
小さい	-3479
)2	-3480
政府は	-3481
保険	-3482
公共	-3483
拡張	-3484
強制	-3485
上記	-3486
の不	-3487
静岡	-3488
本社	-3489
ヒー	-3490
たない	-3491
セー	-3492
しかも	-3493
屋敷	-3494
香港	-3495
機が	-3496
ヴァイ	-3497
公開された	-3498
は何	-3499
機を	-3500
の死	-3501
行う	-3502
きに	-3503
仙台	-3504
となっており	-3505
ine	-3506
車は	-3507
が現	-3508
記憶	-3509
心の	-3510
を得て	-3511
テイ	-3512
ホル	-3513
チームの	-3514
されているが	-3515
伝説	-3516
院の	-3517
課程	-3518
シュー	-3519
と同時に	-3520
軍に	-3521
ナイト	-3522
ところで	-3523
年代に	-3524
見られる	-3525
63	-3526
別に	-3527
多くは	-3528
作られた	-3529
戦後	-3530
ブラック	-3531
IT	-3532
占領	-3533
インターネット	-3534
指示	-3535
億円	-3536
性質	-3537
400	-3538
を提供	-3539
武器	-3540
阪神	-3541
、15	-3542
同様に	-3543
89	-3544
自らの	-3545
ill	-3546
美術館	-3547
やや	-3548
審査	-3549
が開始	-3550
なって	-3551
ハード	-3552
アッ	-3553
収容	-3554
西部	-3555
パク	-3556
やはり	-3557
を与える	-3558
語で	-3559
日より	-3560
月まで	-3561
シカ	-3562
のもと	-3563
ソビ	-3564
コンサ	-3565
からである	-3566
できず	-3567
以降の	-3568
からなる	-3569
-2	-3570
けれど	-3571
AL	-3572
と考えられる	-3573
働き	-3574
度目の	-3575
ゲル	-3576
は不	-3577
を結ぶ	-3578
投手	-3579
二人の	-3580
それで	-3581
▁in	-3582
にあり	-3583
▁で	-3584
カトリック	-3585
ポジション	-3586
ドライ	-3587
遺跡	-3588
分け	-3589
調べ	-3590
隣接	-3591
がなく	-3592
の両	-3593
さない	-3594
自分が	-3595
を用いて	-3596
執行	-3597
市長	-3598
。7	-3599
必要な	-3600
特定の	-3601
に任命	-3602
%、	-3603
移転	-3604
局の	-3605
マド	-3606
およそ	-3607
ナショナル	-3608
US	-3609
思議	-3610
会社の	-3611
以前の	-3612
曜日	-3613
度も	-3614
あらゆる	-3615
くなる	-3616
独自の	-3617
上げる	-3618
で開催された	-3619
ベト	-3620
フェル	-3621
を与えた	-3622
複雑	-3623
アム	-3624
交差	-3625
地帯	-3626
でした	-3627
アイルランド	-3628
愛知	-3629
入れた	-3630
加入	-3631
▁、	-3632
父は	-3633
ッキー	-3634
PS	-3635
2020	-3636
ガラ	-3637
ist	-3638
ヘッド	-3639
考えた	-3640
始め	-3641
児童	-3642
分に	-3643
96	-3644
捜査	-3645
義務	-3646
。8	-3647
ちょう	-3648
演出	-3649
を退	-3650
▁()	-3651
を探	-3652
RO	-3653
スに	-3654
DVD	-3655
就任	-3656
。17	-3657
合成	-3658
鎌倉	-3659
かなり	-3660
兵器	-3661
を得る	-3662
曲の	-3663
。10	-3664
兵士	-3665
2014	-3666
解決	-3667
ヤン	-3668
IV	-3669
)7	-3670
に於	-3671
秘密	-3672
川県	-3673
にまで	-3674
ツァ	-3675
リュー	-3676
72	-3677
機は	-3678
の水	-3679
北部	-3680
エリア	-3681
寺の	-3682
ケーション	-3683
投資	-3684
することになった	-3685
.2	-3686
法を	-3687
酸化	-3688
2013	-3689
時代には	-3690
三十	-3691
フィー	-3692
ID	-3693
信号	-3694
世代	-3695
2015	-3696
要請	-3697
日本人	-3698
ついた	-3699
で構成	-3700
テロ	-3701
伸び	-3702
ナの	-3703
類の	-3704
ターの	-3705
サンド	-3706
かす	-3707
児島	-3708
約束	-3709
奈良	-3710
記事	-3711
インディ	-3712
HE	-3713
lt	-3714
原則	-3715
中は	-3716
カラー	-3717
ティブ	-3718
明る	-3719
衝突	-3720
を結成	-3721
使用される	-3722
つけた	-3723
アス	-3724
モリ	-3725
氏は	-3726
ベー	-3727
姿を	-3728
方を	-3729
が不	-3730
ソビエト	-3731
ct	-3732
▁一	-3733
複数	-3734
」)	-3735
動画	-3736
戦略	-3737
のであった	-3738
化し	-3739
、2008	-3740
体に	-3741
61	-3742
正確	-3743
.1	-3744
に入る	-3745
翻訳	-3746
フランク	-3747
在籍	-3748
アーティスト	-3749
んと	-3750
医学	-3751
十字	-3752
ジュニア	-3753
スリ	-3754
大使	-3755
わずか	-3756
特定	-3757
通算	-3758
使用された	-3759
の二	-3760
民国	-3761
:00	-3762
福島	-3763
ムー	-3764
エジプト	-3765
チャート	-3766
証明	-3767
。6	-3768
を破	-3769
金融	-3770
哲学	-3771
ne	-3772
スミ	-3773
ミネ	-3774
に関しては	-3775
作品を	-3776
なぜ	-3777
注目	-3778
電力	-3779
いち	-3780
気を	-3781
チームは	-3782
シック	-3783
と評	-3784
▁de	-3785
有名な	-3786
したものの	-3787
85	-3788
)10	-3789
だけの	-3790
ッキ	-3791
外交	-3792
バージョン	-3793
具体	-3794
仲間	-3795
の先	-3796
2004	-3797
エスト	-3798
モスク	-3799
長野	-3800
▁f	-3801
番組の	-3802
ではなかった	-3803
チャンネル	-3804
ストーリー	-3805
財政	-3806
付けた	-3807
風の	-3808
ess	-3809
なんだ	-3810
)5	-3811
RE	-3812
スと	-3813
の開発	-3814
であるため	-3815
2016	-3816
神奈	-3817
かが	-3818
ていった	-3819
話を	-3820
伊勢	-3821
連れて	-3822
します	-3823
けん	-3824
に由来	-3825
区の	-3826
ものと	-3827
モード	-3828
ネイ	-3829
星の	-3830
が行われる	-3831
サウ	-3832
それらの	-3833
とり	-3834
アレ	-3835
利益	-3836
となったが	-3837
▁。	-3838
を形成	-3839
-3	-3840
)12	-3841
86	-3842
旅客	-3843
付けられた	-3844
興行	-3845
世界の	-3846
、2007	-3847
ソード	-3848
、2009	-3849
構想	-3850
、2006	-3851
政府の	-3852
発見された	-3853
、2012	-3854
セイ	-3855
出た	-3856
は全	-3857
▁5	-3858
その結果	-3859
ラテン	-3860
めぐ	-3861
実は	-3862
と主張	-3863
の生	-3864
この時	-3865
ビジ	-3866
カバー	-3867
らと	-3868
のほか	-3869
右衛門	-3870
eb	-3871
の娘	-3872
.3	-3873
一番	-3874
の間に	-3875
と思われる	-3876
を上	-3877
広告	-3878
らぬ	-3879
者と	-3880
AD	-3881
ok	-3882
の元	-3883
97	-3884
ph	-3885
かりの	-3886
程度の	-3887
▁In	-3888
の日	-3889
仕事を	-3890
に終わった	-3891
張り	-3892
らに	-3893
の中には	-3894
レコー	-3895
プラン	-3896
レート	-3897
規則	-3898
見える	-3899
ていて	-3900
アイドル	-3901
アカデミー	-3902
見る	-3903
キャリア	-3904
ハリ	-3905
...	-3906
スタッフ	-3907
アリー	-3908
続ける	-3909
を用いた	-3910
いつも	-3911
ずる	-3912
シップ	-3913
するも	-3914
監督の	-3915
)6	-3916
古墳	-3917
編入	-3918
があるが	-3919
所で	-3920
のではないか	-3921
半ば	-3922
の最	-3923
、2011	-3924
びに	-3925
ながらも	-3926
はお	-3927
居住	-3928
フランシ	-3929
時期に	-3930
決勝で	-3931
資本	-3932
戦を	-3933
(「	-3934
くれる	-3935
鹿児島	-3936
、190	-3937
有力	-3938
東部	-3939
プレイヤー	-3940
面を	-3941
。12	-3942
入れる	-3943
オーディ	-3944
試合に出場	-3945
ロボ	-3946
諸国	-3947
2018	-3948
に上	-3949
せい	-3950
っていった	-3951
......」	-3952
プリン	-3953
ht	-3954
に基づく	-3955
に似	-3956
用意	-3957
共産党	-3958
ミサイル	-3959
吹き	-3960
2019	-3961
ソンは	-3962
)8	-3963
れの	-3964
2017	-3965
シリア	-3966
勢力	-3967
再生	-3968
区域	-3969
は同	-3970
と云う	-3971
有効	-3972
突然	-3973
輸入	-3974
ギリシャ	-3975
現在では	-3976
るところ	-3977
ヴェル	-3978
昇進	-3979
栽培	-3980
ice	-3981
アレク	-3982
って来た	-3983
万人	-3984
構築	-3985
あたり	-3986
屋根	-3987
を通して	-3988
さと	-3989
本部	-3990
物が	-3991
講師	-3992
ヒュー	-3993
と述べた	-3994
コンサート	-3995
札幌	-3996
学院	-3997
解説	-3998
達は	-3999
走行	-4000
夜の	-4001
をもたら	-4002
リュ	-4003
年齢	-4004
を引	-4005
国王	-4006
基地	-4007
逆に	-4008
声を	-4009
▁2010	-4010
。2010	-4011
ぢや	-4012
信頼	-4013
楽器	-4014
出され	-4015
シーズンは	-4016
本作の	-4017
ああ	-4018
することも	-4019
アマ	-4020
世紀の	-4021
で最も	-4022
1990	-4023
▁formula	-4024
に引き	-4025
りました	-4026
、2000	-4027
LE	-4028
に指定	-4029
吸収	-4030
オーバー	-4031
スペース	-4032
もしれない	-4033
点は	-4034
をな	-4035
を負	-4036
キュー	-4037
歌手	-4038
CO	-4039
ob	-4040
水の	-4041
らす	-4042
同様	-4043
扱い	-4044
車が	-4045
ダブル	-4046
によっては	-4047
形状	-4048
手段	-4049
曲を	-4050
類似	-4051
したことで	-4052
と並	-4053
予備	-4054
市内	-4055
ウェル	-4056
▁7	-4057
を設置	-4058
こうして	-4059
頭の	-4060
きょう	-4061
らせ	-4062
▁10	-4063
アシ	-4064
長期	-4065
ファミ	-4066
かつては	-4067
負け	-4068
したい	-4069
デス	-4070
モンド	-4071
用語	-4072
するか	-4073
スイ	-4074
がいる	-4075
MS	-4076
自宅	-4077
気に	-4078
閉鎖	-4079
を担	-4080
性は	-4081
もまた	-4082
場合には	-4083
レッ	-4084
混乱	-4085
鈴木	-4086
などがある	-4087
ものだ	-4088
92	-4089
埼玉	-4090
通称	-4091
通常の	-4092
物は	-4093
かけた	-4094
新設	-4095
大学で	-4096
売却	-4097
サポート	-4098
印象	-4099
していった	-4100
ハル	-4101
予想	-4102
神の	-4103
云った	-4104
サウンド	-4105
爆発	-4106
集合	-4107
その後の	-4108
の一人	-4109
田中	-4110
)9	-4111
しん	-4112
従来	-4113
方は	-4114
ウント	-4115
.7	-4116
活用	-4117
護衛	-4118
を持っている	-4119
に際	-4120
間は	-4121
おか	-4122
サス	-4123
ッピ	-4124
頃に	-4125
場を	-4126
材料	-4127
十二	-4128
集中	-4129
歌詞	-4130
に反	-4131
められる	-4132
君は	-4133
線は	-4134
わから	-4135
音が	-4136
もち	-4137
持つ	-4138
車を	-4139
ip	-4140
。9	-4141
の山	-4142
業界	-4143
まして	-4144
が高	-4145
サブ	-4146
一般に	-4147
象徴	-4148
、――	-4149
武蔵	-4150
保守	-4151
隊は	-4152
ッケ	-4153
を越	-4154
ブー	-4155
国境	-4156
不思議	-4157
年からは	-4158
ストロ	-4159
を意味する	-4160
遠征	-4161
ティア	-4162
が無	-4163
古く	-4164
消滅	-4165
英国	-4166
ジャック	-4167
登場した	-4168
69	-4169
明確	-4170
下で	-4171
タンパク	-4172
出される	-4173
ワールドカップ	-4174
藩主	-4175
が可能	-4176
ハム	-4177
ギター	-4178
同様の	-4179
ポル	-4180
男は	-4181
ヴィル	-4182
▁w	-4183
戦い	-4184
に加え	-4185
ハンガ	-4186
始まり	-4187
植民地	-4188
▁2011	-4189
東西	-4190
たとえば	-4191
食品	-4192
取得	-4193
観客	-4194
名で	-4195
は前	-4196
べく	-4197
67	-4198
2,	-4199
中国の	-4200
兵庫	-4201
の北	-4202
アプリ	-4203
▁2012	-4204
思う	-4205
武装	-4206
のマ	-4207
カロ	-4208
トレー	-4209
ヤマ	-4210
実際には	-4211
▁2016	-4212
守備	-4213
発生した	-4214
UN	-4215
投げ	-4216
本作は	-4217
のメンバー	-4218
うる	-4219
を見る	-4220
)11	-4221
ジャパン	-4222
が存在する	-4223
モノ	-4224
コンビ	-4225
半分	-4226
組み合わせ	-4227
しょ	-4228
依存	-4229
正式に	-4230
んに	-4231
締結	-4232
ティック	-4233
仏教	-4234
判定	-4235
グロ	-4236
ワシントン	-4237
政党	-4238
沿岸	-4239
ものであり	-4240
▁2020	-4241
打率	-4242
ell	-4243
スタント	-4244
でなく	-4245
本は	-4246
を見せ	-4247
が付	-4248
ヒル	-4249
笑い	-4250
グランプリ	-4251
ていなかった	-4252
学会	-4253
を踏	-4254
包囲	-4255
姿勢	-4256
予算	-4257
に入学	-4258
とお	-4259
ジェイ	-4260
比べて	-4261
▁2018	-4262
やら	-4263
古典	-4264
平方	-4265
87	-4266
にいた	-4267
位は	-4268
所は	-4269
アナウン	-4270
向けの	-4271
められている	-4272
国鉄	-4273
絶対	-4274
協定	-4275
くだ	-4276
放射	-4277
襲撃	-4278
月より	-4279
藤原	-4280
を持った	-4281
▁16	-4282
でもあった	-4283
▁v	-4284
高度	-4285
合う	-4286
みた	-4287
art	-4288
リコ	-4289
のまま	-4290
してしまう	-4291
そのような	-4292
バーグ	-4293
リアン	-4294
を求める	-4295
を作り	-4296
を持って	-4297
▁2017	-4298
を備	-4299
扱う	-4300
それまで	-4301
、2013	-4302
トルコ	-4303
タンパク質	-4304
TBS	-4305
、2014	-4306
新型	-4307
▁前	-4308
聞き	-4309
エピソード	-4310
死んだ	-4311
ベルリン	-4312
gt	-4313
に陥	-4314
書の	-4315
記者	-4316
ウォー	-4317
▁2013	-4318
に位置する	-4319
がる	-4320
も含	-4321
爆撃	-4322
助け	-4323
の名称	-4324
の神	-4325
共演	-4326
は日本	-4327
心配	-4328
、2005	-4329
話題	-4330
しつつ	-4331
カット	-4332
しむ	-4333
これらは	-4334
ジェーム	-4335
を使って	-4336
▁2014	-4337
奴隷	-4338
年以降	-4339
を始めた	-4340
滞在	-4341
えに	-4342
ホン	-4343
に移籍	-4344
二人	-4345
MA	-4346
に寄	-4347
▁2015	-4348
両親	-4349
東海	-4350
遺産	-4351
であって	-4352
向き	-4353
法は	-4354
点の	-4355
午後	-4356
時代は	-4357
化する	-4358
月場所	-4359
2003	-4360
創業	-4361
衛星	-4362
66	-4363
集落	-4364
バレ	-4365
ベトナム	-4366
個の	-4367
if	-4368
連の	-4369
女は	-4370
されなかった	-4371
伯爵	-4372
観察	-4373
自衛	-4374
されるが	-4375
は約	-4376
考へ	-4377
ワイト	-4378
を大	-4379
線で	-4380
版の	-4381
そうな	-4382
93	-4383
ひど	-4384
これまで	-4385
73	-4386
行の	-4387
▁2008	-4388
フォーム	-4389
まあ	-4390
激しい	-4391
というのは	-4392
吉田	-4393
小型	-4394
公表	-4395
ラは	-4396
止め	-4397
むしろ	-4398
ik	-4399
トンネル	-4400
で敗	-4401
まち	-4402
のだが	-4403
身の	-4404
ant	-4405
コロン	-4406
ことにより	-4407
夫婦	-4408
装甲	-4409
を選	-4410
▁2009	-4411
みられる	-4412
決定した	-4413
流の	-4414
、2016	-4415
母の	-4416
政治家	-4417
94	-4418
.8	-4419
わが	-4420
で優勝	-4421
社会主義	-4422
全米	-4423
グリーン	-4424
補助	-4425
と同じく	-4426
、2015	-4427
ナス	-4428
ソフトウェア	-4429
大阪府	-4430
佐藤	-4431
ましたが	-4432
と思った	-4433
ET	-4434
モーター	-4435
。)	-4436
が増	-4437
再建	-4438
でもない	-4439
するようになった	-4440
年と	-4441
プロレス	-4442
体験	-4443
なので	-4444
レコーディング	-4445
云う	-4446
オート	-4447
万ドル	-4448
クール	-4449
継いだ	-4450
ロケット	-4451
ロバート	-4452
育成	-4453
ウェブ	-4454
に到着	-4455
東洋	-4456
主催	-4457
もっとも	-4458
場面	-4459
措置	-4460
ジョー	-4461
レーベル	-4462
機動	-4463
に向けて	-4464
スウェーデン	-4465
場合もある	-4466
映画の	-4467
であれば	-4468
参謀	-4469
長さ	-4470
を描いた	-4471
を変	-4472
)、『	-4473
見ると	-4474
境界	-4475
やかな	-4476
クロス	-4477
に属する	-4478
▁2019	-4479
位で	-4480
費用	-4481
郵便	-4482
考えて	-4483
活性	-4484
目は	-4485
おお	-4486
all	-4487
ファイル	-4488
という意味	-4489
▁2007	-4490
話し	-4491
合意	-4492
。11	-4493
.4	-4494
芸能	-4495
ロサン	-4496
コメント	-4497
たちに	-4498
っては	-4499
フィルム	-4500
2021	-4501
71	-4502
少なくとも	-4503
建設された	-4504
描写	-4505
世に	-4506
を果たす	-4507
、2020	-4508
何も	-4509
qu	-4510
ドア	-4511
下さい	-4512
(『	-4513
徐々に	-4514
コマ	-4515
点から	-4516
をしていた	-4517
の代	-4518
海上	-4519
ソナ	-4520
学習	-4521
黒い	-4522
ということ	-4523
を渡	-4524
画像	-4525
150	-4526
部分は	-4527
を打	-4528
伊藤	-4529
伝え	-4530
世が	-4531
近づ	-4532
このとき	-4533
員は	-4534
を命	-4535
規格	-4536
リリースされた	-4537
に沿	-4538
おそらく	-4539
完了	-4540
年生	-4541
ニス	-4542
学校の	-4543
74	-4544
台の	-4545
体育	-4546
務めた	-4547
を除く	-4548
テナ	-4549
岡山	-4550
を開催	-4551
物理	-4552
考慮	-4553
じている	-4554
で一	-4555
演劇	-4556
単純	-4557
に影響	-4558
繰り	-4559
総督	-4560
あん	-4561
の方が	-4562
秋田	-4563
であることが	-4564
ットは	-4565
見て	-4566
使い	-4567
時計	-4568
午前	-4569
最後	-4570
財産	-4571
ここに	-4572
のことを	-4573
マスター	-4574
であります	-4575
違反	-4576
小林	-4577
マッチ	-4578
するのは	-4579
▁8	-4580
ナチ	-4581
つける	-4582
分布	-4583
家を	-4584
的で	-4585
赤い	-4586
リーダー	-4587
案内	-4588
の下で	-4589
付ける	-4590
キア	-4591
自転	-4592
レスト	-4593
だい	-4594
後述	-4595
言った	-4596
。2008	-4597
なき	-4598
短い	-4599
ブラジル	-4600
法が	-4601
かと	-4602
ひろ	-4603
前後	-4604
送り	-4605
動作	-4606
で放送	-4607
全体の	-4608
91	-4609
修正	-4610
結び	-4611
込まれた	-4612
合流	-4613
三菱	-4614
再開	-4615
二人は	-4616
ボク	-4617
本来	-4618
2001	-4619
SP	-4620
わざ	-4621
割り	-4622
。2009	-4623
満た	-4624
取った	-4625
授与	-4626
城の	-4627
ページ	-4628
1980	-4629
潜水艦	-4630
自殺	-4631
を与え	-4632
ive	-4633
アメリカン	-4634
ge	-4635
上昇	-4636
分割	-4637
姉妹	-4638
次に	-4639
大規模な	-4640
国会	-4641
管轄	-4642
を兼	-4643
推測	-4644
目で	-4645
まるで	-4646
。2007	-4647
UE	-4648
ごく	-4649
ウイルス	-4650
サム	-4651
曲は	-4652
海の	-4653
と呼ばれ	-4654
ジアム	-4655
化の	-4656
局長	-4657
はなく	-4658
内部	-4659
ev	-4660
いき	-4661
著名	-4662
と対戦	-4663
測定	-4664
時代から	-4665
をう	-4666
車体	-4667
作り	-4668
最多	-4669
到達	-4670
近年	-4671
▁2021	-4672
と呼ばれた	-4673
レント	-4674
年間の	-4675
相撲	-4676
くに	-4677
刑事	-4678
82	-4679
震災	-4680
委員長	-4681
かも知	-4682
を作る	-4683
石の	-4684
証言	-4685
ねる	-4686
を指す	-4687
コロナ	-4688
ows	-4689
てた	-4690
非難	-4691
ハッ	-4692
衆議院議員	-4693
帝国の	-4694
ローズ	-4695
フジテレビ	-4696
ギリシア	-4697
81	-4698
抗議	-4699
であるという	-4700
に仕	-4701
。2011	-4702
をリリース	-4703
議長	-4704
ついて	-4705
83	-4706
してお	-4707
職業	-4708
口を	-4709
デモ	-4710
改修	-4711
を招	-4712
声優	-4713
ストの	-4714
自治体	-4715
わって	-4716
、2019	-4717
クは	-4718
意図	-4719
込まれ	-4720
ran	-4721
がお	-4722
加盟	-4723
ユーザー	-4724
イスラエル	-4725
シリーズの	-4726
停車	-4727
せられた	-4728
コレク	-4729
駆逐艦	-4730
、2017	-4731
メディ	-4732
以て	-4733
そのうち	-4734
頭に	-4735
しかった	-4736
、2018	-4737
戦車	-4738
に従事	-4739
.6	-4740
われていた	-4741
2002	-4742
天文	-4743
村は	-4744
▁Ch	-4745
同時	-4746
事件の	-4747
手で	-4748
文献	-4749
水を	-4750
士官	-4751
開発された	-4752
84	-4753
ズが	-4754
投入	-4755
駆け	-4756
ちに	-4757
社が	-4758
ルール	-4759
ブレーキ	-4760
BO	-4761
を殺	-4762
後期	-4763
表面	-4764
もとも	-4765
セプト	-4766
との関係	-4767
ホワイト	-4768
唯一	-4769
KO	-4770
がり	-4771
空気	-4772
日本で	-4773
......。	-4774
著書	-4775
プロ野球	-4776
に参加した	-4777
中学	-4778
盛り	-4779
言及	-4780
の戦い	-4781
へ移	-4782
差別	-4783
モスクワ	-4784
の中から	-4785
五十	-4786
ックの	-4787
ブライ	-4788
弁護士	-4789
行する	-4790
一般的な	-4791
FI	-4792
交代	-4793
見解	-4794
買収	-4795
次ぐ	-4796
訴訟	-4797
名義	-4798
▁2022	-4799
したがって	-4800
すら	-4801
リーグの	-4802
グロー	-4803
先の	-4804
アミ	-4805
かは	-4806
市に	-4807
接触	-4808
▁a	-4809
心に	-4810
領土	-4811
ならなかった	-4812
えず	-4813
書籍	-4814
熊本	-4815
馬の	-4816
降り	-4817
模様	-4818
スペシャル	-4819
率が	-4820
量が	-4821
上げて	-4822
和歌	-4823
ードの	-4824
需要	-4825
地が	-4826
達の	-4827
』、	-4828
けば	-4829
みを	-4830
しようと	-4831
整理	-4832
に伴う	-4833
ラグ	-4834
故障	-4835
北京	-4836
に分類	-4837
戦に	-4838
臨時	-4839
ランク	-4840
。190	-4841
しかしながら	-4842
秀吉	-4843
離れた	-4844
書かれた	-4845
室の	-4846
フィル	-4847
描かれている	-4848
してしまった	-4849
この頃	-4850
が成立	-4851
年連続	-4852
ダンス	-4853
戦死	-4854
東日本	-4855
だという	-4856
ウィル	-4857
世界選手権	-4858
を無	-4859
トム	-4860
発射	-4861
印刷	-4862
暗殺	-4863
いない	-4864
じめ	-4865
死去した	-4866
かせ	-4867
挙げられる	-4868
船の	-4869
のに対し	-4870
、1990	-4871
地方の	-4872
深夜	-4873
統計	-4874
のみで	-4875
実際の	-4876
出する	-4877
不安	-4878
作詞	-4879
弟子	-4880
指導者	-4881
行した	-4882
ホイ	-4883
の原	-4884
の花	-4885
緊急	-4886
マネ	-4887
病気	-4888
を発表した	-4889
(2	-4890
の女	-4891
ようと	-4892
を強	-4893
オペラ	-4894
▁2006	-4895
推薦	-4896
そうして	-4897
を流	-4898
申請	-4899
といい	-4900
シート	-4901
フット	-4902
をもつ	-4903
防止	-4904
ヘンリー	-4905
年代の	-4906
てる	-4907
に乗り	-4908
そば	-4909
をた	-4910
テム	-4911
時点では	-4912
置いて	-4913
とも呼ばれる	-4914
かかる	-4915
チュア	-4916
書いて	-4917
へ出	-4918
競争	-4919
ud	-4920
促進	-4921
一人の	-4922
高さ	-4923
モンゴル	-4924
リアル	-4925
現在も	-4926
として活動	-4927
されるようになった	-4928
よろ	-4929
操縦	-4930
山田	-4931
財団	-4932
ゼルス	-4933
の存在	-4934
彼を	-4935
などから	-4936
実質	-4937
起源	-4938
子と	-4939
天然	-4940
用に	-4941
ity	-4942
Ch	-4943
所を	-4944
とても	-4945
タリー	-4946
へ入	-4947
マンの	-4948
したことを	-4949
つい	-4950
てて	-4951
と語っている	-4952
非常	-4953
前から	-4954
ML	-4955
▁n	-4956
2022	-4957
を続け	-4958
引き続き	-4959
エフ	-4960
連携	-4961
。2014	-4962
ソンの	-4963
適切	-4964
するように	-4965
っきり	-4966
という言葉	-4967
取材	-4968
警備	-4969
画面	-4970
力で	-4971
ほかに	-4972
マニ	-4973
ントリー	-4974
をは	-4975
年で	-4976
連れ	-4977
違う	-4978
顧問	-4979
気候	-4980
ウト	-4981
感じた	-4982
南西	-4983
日本国	-4984
男が	-4985
自民	-4986
たちを	-4987
を築	-4988
『』	-4989
相続	-4990
にとど	-4991
pp	-4992
なに	-4993
。2012	-4994
戦争の	-4995
79	-4996
母は	-4997
マッ	-4998
町村	-4999
だつた	-5000
ログ	-5001
と大	-5002
を辞	-5003
アクション	-5004
抜け	-5005
店の	-5006
援助	-5007
そこから	-5008
フライ	-5009
様式	-5010
に加えて	-5011
ort	-5012
スコットランド	-5013
基本的に	-5014
かなか	-5015
られなかった	-5016
、2004	-5017
点が	-5018
600	-5019
ate	-5020
イオン	-5021
川崎	-5022
ヴァル	-5023
。2006	-5024
さる	-5025
主な	-5026
気づ	-5027
。16	-5028
メッセ	-5029
待ち	-5030
1970	-5031
ましょう	-5032
In	-5033
IP	-5034
しさ	-5035
監視	-5036
800	-5037
ニッ	-5038
っぽ	-5039
ろん	-5040
既存	-5041
犠牲	-5042
が下	-5043
エク	-5044
プス	-5045
急行	-5046
即位	-5047
教皇	-5048
放送の	-5049
ドライバー	-5050
会場	-5051
殺人	-5052
ネーム	-5053
。2013	-5054
事の	-5055
平次	-5056
防御率	-5057
始まった	-5058
あげ	-5059
かを	-5060
上は	-5061
を参照	-5062
東京大学	-5063
SC	-5064
っていく	-5065
で大	-5066
石油	-5067
的である	-5068
眼を	-5069
発足	-5070
出来ない	-5071
創立	-5072
資源	-5073
種類の	-5074
。2016	-5075
二つの	-5076
リヒ	-5077
ビジネス	-5078
フォーク	-5079
ハンガリー	-5080
に基づいて	-5081
よし	-5082
のみならず	-5083
不動	-5084
代理	-5085
居た	-5086
▁12	-5087
を超える	-5088
を用いる	-5089
ケイ	-5090
得る	-5091
降伏	-5092
時間の	-5093
初回	-5094
演技	-5095
コラ	-5096
同月	-5097
ラント	-5098
ラブ	-5099
友人	-5100
誘導	-5101
上映	-5102
急速	-5103
生涯	-5104
復興	-5105
おれ	-5106
各種	-5107
口の	-5108
県道	-5109
▁三	-5110
地元の	-5111
に配	-5112
後継	-5113
まく	-5114
本線	-5115
の中でも	-5116
夏の	-5117
毎週	-5118
左衛門	-5119
年代後半	-5120
コミュニティ	-5121
のだった	-5122
パフォー	-5123
最近	-5124
つけて	-5125
研究科	-5126
そも	-5127
とを	-5128
週刊	-5129
パワー	-5130
みると	-5131
ッター	-5132
だって	-5133
番目の	-5134
携帯	-5135
書を	-5136
者で	-5137
離脱	-5138
indows	-5139
創刊	-5140
置き換	-5141
特急	-5142
女性の	-5143
知られ	-5144
将来	-5145
態度	-5146
想像	-5147
使用されている	-5148
遠く	-5149
ノース	-5150
に同	-5151
が担当	-5152
フィア	-5153
議席	-5154
our	-5155
から出	-5156
政治的	-5157
こな	-5158
分子	-5159
他にも	-5160
安打	-5161
評論	-5162
を打ち	-5163
いました	-5164
モア	-5165
を支持	-5166
中村	-5167
になつて	-5168
立った	-5169
に応じて	-5170
川は	-5171
どうして	-5172
に対しては	-5173
公認	-5174
清水	-5175
イラスト	-5176
、2021	-5177
本拠	-5178
経緯	-5179
。2015	-5180
WA	-5181
人工	-5182
っくり	-5183
se	-5184
天正	-5185
者や	-5186
試合に	-5187
転換	-5188
試合で	-5189
なくなる	-5190
イスラム	-5191
免許	-5192
当初の	-5193
を経由	-5194
会見	-5195
ライダー	-5196
夫の	-5197
負担	-5198
ロシアの	-5199
エス	-5200
化を	-5201
ナルド	-5202
とが	-5203
新宿	-5204
譲渡	-5205
フー	-5206
コミック	-5207
海軍の	-5208
GM	-5209
状態で	-5210
こち	-5211
久保	-5212
事で	-5213
共有	-5214
妙な	-5215
ばかりの	-5216
らん	-5217
今の	-5218
文明	-5219
活躍した	-5220
定着	-5221
に基づき	-5222
........	-5223
君の	-5224
国防	-5225
追放	-5226
交響	-5227
優れた	-5228
グランド	-5229
保障	-5230
掛けた	-5231
風景	-5232
科大学	-5233
フリ	-5234
いたが	-5235
くなり	-5236
明け	-5237
が設け	-5238
山は	-5239
書記	-5240
プレミア	-5241
であったため	-5242
だけは	-5243
の際に	-5244
学的	-5245
ヴィン	-5246
長が	-5247
メートルの	-5248
タク	-5249
ha	-5250
いふ	-5251
命を	-5252
の木	-5253
ッと	-5254
TR	-5255
捕虜	-5256
開発した	-5257
を有する	-5258
▁2005	-5259
打撃	-5260
街道	-5261
疑問	-5262
ポンド	-5263
積極的に	-5264
首を	-5265
で初	-5266
リチャ	-5267
収録されている	-5268
処刑	-5269
ものに	-5270
ディズ	-5271
岐阜	-5272
▁一方	-5273
の問題	-5274
を発見	-5275
▁小	-5276
に関連	-5277
の下に	-5278
道具	-5279
ミリ	-5280
又は	-5281
プロダ	-5282
わっている	-5283
損傷	-5284
時から	-5285
デンマーク	-5286
ールが	-5287
城県	-5288
スポン	-5289
回る	-5290
ベット	-5291
かもしれない	-5292
ッタ	-5293
様子	-5294
職員	-5295
山本	-5296
確定	-5297
Tub	-5298
。2019	-5299
io	-5300
標高	-5301
AI	-5302
優先	-5303
場合に	-5304
侵入	-5305
北朝鮮	-5306
功績	-5307
が終	-5308
メロ	-5309
バード	-5310
主題	-5311
外に	-5312
急に	-5313
想定	-5314
投稿	-5315
足を	-5316
の中央	-5317
まったく	-5318
芝居	-5319
前述の	-5320
ですから	-5321
ドーム	-5322
文化財	-5323
。2018	-5324
号は	-5325
いろいろ	-5326
こともあった	-5327
郡の	-5328
ポスト	-5329
移民	-5330
時間が	-5331
ポルトガル	-5332
まつ	-5333
幹線	-5334
年後の	-5335
、13	-5336
を使う	-5337
ちょっと	-5338
BM	-5339
故郷	-5340
インチ	-5341
チャールズ	-5342
武田	-5343
に相当	-5344
合同	-5345
の歴史	-5346
が決	-5347
を出した	-5348
と一緒に	-5349
勃発	-5350
信じ	-5351
しては	-5352
にしても	-5353
例の	-5354
にとっては	-5355
コスト	-5356
課題	-5357
行して	-5358
新人	-5359
ian	-5360
ハンド	-5361
。2017	-5362
の全	-5363
(3	-5364
、14	-5365
▁/	-5366
山脈	-5367
がった	-5368
チーフ	-5369
強力	-5370
少将	-5371
抜き	-5372
損害	-5373
戦隊	-5374
end	-5375
ロサンゼルス	-5376
-4	-5377
を基	-5378
マニア	-5379
国は	-5380
にし	-5381
相違	-5382
継が	-5383
の意味	-5384
の対象	-5385
入れて	-5386
ガンダム	-5387
ドラフト	-5388
提携	-5389
テッド	-5390
シーズンの	-5391
スポ	-5392
することとなった	-5393
学術	-5394
間もなく	-5395
根拠	-5396
テレビドラマ	-5397
天皇の	-5398
されてきた	-5399
FL	-5400
手術	-5401
を飾	-5402
文庫	-5403
流域	-5404
、2003	-5405
▁("	-5406
ースの	-5407
人類	-5408
が実施	-5409
進行	-5410
ロング	-5411
自分は	-5412
コンセプト	-5413
これも	-5414
シカゴ	-5415
んの	-5416
及ぶ	-5417
たま	-5418
為に	-5419
賞を受賞した	-5420
。2005	-5421
、1980	-5422
官の	-5423
ワイン	-5424
きました	-5425
気持	-5426
クイ	-5427
っていて	-5428
工学	-5429
鉄道の	-5430
完成した	-5431
が認め	-5432
するまで	-5433
参加した	-5434
判明	-5435
司教	-5436
同一	-5437
男女	-5438
もっと	-5439
互いに	-5440
を目指す	-5441
江戸時代	-5442
ふと	-5443
富山	-5444
河川	-5445
バレー	-5446
輸出	-5447
かず	-5448
松本	-5449
ラリー	-5450
を率	-5451
体重	-5452
えると	-5453
開通	-5454
最優秀	-5455
頭を	-5456
へ帰	-5457
農民	-5458
くて	-5459
現存	-5460
が高い	-5461
流通	-5462
とも言	-5463
ヤル	-5464
軍団	-5465
ディスク	-5466
人として	-5467
、2022	-5468
死ぬ	-5469
▁15	-5470
)』	-5471
▁マ	-5472
いえ	-5473
の色	-5474
戦艦	-5475
電動	-5476
ry	-5477
休止	-5478
如く	-5479
司法	-5480
死刑	-5481
稲田	-5482
チル	-5483
如何	-5484
複合	-5485
主の	-5486
に代	-5487
在学	-5488
日常	-5489
騎士	-5490
東映	-5491
以前は	-5492
社会的	-5493
側面	-5494
国に	-5495
をつけ	-5496
マンは	-5497
チア	-5498
が行われている	-5499
っしゃ	-5500
バーン	-5501
んだが	-5502
一般的に	-5503
時間を	-5504
空軍	-5505
子供の	-5506
こういう	-5507
を展開	-5508
守護	-5509
資産	-5510
フランシスコ	-5511
に過ぎ	-5512
当該	-5513
館の	-5514
▁2000	-5515
参議	-5516
だよ	-5517
号の	-5518
焼き	-5519
路を	-5520
ast	-5521
声で	-5522
宣伝	-5523
クトル	-5524
妻の	-5525
を持っていた	-5526
日曜	-5527
の一種	-5528
教会の	-5529
気持ち	-5530
カム	-5531
中でも	-5532
直後に	-5533
マイクロ	-5534
浴び	-5535
ビッグ	-5536
ですか	-5537
ロゴ	-5538
分解	-5539
ディス	-5540
▁2023	-5541
のと	-5542
そうに	-5543
されたため	-5544
ib	-5545
効率	-5546
まっている	-5547
要因	-5548
の音	-5549
主要な	-5550
ようとする	-5551
パフォーマン	-5552
スパイ	-5553
ないが	-5554
年の第	-5555
ゲー	-5556
高橋	-5557
パイロット	-5558
CP	-5559
かどうか	-5560
の中では	-5561
ことや	-5562
テイン	-5563
を出す	-5564
避難	-5565
回目の	-5566
ることを	-5567
を目的	-5568
かして	-5569
アナウンサー	-5570
ミッド	-5571
四郎	-5572
YouTub	-5573
所が	-5574
内には	-5575
未来	-5576
現代の	-5577
ストリート	-5578
として知られる	-5579
書く	-5580
▁mm	-5581
診断	-5582
ジェームズ	-5583
採用された	-5584
探偵	-5585
ラーの	-5586
劇団	-5587
イラン	-5588
どれ	-5589
修了	-5590
福祉	-5591
と記	-5592
を歴	-5593
事例	-5594
枚の	-5595
1999	-5596
うた	-5597
に先	-5598
災害	-5599
ラーは	-5600
を維持	-5601
どうも	-5602
ノイ	-5603
を繰り返	-5604
異常	-5605
ものだった	-5606
会で	-5607
弟の	-5608
再度	-5609
示す	-5610
スタジアム	-5611
成果	-5612
ばれ	-5613
の前に	-5614
契約を結	-5615
連覇	-5616
機体	-5617
風に	-5618
月末	-5619
残り	-5620
プロイ	-5621
ナメント	-5622
主義の	-5623
巡洋	-5624
火災	-5625
の中の	-5626
を代表	-5627
ss	-5628
炭素	-5629
オンライン	-5630
無理	-5631
per	-5632
等は	-5633
誰も	-5634
SU	-5635
彫刻	-5636
180	-5637
立候補	-5638
ew	-5639
テネ	-5640
フィック	-5641
分裂	-5642
アニメーション	-5643
ルイス	-5644
。2020	-5645
▁&	-5646
▁l	-5647
▁g	-5648
が悪	-5649
圧倒	-5650
クラシック	-5651
当局	-5652
ジェン	-5653
、1970	-5654
方で	-5655
ステークス	-5656
示唆	-5657
騎兵	-5658
今日の	-5659
入学	-5660
戦は	-5661
級の	-5662
メッセージ	-5663
爆弾	-5664
積み	-5665
上野	-5666
MP	-5667
ロウ	-5668
走り	-5669
ライセン	-5670
ビット	-5671
伝承	-5672
専攻	-5673
ことの	-5674
ジャズ	-5675
を切	-5676
ナポ	-5677
ついに	-5678
途中で	-5679
出力	-5680
▁元	-5681
を導入	-5682
リット	-5683
を記録し	-5684
2023	-5685
不満	-5686
修理	-5687
ect	-5688
種は	-5689
レオン	-5690
開設	-5691
にその	-5692
を行っていた	-5693
千代	-5694
連結	-5695
の一環	-5696
を受けている	-5697
ぶん	-5698
当然	-5699
理想	-5700
マシン	-5701
ほとんどの	-5702
心理	-5703
みたい	-5704
際の	-5705
ーンズ	-5706
に至った	-5707
員として	-5708
下げ	-5709
感覚	-5710
だか	-5711
大和	-5712
部品	-5713
に使	-5714
▁9	-5715
加藤	-5716
大将	-5717
質の	-5718
南東	-5719
見え	-5720
しを	-5721
モデ	-5722
身体	-5723
が見られる	-5724
ふる	-5725
アは	-5726
都合	-5727
もん	-5728
社は	-5729
達が	-5730
くい	-5731
その時	-5732
であっても	-5733
マグ	-5734
日付で	-5735
に復帰	-5736
ジャンプ	-5737
八幡	-5738
勉強	-5739
小田	-5740
と同様	-5741
に出て	-5742
ディズニー	-5743
近郊	-5744
当たり	-5745
敗北	-5746
暴力	-5747
解体	-5748
買い	-5749
バンク	-5750
突破	-5751
リンク	-5752
が始まった	-5753
ジット	-5754
暗い	-5755
に反対	-5756
バッハ	-5757
自身も	-5758
ミス	-5759
現地	-5760
▁190	-5761
数字	-5762
路の	-5763
選挙区	-5764
終了した	-5765
含まれている	-5766
オフィ	-5767
▁そして	-5768
往復	-5769
人生	-5770
北西	-5771
役の	-5772
につなが	-5773
ox	-5774
lu	-5775
レル	-5776
接近	-5777
経由	-5778
と比較	-5779
内容は	-5780
エンター	-5781
宮崎	-5782
ソニー	-5783
を引き起こ	-5784
をや	-5785
連勝	-5786
1998	-5787
上位	-5788
多様	-5789
期は	-5790
TA	-5791
期には	-5792
マイケル	-5793
町に	-5794
かわ	-5795
に入って	-5796
を名	-5797
ナは	-5798
最終的には	-5799
回り	-5800
人から	-5801
馬鹿	-5802
したものである	-5803
スプ	-5804
イェ	-5805
▁私は	-5806
を通過	-5807
体系	-5808
聞いた	-5809
が出て	-5810
教え	-5811
間を	-5812
したことが	-5813
奉行	-5814
スイス	-5815
キャンプ	-5816
あく	-5817
症状	-5818
神話	-5819
質問	-5820
度に	-5821
モル	-5822
父が	-5823
個体	-5824
リスク	-5825
を巡	-5826
ヒロ	-5827
防ぐ	-5828
▁――	-5829
どちら	-5830
MI	-5831
土曜	-5832
寺院	-5833
といって	-5834
隊が	-5835
で初めて	-5836
はる	-5837
中世	-5838
怪我	-5839
自身は	-5840
を迎えた	-5841
訪問	-5842
文章	-5843
端に	-5844
あい	-5845
の主要	-5846
ッセル	-5847
趣味	-5848
収録された	-5849
DS	-5850
養子	-5851
氏が	-5852
にわたって	-5853
メール	-5854
危機	-5855
蒸気	-5856
エティ	-5857
学問	-5858
起き	-5859
卒業後	-5860
との間に	-5861
アート	-5862
クロー	-5863
取る	-5864
新規	-5865
250	-5866
に行	-5867
吉は	-5868
かした	-5869
を抑	-5870
ゲイ	-5871
大佐	-5872
市は	-5873
難しい	-5874
ではあるが	-5875
で出	-5876
上陸	-5877
能力を	-5878
の方へ	-5879
心が	-5880
独立した	-5881
も行	-5882
▁彼は	-5883
、2002	-5884
日に行われた	-5885
対抗	-5886
フィリップ	-5887
早稲田	-5888
ようやく	-5889
"(	-5890
だけが	-5891
ドラゴン	-5892
つもり	-5893
戦う	-5894
家康	-5895
▁2024	-5896
思ひ	-5897
駆動	-5898
wit	-5899
厳しい	-5900
周辺の	-5901
は第	-5902
良く	-5903
かね	-5904
が加	-5905
に向かう	-5906
キロメートル	-5907
働く	-5908
最低	-5909
結論	-5910
装飾	-5911
巨大な	-5912
.9	-5913
保有	-5914
ピエ	-5915
例外	-5916
恐れ	-5917
ネシア	-5918
相手に	-5919
HO	-5920
ガリ	-5921
今度は	-5922
を見ると	-5923
取って	-5924
ちょうど	-5925
バスケット	-5926
カテ	-5927
現場	-5928
があったが	-5929
しようとする	-5930
を呼び	-5931
を担当した	-5932
(13	-5933
たった	-5934
は不明	-5935
ユーロ	-5936
寄せ	-5937
消防	-5938
ジャイ	-5939
センチ	-5940
リチャード	-5941
幅に	-5942
恐怖	-5943
権限	-5944
引っ	-5945
次元	-5946
NS	-5947
タッグ	-5948
立って	-5949
に入ると	-5950
場合がある	-5951
を避	-5952
ツの	-5953
入口	-5954
足利	-5955
進学	-5956
ドルフ	-5957
修道院	-5958
なかったため	-5959
面白	-5960
みが	-5961
駅の	-5962
ざるを得	-5963
を中心とした	-5964
間違	-5965
なんて	-5966
に貢献した	-5967
te	-5968
lay	-5969
忘れ	-5970
題材	-5971
ですが	-5972
を表す	-5973
シュタイン	-5974
MC	-5975
スパ	-5976
を建設	-5977
存在した	-5978
ヴィー	-5979
振興	-5980
同年の	-5981
に限	-5982
会は	-5983
ゲート	-5984
ドルの	-5985
1997	-5986
なさい	-5987
ゴルフ	-5988
リーム	-5989
紛争	-5990
の御	-5991
フィリピン	-5992
事も	-5993
語り	-5994
量を	-5995
しら	-5996
西武	-5997
分から	-5998
射撃	-5999
削減	-6000
点に	-6001
を喫	-6002
空の	-6003
第一次世界大戦	-6004
楽団	-6005
不可	-6006
を伴	-6007
の関係	-6008
神奈川県	-6009
に移り	-6010
王は	-6011
ひとり	-6012
オスマン	-6013
回避	-6014
選抜	-6015
前で	-6016
渡辺	-6017
時間は	-6018
伝統的な	-6019
の一つである	-6020
期限	-6021
ものも	-6022
。2021	-6023
通過	-6024
始める	-6025
DNA	-6026
であらう	-6027
魚雷	-6028
側が	-6029
ないし	-6030
を挙げた	-6031
パートナー	-6032
ビュ	-6033
続けて	-6034
年末	-6035
ディレク	-6036
に選出された	-6037
ES	-6038
へて	-6039
ピーター	-6040
代表取締役	-6041
全員	-6042
モント	-6043
カレッジ	-6044
余儀	-6045
▁同年	-6046
水素	-6047
ワル	-6048
「」	-6049
まん	-6050
ネタ	-6051
マネー	-6052
切れ	-6053
平安	-6054
one	-6055
置いた	-6056
IG	-6057
の同	-6058
空襲	-6059
号線	-6060
RA	-6061
保持	-6062
アクセス	-6063
に移転	-6064
の各	-6065
ザベ	-6066
歴代	-6067
疾患	-6068
▁という	-6069
リバ	-6070
こちら	-6071
上海	-6072
住居	-6073
サウス	-6074
おい	-6075
は本	-6076
エディ	-6077
労働者	-6078
1996	-6079
を果たし	-6080
。2004	-6081
のだろう	-6082
オーディション	-6083
ショップ	-6084
格闘	-6085
そこへ	-6086
用いられた	-6087
選手権大会	-6088
(14	-6089
じょう	-6090
してゐる	-6091
愛知県	-6092
、2001	-6093
生成	-6094
▁新	-6095
史料	-6096
に次ぐ	-6097
実業	-6098
話が	-6099
と指摘	-6100
ウェスト	-6101
の再	-6102
教徒	-6103
特許	-6104
説得	-6105
契約を	-6106
武士	-6107
とある	-6108
リャ	-6109
満足	-6110
プール	-6111
称号	-6112
人や	-6113
ですよ	-6114
のひとつ	-6115
がん	-6116
はなかった	-6117
創造	-6118
攻略	-6119
めると	-6120
このうち	-6121
ain	-6122
プレス	-6123
そうした	-6124
北東	-6125
プロセ	-6126
事実上	-6127
使用する	-6128
ドリヒ	-6129
無料	-6130
ボディ	-6131
独特	-6132
いたい	-6133
▁k	-6134
懸念	-6135
石川	-6136
フロント	-6137
脱退	-6138
発達	-6139
収集	-6140
日を	-6141
といわれる	-6142
1960	-6143
イタリアの	-6144
上がり	-6145
山に	-6146
年代には	-6147
。2000	-6148
スポンサー	-6149
商店	-6150
クソン	-6151
ことはない	-6152
かも	-6153
を構成	-6154
SF	-6155
振る	-6156
アイス	-6157
隣接する	-6158
やま	-6159
肖像	-6160
ときは	-6161
廃止された	-6162
科の	-6163
エルン	-6164
生まれる	-6165
割合	-6166
授業	-6167
親分	-6168
▁X	-6169
に由来する	-6170
宮廷	-6171
の重	-6172
へは	-6173
借り	-6174
子ども	-6175
パーソナ	-6176
掲載された	-6177
au	-6178
けど	-6179
ブリッジ	-6180
コレクション	-6181
パウ	-6182
亡くなった	-6183
MO	-6184
幼少	-6185
男爵	-6186
曲が	-6187
部分が	-6188
やか	-6189
作品が	-6190
地下鉄	-6191
航空機	-6192
レビュー	-6193
予測	-6194
田が	-6195
ブレイ	-6196
年間に	-6197
EL	-6198
ダニ	-6199
宮殿	-6200
るため	-6201
元に	-6202
繁殖	-6203
証券	-6204
で活動	-6205
リウス	-6206
好きな	-6207
なくなり	-6208
レム	-6209
課長	-6210
開催される	-6211
とは異なり	-6212
ぶり	-6213
春の	-6214
年代から	-6215
設置された	-6216
年も	-6217
船団	-6218
知らない	-6219
伸ば	-6220
王子	-6221
継ぎ	-6222
人々の	-6223
FM	-6224
ゾン	-6225
区分	-6226
を使った	-6227
兄の	-6228
チームが	-6229
日本代表	-6230
ウィーン	-6231
人形	-6232
解析	-6233
が与	-6234
攻め	-6235
シェル	-6236
余儀なく	-6237
が大きく	-6238
グループの	-6239
ステル	-6240
を始める	-6241
大賞	-6242
ばれる	-6243
ソウル	-6244
ポップ	-6245
▁Y	-6246
を伝	-6247
三重	-6248
請求	-6249
井上	-6250
来日	-6251
ロマン	-6252
導入された	-6253
近隣	-6254
されず	-6255
中部	-6256
恋愛	-6257
プラス	-6258
なかなか	-6259
が得	-6260
つづ	-6261
と言い	-6262
偶然	-6263
降格	-6264
巡洋艦	-6265
を残した	-6266
島は	-6267
翌日	-6268
エンド	-6269
ight	-6270
年までに	-6271
ソース	-6272
ゴールド	-6273
本土	-6274
と言った	-6275
地である	-6276
ポジションは	-6277
わけではない	-6278
まさ	-6279
二つ	-6280
マレー	-6281
▁2004	-6282
雇用	-6283
ミュン	-6284
番人気	-6285
じゃないか	-6286
々が	-6287
門の	-6288
と見な	-6289
に適	-6290
ヤード	-6291
1991	-6292
ボス	-6293
本を	-6294
略称	-6295
自分で	-6296
トーナメント	-6297
を制	-6298
ファル	-6299
年以上	-6300
リト	-6301
代わって	-6302
ジム	-6303
ソビエト連邦	-6304
世帯	-6305
王者	-6306
トーク	-6307
リンの	-6308
))	-6309
逆転	-6310
野の	-6311
額の	-6312
を攻撃	-6313
もともと	-6314
スクール	-6315
(12	-6316
ord	-6317
ジェット	-6318
何の	-6319
をつけて	-6320
カリフォルニア州	-6321
森林	-6322
キル	-6323
理由に	-6324
自転車	-6325
1995	-6326
僕の	-6327
と云ふ	-6328
ミナル	-6329
に送	-6330
スロ	-6331
道徳	-6332
ich	-6333
ックは	-6334
バラン	-6335
年ぶりに	-6336
認知	-6337
未満	-6338
それも	-6339
テキサス	-6340
橋の	-6341
省の	-6342
Windows	-6343
オリンピックの	-6344
を示した	-6345
NP	-6346
演説	-6347
黄色	-6348
わたく	-6349
川に	-6350
どころ	-6351
度を	-6352
ルトン	-6353
力発電	-6354
自民党	-6355
置かれた	-6356
▁h	-6357
竣工	-6358
近くの	-6359
に登場する	-6360
文部	-6361
に従って	-6362
受け入れ	-6363
法案	-6364
使われている	-6365
すこ	-6366
ある日	-6367
かつての	-6368
を見せた	-6369
二階	-6370
数学	-6371
相手の	-6372
物に	-6373
中将	-6374
-19	-6375
かける	-6376
三振	-6377
トライ	-6378
暮ら	-6379
今は	-6380
要塞	-6381
一帯	-6382
小屋	-6383
会った	-6384
フリードリヒ	-6385
戦時	-6386
遺伝子	-6387
海洋	-6388
創作	-6389
始まる	-6390
もちろん	-6391
してから	-6392
軍と	-6393
きたい	-6394
後から	-6395
どち	-6396
短期	-6397
ロボット	-6398
等を	-6399
同日	-6400
恐ろ	-6401
用途	-6402
アラブ	-6403
征服	-6404
の間で	-6405
世紀に	-6406
、2023	-6407
中間	-6408
国土	-6409
座席	-6410
徹底	-6411
リダ	-6412
ゼロ	-6413
町は	-6414
内では	-6415
1994	-6416
OC	-6417
過去の	-6418
ジャーナ	-6419
トヨ	-6420
直線	-6421
に進学	-6422
経過	-6423
試作	-6424
必ずしも	-6425
リの	-6426
頻繁	-6427
ライフ	-6428
オープニング	-6429
が集	-6430
クタ	-6431
ツー	-6432
祖父	-6433
大震災	-6434
会う	-6435
部で	-6436
低く	-6437
アルゼン	-6438
排除	-6439
日が	-6440
そうだ	-6441
クリア	-6442
渋谷	-6443
感謝	-6444
ert	-6445
ブーム	-6446
▁11	-6447
ガラス	-6448
5000	-6449
フィンランド	-6450
反映	-6451
完全な	-6452
ってしまった	-6453
北条	-6454
甲板	-6455
乗車	-6456
亡命	-6457
上演	-6458
リク	-6459
)、「	-6460
700	-6461
合わせた	-6462
それまでの	-6463
フレーム	-6464
さず	-6465
テレビアニメ	-6466
TT	-6467
シオ	-6468
1989	-6469
つてゐた	-6470
を組	-6471
試合の	-6472
日記	-6473
と思って	-6474
に就任し	-6475
泣き	-6476
英雄	-6477
国内の	-6478
ッピング	-6479
インディアン	-6480
チック	-6481
テインメント	-6482
気象	-6483
に昇格	-6484
メガ	-6485
ラウンド	-6486
!!	-6487
人民共和国	-6488
チェンジ	-6489
マックス	-6490
出している	-6491
参考	-6492
向けに	-6493
保安	-6494
化が	-6495
合格	-6496
暫定	-6497
信用	-6498
場は	-6499
放映	-6500
福井	-6501
中から	-6502
わかる	-6503
金は	-6504
撤去	-6505
作曲家	-6506
女が	-6507
と思い	-6508
分岐	-6509
をめぐ	-6510
受けた	-6511
王国の	-6512
魔法	-6513
と答	-6514
評判	-6515
のなか	-6516
RC	-6517
任意	-6518
幸福	-6519
まし	-6520
コア	-6521
周波	-6522
酵素	-6523
に戻り	-6524
描いた	-6525
オプ	-6526
ライター	-6527
『"	-6528
わし	-6529
二重	-6530
1992	-6531
に携	-6532
ゆう	-6533
三角	-6534
歩き	-6535
ビート	-6536
レーター	-6537
性に	-6538
素材	-6539
が流	-6540
無線	-6541
を認め	-6542
と言われる	-6543
死の	-6544
めたが	-6545
加えて	-6546
位置する	-6547
豊富	-6548
地区の	-6549
たず	-6550
存続	-6551
旦那	-6552
モニ	-6553
にいる	-6554
師の	-6555
人口は	-6556
タレント	-6557
ボイ	-6558
基盤	-6559
天井	-6560
関与	-6561
日本テレビ	-6562
合った	-6563
師事	-6564
ごとく	-6565
を描く	-6566
ブック	-6567
プロダクション	-6568
造船	-6569
とみな	-6570
の乱	-6571
▁to	-6572
上がった	-6573
に与	-6574
死亡した	-6575
のではなく	-6576
ふた	-6577
リと	-6578
旅団	-6579
以前に	-6580
本が	-6581
コンテン	-6582
電鉄	-6583
強力な	-6584
わなかった	-6585
みて	-6586
年前	-6587
コピー	-6588
ヤング	-6589
になっており	-6590
▁for	-6591
ドウ	-6592
を作成	-6593
ネン	-6594
外国人	-6595
ure	-6596
したら	-6597
ME	-6598
乗客	-6599
人種	-6600
ハイム	-6601
ハート	-6602
者から	-6603
に大きな	-6604
ぐる	-6605
成り	-6606
ハワイ	-6607
大きさ	-6608
共和国の	-6609
ang	-6610
用いる	-6611
理由で	-6612
男として	-6613
付属	-6614
日間	-6615
短縮	-6616
YouTube	-6617
単行	-6618
婦人	-6619
せよ	-6620
のよ	-6621
建立	-6622
補給	-6623
のだから	-6624
120	-6625
ドキュ	-6626
フットボール	-6627
OL	-6628
話は	-6629
-10	-6630
エンディング	-6631
悪魔	-6632
ボーイ	-6633
映画祭	-6634
ませんで	-6635
せう	-6636
航海	-6637
されること	-6638
論理	-6639
▁Com	-6640
eg	-6641
ぼく	-6642
IA	-6643
ぐら	-6644
維新	-6645
走る	-6646
埋め	-6647
無く	-6648
光の	-6649
神宮	-6650
となく	-6651
飲み	-6652
残った	-6653
此の	-6654
遊び	-6655
枚目の	-6656
ボーカル	-6657
2024	-6658
と言われている	-6659
進歩	-6660
バスの	-6661
▁〜	-6662
然として	-6663
アブ	-6664
シド	-6665
逃亡	-6666
(7	-6667
ヴォル	-6668
呼称	-6669
支那	-6670
、1999	-6671
エース	-6672
した場合	-6673
決議	-6674
わか	-6675
深刻	-6676
ウラ	-6677
外部	-6678
イラク	-6679
ix	-6680
ネマ	-6681
会が	-6682
しなければならない	-6683
従業	-6684
に対抗	-6685
やつ	-6686
キャラ	-6687
レーダー	-6688
太夫	-6689
語を	-6690
銀河	-6691
加工	-6692
ゲームの	-6693
聖書	-6694
自社	-6695
縮小	-6696
ies	-6697
聖堂	-6698
退職	-6699
オーケ	-6700
国が	-6701
ナーの	-6702
1993	-6703
通行	-6704
UEFA	-6705
応援	-6706
所蔵	-6707
高速道路	-6708
に選ばれた	-6709
われており	-6710
せずに	-6711
上記の	-6712
帝国大学	-6713
変動	-6714
民衆	-6715
コラボ	-6716
を務めていた	-6717
をひ	-6718
才能	-6719
離婚	-6720
あつた	-6721
大会の	-6722
ができる	-6723
と題	-6724
年後	-6725
らせる	-6726
同士	-6727
容疑	-6728
はまた	-6729
DA	-6730
殺された	-6731
▁2003	-6732
レンス	-6733
エリザベ	-6734
を増	-6735
動員	-6736
のリ	-6737
田村	-6738
サイズ	-6739
シンガ	-6740
例として	-6741
複雑な	-6742
カス	-6743
師匠	-6744
存在しない	-6745
を断	-6746
市内の	-6747
修復	-6748
音声	-6749
手法	-6750
ところに	-6751
になつた	-6752
、1998	-6753
コの	-6754
これから	-6755
コロンビア	-6756
az	-6757
飛ば	-6758
プラット	-6759
戦線	-6760
通りの	-6761
があって	-6762
先端	-6763
ほしい	-6764
ところへ	-6765
にかく	-6766
マルチ	-6767
スペン	-6768
残りの	-6769
とする説	-6770
数多くの	-6771
を許	-6772
に入社	-6773
兵庫県	-6774
でございます	-6775
を呼	-6776
松平	-6777
回収	-6778
漢字	-6779
激しく	-6780
▁The	-6781
に戻った	-6782
ブラウン	-6783
していると	-6784
青森	-6785
していたため	-6786
作は	-6787
独占	-6788
セミ	-6789
早い	-6790
うつ	-6791
以来の	-6792
、1960	-6793
PG	-6794
プロテ	-6795
大会で	-6796
描かれた	-6797
形は	-6798
栄養	-6799
選出	-6800
機関車	-6801
さらには	-6802
側から	-6803
化され	-6804
ッケージ	-6805
。2022	-6806
バスケットボール	-6807
原の	-6808
ガリア	-6809
に向かって	-6810
募集	-6811
の使用	-6812
1988	-6813
金曜	-6814
が開始された	-6815
のみが	-6816
記録を	-6817
▁明治	-6818
ましい	-6819
に生まれる	-6820
看護	-6821
を獲得し	-6822
TS	-6823
附属	-6824
でもあり	-6825
並べ	-6826
十分な	-6827
......」「	-6828
慶長	-6829
挨拶	-6830
本当に	-6831
が同	-6832
終盤	-6833
助教授	-6834
ようである	-6835
新型コロナ	-6836
池田	-6837
を認	-6838
合唱	-6839
くらい	-6840
ほうが	-6841
スマート	-6842
を支	-6843
後ろ	-6844
名称は	-6845
回戦で	-6846
述べている	-6847
指揮官	-6848
に当たる	-6849
パッケージ	-6850
。2003	-6851
リーが	-6852
最高の	-6853
セルビア	-6854
3,	-6855
ヨン	-6856
ラト	-6857
城を	-6858
さあ	-6859
らかの	-6860
ウルト	-6861
かれていた	-6862
目が	-6863
ファッション	-6864
前提	-6865
衝撃	-6866
(10	-6867
わせて	-6868
もあるが	-6869
CE	-6870
ah	-6871
続編	-6872
血液	-6873
駅から	-6874
エドワード	-6875
くない	-6876
方から	-6877
一切	-6878
直し	-6879
苦し	-6880
ニューアル	-6881
塗装	-6882
刺激	-6883
気温	-6884
ユース	-6885
アレクサンド	-6886
みる	-6887
装着	-6888
息子の	-6889
キャスト	-6890
討ち	-6891
あれば	-6892
よりは	-6893
を出して	-6894
エンジンの	-6895
に敗れた	-6896
▁同	-6897
代替	-6898
をはじめとする	-6899
に招	-6900
ガニ	-6901
空母	-6902
佐々	-6903
大学大学院	-6904
がいた	-6905
トヨタ	-6906
れず	-6907
ずっと	-6908
ウスの	-6909
ビジョン	-6910
ファンタ	-6911
に成功した	-6912
しようとした	-6913
なあ	-6914
カッ	-6915
セロ	-6916
マガ	-6917
メタ	-6918
の姿	-6919
版が	-6920
似た	-6921
即ち	-6922
戦闘機	-6923
改めて	-6924
オレ	-6925
ニオ	-6926
前作	-6927
ことと	-6928
署名	-6929
チェスター	-6930
を救	-6931
未だ	-6932
海峡	-6933
親王	-6934
酸素	-6935
言葉を	-6936
の正	-6937
任命	-6938
打点	-6939
の歌	-6940
の真	-6941
十五	-6942
一連の	-6943
政府が	-6944
捕ら	-6945
両編成	-6946
ものがある	-6947
することになる	-6948
移行	-6949
からだ	-6950
に参加し	-6951
覧会	-6952
はは	-6953
品の	-6954
表彰	-6955
融合	-6956
年現在	-6957
ハラ	-6958
III	-6959
テープ	-6960
クリート	-6961
化石	-6962
層の	-6963
島に	-6964
警戒	-6965
一緒に	-6966
甲子	-6967
部隊は	-6968
ベルギー	-6969
該当	-6970
ボート	-6971
埋葬	-6972
大変	-6973
ヌス	-6974
もその	-6975
スピード	-6976
幹部	-6977
の場合は	-6978
口は	-6979
に変更された	-6980
十一	-6981
太子	-6982
ens	-6983
ミック	-6984
付けて	-6985
ld	-6986
役で	-6987
面積は	-6988
ボリ	-6989
家で	-6990
考案	-6991
ru	-6992
を遂	-6993
ary	-6994
られたが	-6995
を問	-6996
心臓	-6997
遅れ	-6998
関数	-6999
つなが	-7000
開拓	-7001
を記念	-7002
▁1990	-7003
北米	-7004
聞いて	-7005
関係の	-7006
ex	-7007
司会	-7008
あんな	-7009
も多い	-7010
このように	-7011
公爵	-7012
月刊	-7013
水が	-7014
ナンバー	-7015
レストラン	-7016
女王	-7017
敵の	-7018
織田	-7019
歴史的	-7020
第二次	-7021
きは	-7022
立派	-7023
登場し	-7024
府県	-7025
去った	-7026
協議	-7027
及ぼ	-7028
欧米	-7029
を収めた	-7030
ジャケット	-7031
と言って	-7032
を失った	-7033
パーソナリティ	-7034
に伝	-7035
比例	-7036
文学部	-7037
呼吸	-7038
サッカー選手	-7039
ep	-7040
はア	-7041
勝負	-7042
編纂	-7043
ly	-7044
四国	-7045
固有	-7046
ファイナル	-7047
典型	-7048
甲斐	-7049
に移動	-7050
スロー	-7051
戦後の	-7052
すっかり	-7053
大分	-7054
ナウ	-7055
ワイド	-7056
面白い	-7057
ローカル	-7058
実用	-7059
寄り	-7060
物資	-7061
日にかけて	-7062
の見	-7063
隊長	-7064
歩いて	-7065
少数	-7066
へば	-7067
直径	-7068
ーズの	-7069
述べた	-7070
進化	-7071
プロイセン	-7072
ヘルム	-7073
3000	-7074
初めての	-7075
戦士	-7076
はまだ	-7077
sh	-7078
を撃	-7079
ニアの	-7080
名誉教授	-7081
位となった	-7082
直ぐ	-7083
を指	-7084
反発	-7085
家督	-7086
得点を	-7087
を定	-7088
コフ	-7089
工作	-7090
用いられている	-7091
任し	-7092
版は	-7093
西側	-7094
活動の	-7095
さんに	-7096
コート	-7097
年ぶり	-7098
するとともに	-7099
各地の	-7100
UR	-7101
の大半	-7102
りする	-7103
バラエティ	-7104
元々	-7105
埼玉県	-7106
山形	-7107
務大臣	-7108
目的で	-7109
言って	-7110
運営する	-7111
oh	-7112
学んだ	-7113
▁Pro	-7114
入手	-7115
面は	-7116
と呼ばれている	-7117
入団	-7118
実績	-7119
ヘイ	-7120
ベラ	-7121
和田	-7122
成分	-7123
権の	-7124
須賀	-7125
各地で	-7126
(4	-7127
直通	-7128
オーク	-7129
-5	-7130
を対象	-7131
ドラム	-7132
ナルの	-7133
コンクリート	-7134
ff	-7135
語は	-7136
道は	-7137
よいよ	-7138
大会では	-7139
プロデュース	-7140
経路	-7141
を満た	-7142
にあたり	-7143
。1990	-7144
阻止	-7145
ire	-7146
につき	-7147
出演した	-7148
シス	-7149
冒険	-7150
を使用した	-7151
延期	-7152
年ぶりの	-7153
十郎	-7154
ED	-7155
二三	-7156
クリスト	-7157
船舶	-7158
ステーション	-7159
何度も	-7160
cc	-7161
数十	-7162
やかに	-7163
の建設	-7164
勝利した	-7165
)(	-7166
一致	-7167
派生	-7168
界の	-7169
自体は	-7170
を含めた	-7171
タウ	-7172
最新	-7173
を装備	-7174
るという	-7175
ドライブ	-7176
ヴィッド	-7177
誕生した	-7178
ことによって	-7179
口に	-7180
校舎	-7181
火山	-7182
賛成	-7183
陥落	-7184
ためである	-7185
を押	-7186
軍人	-7187
エレクト	-7188
、1997	-7189
されることが	-7190
家臣	-7191
機種	-7192
アンダー	-7193
風が	-7194
デア	-7195
マサ	-7196
"』	-7197
ファースト	-7198
踏み	-7199
が追加	-7200
年までは	-7201
オーケストラ	-7202
等が	-7203
の一般	-7204
クセン	-7205
パソ	-7206
マリー	-7207
ちや	-7208
国で	-7209
トレード	-7210
金沢	-7211
闘争	-7212
AK	-7213
▁や	-7214
カウン	-7215
まもなく	-7216
ことができ	-7217
ファミリー	-7218
殆ど	-7219
時間帯	-7220
に再	-7221
も多く	-7222
タイヤ	-7223
バトル	-7224
どうしても	-7225
愛称	-7226
権威	-7227
関心	-7228
ニョ	-7229
に昇進	-7230
著名な	-7231
成功した	-7232
ことはなかった	-7233
面で	-7234
作った	-7235
知る	-7236
ハイン	-7237
としており	-7238
毛利	-7239
音源	-7240
ペット	-7241
かた	-7242
これで	-7243
プター	-7244
人々は	-7245
音楽の	-7246
わからない	-7247
の際	-7248
を施	-7249
死に	-7250
変わ	-7251
講演	-7252
者には	-7253
もあって	-7254
マイナー	-7255
マツ	-7256
娘の	-7257
重賞	-7258
世話	-7259
型は	-7260
或る	-7261
っぱり	-7262
わたって	-7263
▁エ	-7264
ラノ	-7265
金が	-7266
OV	-7267
を試み	-7268
田舎	-7269
部隊の	-7270
琉球	-7271
ケーブル	-7272
を掲	-7273
移住	-7274
中山	-7275
離れ	-7276
int	-7277
プロー	-7278
小さく	-7279
情報を	-7280
重な	-7281
知った	-7282
も見	-7283
協議会	-7284
、1996	-7285
の一環として	-7286
年度の	-7287
どり	-7288
ヴェン	-7289
を歌	-7290
メイト	-7291
以上に	-7292
IR	-7293
入した	-7294
要する	-7295
大学教授	-7296
に合わせて	-7297
と対	-7298
朝廷	-7299
純粋	-7300
ide	-7301
と判断	-7302
総理	-7303
ともい	-7304
育て	-7305
にちな	-7306
勢調査	-7307
論争	-7308
インドネシア	-7309
メカ	-7310
継ぐ	-7311
だらう	-7312
のみの	-7313
あったが	-7314
らせた	-7315
に触	-7316
習慣	-7317
おも	-7318
時刻	-7319
を待	-7320
応用	-7321
総裁	-7322
けている	-7323
ラグビー	-7324
もはや	-7325
相対	-7326
ようとした	-7327
ジーランド	-7328
自主	-7329
(8	-7330
まない	-7331
んでおり	-7332
使う	-7333
当た	-7334
認可	-7335
絶滅	-7336
衛生	-7337
に行く	-7338
を経験	-7339
ボタン	-7340
修士	-7341
直後の	-7342
でプレー	-7343
コメディ	-7344
は見	-7345
を逃	-7346
イリ	-7347
木村	-7348
ディオ	-7349
ベリー	-7350
子孫	-7351
身に	-7352
年生の	-7353
上京	-7354
上げられた	-7355
ミシ	-7356
乾燥	-7357
敷地	-7358
然と	-7359
ロイヤル	-7360
優勝した	-7361
将校	-7362
我が	-7363
によく	-7364
やった	-7365
だし	-7366
ジラ	-7367
下ろ	-7368
山城	-7369
提唱	-7370
残る	-7371
-18	-7372
リニューアル	-7373
サンダー	-7374
NE	-7375
おく	-7376
ガード	-7377
きている	-7378
エラ	-7379
トウ	-7380
乗る	-7381
会計	-7382
の影響で	-7383
じられ	-7384
トレーニング	-7385
ゆき	-7386
文芸	-7387
する必要がある	-7388
ll	-7389
全面	-7390
発掘	-7391
が出来	-7392
バース	-7393
切って	-7394
勢力を	-7395
ダービー	-7396
を読	-7397
其の	-7398
向う	-7399
珍しい	-7400
いって	-7401
落選	-7402
に移住	-7403
バレエ	-7404
選挙で	-7405
を擁	-7406
チナ	-7407
バイス	-7408
。15	-7409
そろ	-7410
雰囲	-7411
ジュール	-7412
委員会の	-7413
元は	-7414
に改称	-7415
▁である	-7416
ニュージーランド	-7417
多少	-7418
砲撃	-7419
を再開	-7420
バージ	-7421
に伴って	-7422
配給	-7423
先行	-7424
MV	-7425
水道	-7426
軍隊	-7427
甲子園	-7428
わたしは	-7429
の南	-7430
めに	-7431
を支援	-7432
したところ	-7433
との間で	-7434
むと	-7435
ージー	-7436
起きた	-7437
とは異なる	-7438
を達成した	-7439
の末	-7440
コム	-7441
色が	-7442
わかり	-7443
気筒	-7444
1987	-7445
国際空港	-7446
一体	-7447
夫人	-7448
配備	-7449
ウイ	-7450
下り	-7451
彼ら	-7452
を主張	-7453
衆議院議員総選挙	-7454
在住	-7455
群馬	-7456
グラス	-7457
初出場	-7458
1985	-7459
トランス	-7460
ミックス	-7461
。2002	-7462
ナ州	-7463
養成	-7464
ment	-7465
権力	-7466
きり	-7467
ミュージシャン	-7468
ビス	-7469
偵察	-7470
を以て	-7471
地として	-7472
さし	-7473
藩の	-7474
飼育	-7475
学者の	-7476
を使用する	-7477
の作品	-7478
は高	-7479
イレ	-7480
受容	-7481
ノート	-7482
多くが	-7483
年ごろ	-7484
へも	-7485
本来の	-7486
へ移籍	-7487
iz	-7488
の声	-7489
スン	-7490
ペイ	-7491
衰退	-7492
運航	-7493
願い	-7494
戦国	-7495
の上で	-7496
ore	-7497
を開始し	-7498
委託	-7499
感染症	-7500
正しい	-7501
有機	-7502
海に	-7503
準決勝	-7504
陸上競技	-7505
余り	-7506
示した	-7507
しなければ	-7508
られていたが	-7509
ong	-7510
-7	-7511
気味	-7512
生活の	-7513
会談	-7514
制の	-7515
迎えた	-7516
をベース	-7517
教室	-7518
読売	-7519
が決定	-7520
を除いて	-7521
きっかけに	-7522
を代表する	-7523
混合	-7524
遠い	-7525
日本国内	-7526
かも知れない	-7527
を生み	-7528
千葉県	-7529
数多く	-7530
制作した	-7531
▁2001	-7532
既存の	-7533
駐車	-7534
夫妻	-7535
の原因	-7536
教員	-7537
専用の	-7538
ストライ	-7539
――」	-7540
ヌー	-7541
られず	-7542
選手の	-7543
ational	-7544
色は	-7545
▁14	-7546
クレジット	-7547
山梨	-7548
フロリダ	-7549
リッ	-7550
若干	-7551
を決定	-7552
翌年の	-7553
われわれ	-7554
天保	-7555
重量	-7556
からず	-7557
区画	-7558
ase	-7559
るように	-7560
ボックス	-7561
国勢調査	-7562
件の	-7563
短編	-7564
等に	-7565
なのか	-7566
▁オ	-7567
めの	-7568
▁13	-7569
の自由	-7570
インディア	-7571
厚生	-7572
徳島	-7573
楽し	-7574
生存	-7575
業績	-7576
話の	-7577
世紀後半	-7578
ng	-7579
ディレクター	-7580
国連	-7581
石を	-7582
座の	-7583
彼に	-7584
性と	-7585
グレイ	-7586
しゅ	-7587
と推定	-7588
報告書	-7589
かったが	-7590
広場	-7591
企業の	-7592
従って	-7593
、1995	-7594
ノール	-7595
odice	-7596
セラ	-7597
狭い	-7598
青い	-7599
デザイ	-7600
ボクシング	-7601
年シーズン	-7602
平野	-7603
浮か	-7604
ますが	-7605
日本に	-7606
はほとんど	-7607
横断	-7608
次々と	-7609
を決めた	-7610
古の	-7611
夫は	-7612
弱い	-7613
で第	-7614
解除	-7615
ial	-7616
ith	-7617
切った	-7618
TC	-7619
。"	-7620
とおり	-7621
彼女が	-7622
使われた	-7623
いっ	-7624
モール	-7625
南部の	-7626
DC	-7627
化合	-7628
ひどく	-7629
版では	-7630
ごう	-7631
組の	-7632
色で	-7633
▁1980	-7634
を支配	-7635
十三	-7636
尽力	-7637
意思	-7638
man	-7639
を置く	-7640
ラウ	-7641
大公	-7642
ベート	-7643
市出身	-7644
年までの	-7645
瀬戸	-7646
した際	-7647
フィラ	-7648
アイテム	-7649
地中	-7650
を除き	-7651
制作された	-7652
るに	-7653
ソル	-7654
回衆議院議員総選挙	-7655
一定の	-7656
自分を	-7657
、2024	-7658
けられた	-7659
する予定	-7660
きら	-7661
りゃ	-7662
モンスター	-7663
IL	-7664
がた	-7665
一は	-7666
庁舎	-7667
うまく	-7668
の後継	-7669
する必要	-7670
るために	-7671
ブス	-7672
活発	-7673
を発売	-7674
選ばれた	-7675
中断	-7676
年夏	-7677
運河	-7678
タンク	-7679
ウルトラ	-7680
選手として	-7681
急速に	-7682
nt	-7683
』)	-7684
一日	-7685
迎え	-7686
▁東京	-7687
パターン	-7688
に相当する	-7689
庭園	-7690
ポロ	-7691
、1994	-7692
つは	-7693
階段	-7694
専門学校	-7695
川が	-7696
いくら	-7697
化して	-7698
るべき	-7699
ジュー	-7700
放送局	-7701
1986	-7702
ペー	-7703
食料	-7704
現れる	-7705
社会の	-7706
ではないが	-7707
キット	-7708
通りに	-7709
原理	-7710
観音	-7711
と表記	-7712
ジャンル	-7713
ビリ	-7714
限界	-7715
に住む	-7716
りした	-7717
間には	-7718
広げ	-7719
今まで	-7720
一族	-7721
変換	-7722
頃の	-7723
君主	-7724
的にも	-7725
れぬ	-7726
カンパ	-7727
ゴールデン	-7728
しているため	-7729
ませんでした	-7730
大衆	-7731
テーション	-7732
実践	-7733
産の	-7734
を組み	-7735
共同で	-7736
理事長	-7737
を利用して	-7738
ヨハ	-7739
女房	-7740
ものか	-7741
現れた	-7742
をとり	-7743
二郎	-7744
を食べ	-7745
戦術	-7746
思った	-7747
。1980	-7748
制覇	-7749
合理	-7750
でござ	-7751
太郎は	-7752
明るい	-7753
ちなみに	-7754
ッズ	-7755
正規	-7756
搭乗	-7757
ランプ	-7758
車両の	-7759
を狙	-7760
回答	-7761
長野県	-7762
すべく	-7763
1950	-7764
都道	-7765
をかけた	-7766
ウー	-7767
助手	-7768
しかない	-7769
となるが	-7770
、1991	-7771
保管	-7772
帰還	-7773
節の	-7774
などでは	-7775
コウ	-7776
で生まれた	-7777
ミッション	-7778
るの	-7779
なんか	-7780
を拒否	-7781
決意	-7782
配列	-7783
を率いて	-7784
もこの	-7785
レール	-7786
酒を	-7787
が取り	-7788
だったため	-7789
ck	-7790
びた	-7791
停留	-7792
可愛	-7793
丈夫	-7794
皮膚	-7795
物である	-7796
。2001	-7797
ットー	-7798
同社の	-7799
換え	-7800
有限	-7801
生息	-7802
ION	-7803
が確認	-7804
を実現	-7805
不良	-7806
衣装	-7807
話す	-7808
1984	-7809
寄付	-7810
注目を	-7811
pe	-7812
幼い	-7813
検察	-7814
テーブル	-7815
先頭	-7816
受信	-7817
年秋	-7818
デンの	-7819
セレ	-7820
ヤク	-7821
時々	-7822
夜は	-7823
サンフランシスコ	-7824
さて	-7825
コンパ	-7826
LA	-7827
終わり	-7828
モーション	-7829
プラットフォーム	-7830
01	-7831
her	-7832
-11	-7833
現在でも	-7834
故に	-7835
子で	-7836
に沿って	-7837
払い	-7838
使われ	-7839
帰って	-7840
した上で	-7841
ノルウェー	-7842
とみ	-7843
地図	-7844
水域	-7845
NBA	-7846
▁2002	-7847
要望	-7848
ヘビー	-7849
を舞台	-7850
hy	-7851
叔父	-7852
大阪市	-7853
ものとして	-7854
不正	-7855
を占領	-7856
ことができた	-7857
兵隊	-7858
学位	-7859
と改称	-7860
議会議員	-7861
柔道	-7862
あいだ	-7863
和歌山	-7864
子会社	-7865
。2023	-7866
多摩	-7867
電池	-7868
駅は	-7869
ており	-7870
そこには	-7871
キャッチ	-7872
にしている	-7873
行われている	-7874
に遭	-7875
刑務	-7876
リアの	-7877
コンスタン	-7878
を介	-7879
を好	-7880
なくな	-7881
Go	-7882
巨大	-7883
サービスを	-7884
ええ	-7885
状に	-7886
の日本	-7887
自衛隊	-7888
駐屯	-7889
サイン	-7890
通常は	-7891
サウルス	-7892
こっち	-7893
プロト	-7894
ピュ	-7895
ark	-7896
を開発	-7897
地域は	-7898
君が	-7899
左翼	-7900
と同様の	-7901
▁Z	-7902
中を	-7903
詩人	-7904
以外は	-7905
フェスティ	-7906
アト	-7907
バルト	-7908
メモリ	-7909
コントロール	-7910
船が	-7911
重視	-7912
掛けて	-7913
規模の	-7914
(、	-7915
計画は	-7916
務員	-7917
が発生した	-7918
も存在する	-7919
ディーゼル	-7920
1/	-7921
樹立	-7922
していなかった	-7923
交易	-7924
佐賀	-7925
強調	-7926
に生まれた	-7927
月にかけて	-7928
オオ	-7929
号を	-7930
チェル	-7931
するには	-7932
シナリオ	-7933
▁カ	-7934
地点	-7935
ont	-7936
KA	-7937
苦労	-7938
起こった	-7939
の特	-7940
何を	-7941
の代表	-7942
歳の時に	-7943
動力	-7944
王朝	-7945
講義	-7946
通貨	-7947
と呼び	-7948
地獄	-7949
矛盾	-7950
を終えた	-7951
建てられた	-7952
OP	-7953
ムは	-7954
高級	-7955
スケート	-7956
ステップ	-7957
ばん	-7958
量産	-7959
騒動	-7960
に編入	-7961
西日本	-7962
モチーフ	-7963
の東	-7964
内は	-7965
ローン	-7966
口から	-7967
特殊な	-7968
じゅう	-7969
に関係	-7970
へ向かう	-7971
えられている	-7972
敗退	-7973
に参戦	-7974
ルーマニア	-7975
全域	-7976
皇后	-7977
細菌	-7978
聞こ	-7979
を要求	-7980
ヴェー	-7981
パーセント	-7982
礼拝	-7983
に入れ	-7984
を採	-7985
駅前	-7986
が発表された	-7987
師範	-7988
牽引	-7989
を表明	-7990
の総	-7991
運命	-7992
パレス	-7993
好い	-7994
着陸	-7995
研修	-7996
原題	-7997
熱帯	-7998
タッチ	-7999
べし	-8000
百貨	-8001
ver	-8002
頃には	-8003
まっていた	-8004
出る	-8005
終結	-8006
オールスター	-8007
介入	-8008
初演	-8009
得意	-8010
留学	-8011
これまでの	-8012
司馬	-8013
を書き	-8014
同年に	-8015
問題は	-8016
国家の	-8017
作品である	-8018
勲章	-8019
法則	-8020
解消	-8021
らして	-8022
器の	-8023
悪化	-8024
福音	-8025
を感じ	-8026
長らく	-8027
削除	-8028
方へ	-8029
うえで	-8030
理由は	-8031
どうした	-8032
メモ	-8033
生活を	-8034
のタイトル	-8035
根本	-8036
ブルース	-8037
周年記念	-8038
統制	-8039
キノ	-8040
を購入	-8041
かしい	-8042
捜索	-8043
管弦	-8044
に際して	-8045
ライバル	-8046
コンテンツ	-8047
ミズ	-8048
玄関	-8049
顕著	-8050
携帯電話	-8051
メンタリー	-8052
oy	-8053
は小	-8054
簡単	-8055
動物の	-8056
交差点	-8057
書店	-8058
地位	-8059
住民の	-8060
、1993	-8061
実装	-8062
当主	-8063
サンタ	-8064
以外にも	-8065
覚え	-8066
調達	-8067
ギル	-8068
岡田	-8069
数百	-8070
ようになっている	-8071
一軍	-8072
方言	-8073
最小	-8074
フェア	-8075
(5	-8076
民の	-8077
されたのは	-8078
バージニア	-8079
を高	-8080
ust	-8081
を持た	-8082
を執	-8083
身分	-8084
ack	-8085
GT	-8086
プー	-8087
を含め	-8088
を演じた	-8089
させている	-8090
水戸	-8091
わせる	-8092
以外に	-8093
番目に	-8094
ということを	-8095
室町	-8096
ショート	-8097
運賃	-8098
クレー	-8099
アルファ	-8100
1)	-8101
ベネ	-8102
性的	-8103
救助	-8104
せし	-8105
っこ	-8106
薩摩	-8107
ボストン	-8108
がなかった	-8109
がって	-8110
レイン	-8111
していて	-8112
する場合	-8113
世紀初頭	-8114
にこ	-8115
循環	-8116
山が	-8117
をかけ	-8118
いると	-8119
容易に	-8120
準優勝	-8121
▁高	-8122
被告	-8123
に関与	-8124
IVE	-8125
を占める	-8126
帰り	-8127
揚げ	-8128
れており	-8129
謝罪	-8130
黄金	-8131
やすく	-8132
うと	-8133
だれ	-8134
領主	-8135
付いた	-8136
ホールディング	-8137
をこ	-8138
エロ	-8139
数値	-8140
掛ける	-8141
に立ち	-8142
▁中	-8143
バリ	-8144
私立	-8145
脅威	-8146
を加えた	-8147
けい	-8148
チオ	-8149
特別な	-8150
CS	-8151
タの	-8152
ネオ	-8153
行は	-8154
早稲田大学	-8155
マジ	-8156
烈な	-8157
騎乗	-8158
アルゼンチン	-8159
へ行く	-8160
のでした	-8161
側には	-8162
持って	-8163
、1992	-8164
仮面	-8165
大隊	-8166
妨害	-8167
騒ぎ	-8168
システムの	-8169
が相	-8170
審判	-8171
送信	-8172
のでは	-8173
これによって	-8174
を成	-8175
安心	-8176
ほかの	-8177
薬品	-8178
電源	-8179
第一次	-8180
を求めた	-8181
発表され	-8182
HD	-8183
づく	-8184
二度	-8185
会館	-8186
校長	-8187
が形成	-8188
マスク	-8189
かかった	-8190
ノス	-8191
タイプの	-8192
東宝	-8193
ユダヤ人	-8194
出発	-8195
ショウ	-8196
部分を	-8197
ヨーロッパの	-8198
は今	-8199
折り	-8200
を使い	-8201
地域で	-8202
モデルの	-8203
プレーオフ	-8204
支店	-8205
端末	-8206
エンジンは	-8207
日中	-8208
看板	-8209
若手	-8210
越し	-8211
▁Ar	-8212
といえる	-8213
公立	-8214
夫が	-8215
マルクス	-8216
終戦	-8217
スカイ	-8218
に集	-8219
ねん	-8220
ギン	-8221
補佐	-8222
起訴	-8223
を出版	-8224
クラウ	-8225
ください	-8226
タム	-8227
心持	-8228
運輸	-8229
are	-8230
した際に	-8231
温度	-8232
age	-8233
するのが	-8234
堂の	-8235
を続けた	-8236
教の	-8237
火の	-8238
を称	-8239
後退	-8240
正式な	-8241
初となる	-8242
官僚	-8243
校の	-8244
ありませんか	-8245
宇都	-8246
緩和	-8247
大手	-8248
木は	-8249
せば	-8250
太田	-8251
行列	-8252
を確保	-8253
数々の	-8254
っているが	-8255
日で	-8256
公式戦	-8257
ここでは	-8258
保証	-8259
適切な	-8260
チの	-8261
・「	-8262
近畿	-8263
ブラウ	-8264
ートン	-8265
太平洋戦争	-8266
EP	-8267
年春	-8268
不可能	-8269
京都府	-8270
群の	-8271
ear	-8272
を訪問	-8273
コミュニケーション	-8274
にの	-8275
する形で	-8276
ウェブサイト	-8277
渡り	-8278
まれている	-8279
フレー	-8280
▁1970	-8281
と思います	-8282
ルネ	-8283
再編	-8284
野は	-8285
ock	-8286
(6	-8287
と契約	-8288
所属の	-8289
ジェント	-8290
を模	-8291
賠償	-8292
新しく	-8293
ことなく	-8294
上り	-8295
ノミネ	-8296
は非常に	-8297
の形	-8298
1975	-8299
アトラン	-8300
を設	-8301
入力	-8302
秘書	-8303
にかか	-8304
を放送	-8305
ピク	-8306
ツール	-8307
ベニア	-8308
。1970	-8309
ッティ	-8310
振り返	-8311
ースター	-8312
民主主義	-8313
挿入	-8314
を取る	-8315
ステン	-8316
一般的	-8317
デラ	-8318
発音	-8319
顧客	-8320
ING	-8321
南アフリカ	-8322
努力	-8323
官は	-8324
まわ	-8325
救援	-8326
異な	-8327
ライオン	-8328
売り上げ	-8329
シーズン終了	-8330
ガム	-8331
脱出	-8332
量に	-8333
電波	-8334
々しい	-8335
を変更	-8336
手は	-8337
私も	-8338
表情	-8339
郊外	-8340
ギーの	-8341
ポーター	-8342
▁さらに	-8343
の顔	-8344
インテ	-8345
ッパ	-8346
だんだ	-8347
部には	-8348
市で	-8349
河内	-8350
紙の	-8351
。1999	-8352
行し	-8353
に落ち	-8354
DF	-8355
宿泊	-8356
の高い	-8357
新聞社	-8358
それほど	-8359
古くから	-8360
、1989	-8361
出走	-8362
返還	-8363
静岡県	-8364
に拠	-8365
とにかく	-8366
ものではない	-8367
地形	-8368
石炭	-8369
ヴェネ	-8370
ルン	-8371
地理	-8372
事業を	-8373
京都市	-8374
見えた	-8375
業の	-8376
:30	-8377
リーガ	-8378
に見える	-8379
決め	-8380
不動産	-8381
番組は	-8382
を最後に	-8383
:"	-8384
派は	-8385
ber	-8386
せない	-8387
メタル	-8388
IM	-8389
ey	-8390
を紹介	-8391
影響を	-8392
につれて	-8393
イスラーム	-8394
ブリュ	-8395
1972	-8396
有利	-8397
テクノ	-8398
宇都宮	-8399
年前に	-8400
アラビア	-8401
OW	-8402
が中心	-8403
マルク	-8404
東京の	-8405
を余儀なく	-8406
されることになった	-8407
詰め	-8408
箇所	-8409
直前に	-8410
と伝	-8411
美濃	-8412
(11	-8413
どこか	-8414
ますと	-8415
単なる	-8416
ユニバー	-8417
WW	-8418
王立	-8419
真実	-8420
場所に	-8421
喜び	-8422
水準	-8423
法で	-8424
様子を	-8425
かえって	-8426
義塾	-8427
キャプ	-8428
者であった	-8429
煙草	-8430
ふう	-8431
1945	-8432
▁今	-8433
上杉	-8434
臨床	-8435
野村	-8436
食い	-8437
高齢	-8438
なしに	-8439
作家の	-8440
開かれた	-8441
全長	-8442
拘束	-8443
安全保障	-8444
年以降は	-8445
フランス語	-8446
発着	-8447
人々が	-8448
する事	-8449
何処	-8450
満洲	-8451
入った	-8452
サイクル	-8453
魅力	-8454
はな	-8455
をつけた	-8456
に見られる	-8457
の海	-8458
は三	-8459
選考	-8460
設立され	-8461
この年	-8462
新幹線	-8463
ノミネート	-8464
近鉄	-8465
協会の	-8466
土地を	-8467
実施された	-8468
レジ	-8469
車で	-8470
幅広い	-8471
死んで	-8472
ライセンス	-8473
結成された	-8474
軽量	-8475
東海道	-8476
委員会は	-8477
月からは	-8478
を必要	-8479
儀式	-8480
売上	-8481
カフェ	-8482
マイク	-8483
1983	-8484
ミュージカル	-8485
在位	-8486
宗の	-8487
阻害	-8488
メトロ	-8489
監督は	-8490
さき	-8491
教科	-8492
敷設	-8493
カテゴ	-8494
経済学	-8495
かなかった	-8496
が変	-8497
だん	-8498
慶應	-8499
するような	-8500
足り	-8501
にならない	-8502
マット	-8503
勝利し	-8504
留守	-8505
誌の	-8506
馬を	-8507
MLB	-8508
クルー	-8509
物理学	-8510
ロフ	-8511
を持たない	-8512
SE	-8513
ヘー	-8514
來た	-8515
対照	-8516
沈没	-8517
部から	-8518
tern	-8519
に関わる	-8520
船は	-8521
だした	-8522
と異なり	-8523
ュル	-8524
鉱山	-8525
クレイ	-8526
ターミナル	-8527
ブの	-8528
1,000	-8529
として利用	-8530
併合	-8531
大尉	-8532
役員	-8533
地から	-8534
施設の	-8535
きっと	-8536
くして	-8537
イルド	-8538
最初は	-8539
1982	-8540
RNA	-8541
▁1999	-8542
室内	-8543
かつた	-8544
語っている	-8545
のう	-8546
描き	-8547
直後	-8548
ってしまう	-8549
モハ	-8550
相模	-8551
GI	-8552
党は	-8553
んだから	-8554
フィート	-8555
第四	-8556
こんで	-8557
をとる	-8558
込まれる	-8559
Ar	-8560
へん	-8561
東南	-8562
ですね	-8563
今日は	-8564
不思議な	-8565
ジャーナリスト	-8566
インターナショナル	-8567
リは	-8568
中では	-8569
小学	-8570
はある	-8571
、1988	-8572
を求めて	-8573
線と	-8574
ディン	-8575
チベット	-8576
マの	-8577
レア	-8578
侵略	-8579
しゅう	-8580
勢の	-8581
に於て	-8582
エンタ	-8583
アルコール	-8584
新田	-8585
釈放	-8586
アマチュア	-8587
ダの	-8588
葉の	-8589
ドナルド	-8590
目となる	-8591
がそれぞれ	-8592
を搭載した	-8593
ond	-8594
賞受賞	-8595
製造された	-8596
を立ち	-8597
ウォル	-8598
のであろう	-8599
YO	-8600
得た	-8601
明か	-8602
正面	-8603
警視	-8604
上がる	-8605
正確な	-8606
基本的な	-8607
住む	-8608
巨人	-8609
社員	-8610
鎮圧	-8611
を収録	-8612
ロの	-8613
感じる	-8614
、1950	-8615
風呂	-8616
ヴォー	-8617
人口の	-8618
が異なる	-8619
GE	-8620
多様な	-8621
さわ	-8622
を唱	-8623
を愛	-8624
十八	-8625
台風	-8626
名に	-8627
福岡県	-8628
自体が	-8629
こく	-8630
しげ	-8631
へる	-8632
料金	-8633
下旬	-8634
に師事	-8635
を発揮	-8636
足の	-8637
の戦いで	-8638
ニッポン	-8639
コネ	-8640
列車が	-8641
ヒーロー	-8642
「(	-8643
。14	-8644
この間	-8645
を出し	-8646
を送り	-8647
個人の	-8648
に取り組	-8649
上流	-8650
上級	-8651
明の	-8652
神聖	-8653
秩序	-8654
に追い	-8655
判明した	-8656
バイエルン	-8657
へ行	-8658
を抜	-8659
▁それ	-8660
ピット	-8661
トラブル	-8662
で放送された	-8663
シンガポール	-8664
ドキュメンタリー	-8665
の有	-8666
考古	-8667
欲しい	-8668
ねばならぬ	-8669
BE	-8670
ビール	-8671
1969	-8672
はこれを	-8673
割り当て	-8674
に参	-8675
患者	-8676
条の	-8677
部族	-8678
』("	-8679
すす	-8680
一種の	-8681
安倍	-8682
だけに	-8683
先輩	-8684
クーデ	-8685
を切り	-8686
タイト	-8687
本格的な	-8688
を挟	-8689
と推測	-8690
内での	-8691
witter	-8692
と出	-8693
殺し	-8694
を学び	-8695
韓国の	-8696
中華人民共和国	-8697
妊娠	-8698
事業の	-8699
女性が	-8700
引退した	-8701
マーケット	-8702
1968	-8703
オイ	-8704
ノフ	-8705
等で	-8706
着いた	-8707
以前から	-8708
に赴	-8709
治安	-8710
きながら	-8711
保健	-8712
喪失	-8713
いな	-8714
年目の	-8715
選手が	-8716
線路	-8717
ないか	-8718
を迎え	-8719
ポケット	-8720
丘陵	-8721
勿論	-8722
ook	-8723
ないと	-8724
アニア	-8725
奪三振	-8726
ブルック	-8727
ヴィルヘルム	-8728
仕方	-8729
学び	-8730
1974	-8731
プログラ	-8732
伊豆	-8733
近江	-8734
頃は	-8735
ことだ	-8736
の息子	-8737
の音楽	-8738
初勝利	-8739
スプリング	-8740
正当	-8741
金額	-8742
らした	-8743
タール	-8744
部分の	-8745
〜』	-8746
井戸	-8747
喧嘩	-8748
場が	-8749
岩手	-8750
源氏	-8751
1979	-8752
とはいえ	-8753
レーシング	-8754
の西	-8755
会津	-8756
対決	-8757
繊維	-8758
は主に	-8759
思い出	-8760
と再	-8761
属の	-8762
競合	-8763
色を	-8764
観念	-8765
まると	-8766
キック	-8767
へ戻	-8768
一旦	-8769
ロンドンの	-8770
ハルト	-8771
1973	-8772
となると	-8773
られると	-8774
することによって	-8775
同僚	-8776
大半	-8777
車に	-8778
エクス	-8779
と話	-8780
キリ	-8781
天使	-8782
度々	-8783
検証	-8784
を浴び	-8785
えており	-8786
クトリア	-8787
。』	-8788
間が	-8789
を拠点	-8790
パネル	-8791
なるほど	-8792
パソコン	-8793
をの	-8794
前年	-8795
季節	-8796
振動	-8797
記号	-8798
com	-8799
かせる	-8800
記されている	-8801
HI	-8802
みは	-8803
金メダル	-8804
ゾーン	-8805
出場し	-8806
議会の	-8807
をかけて	-8808
EU	-8809
権は	-8810
を取り戻	-8811
ショック	-8812
カンパニー	-8813
ロケ	-8814
登山	-8815
花の	-8816
ヘリコ	-8817
継いで	-8818
、1987	-8819
ヨハン	-8820
と語った	-8821
交わ	-8822
光が	-8823
日放送	-8824
と申	-8825
合戦	-8826
ッセン	-8827
になりました	-8828
でお	-8829
yst	-8830
長距離	-8831
奏曲	-8832
本格的に	-8833
出版された	-8834
哨戒	-8835
歌舞	-8836
ナチス	-8837
ドイツ語	-8838
実在	-8839
然し	-8840
盛ん	-8841
THE	-8842
ユナイ	-8843
することにより	-8844
線に	-8845
-15	-8846
れると	-8847
フェスティバル	-8848
主力	-8849
圧縮	-8850
結晶	-8851
ティス	-8852
パール	-8853
作品で	-8854
ささ	-8855
五輪	-8856
室に	-8857
岸の	-8858
メイク	-8859
ロイド	-8860
活動は	-8861
が続	-8862
ワク	-8863
稽古	-8864
に分け	-8865
万人の	-8866
地域に	-8867
。1998	-8868
たれ	-8869
周期	-8870
引用	-8871
所領	-8872
正義	-8873
直に	-8874
ーズは	-8875
営業所	-8876
▁日本では	-8877
山岳	-8878
ソンが	-8879
トーマス	-8880
真の	-8881
ダード	-8882
ングル	-8883
如き	-8884
漁業	-8885
隻の	-8886
天文学	-8887
結果として	-8888
を起	-8889
ame	-8890
それら	-8891
PR	-8892
部下	-8893
知らず	-8894
発展した	-8895
▁FI	-8896
を中心とする	-8897
じん	-8898
で見	-8899
コモ	-8900
告げ	-8901
回路	-8902
市が	-8903
踊り	-8904
ica	-8905
土地の	-8906
オプション	-8907
北陸	-8908
種が	-8909
問題の	-8910
ユナイテッド	-8911
が重	-8912
後任	-8913
斎藤	-8914
準々	-8915
警告	-8916
に出た	-8917
の人々	-8918
命中	-8919
北部の	-8920
これに対して	-8921
俺は	-8922
旧制	-8923
栃木	-8924
カの	-8925
受験	-8926
のうちに	-8927
三井	-8928
汚染	-8929
答え	-8930
ができ	-8931
アダム	-8932
百貨店	-8933
プレート	-8934
菓子	-8935
学生の	-8936
都市圏	-8937
ストーン	-8938
を教	-8939
ガソ	-8940
同意	-8941
開放	-8942
連合国	-8943
リーグ戦	-8944
刊行された	-8945
アプリケーション	-8946
のであるが	-8947
ish	-8948
示された	-8949
座敷	-8950
の中へ	-8951
の前身	-8952
全員が	-8953
であることから	-8954
を襲	-8955
別れ	-8956
したことから	-8957
ぜん	-8958
インスト	-8959
クラスの	-8960
把握	-8961
pt	-8962
外観	-8963
緊張	-8964
トゥー	-8965
のもとに	-8966
似ている	-8967
っく	-8968
報酬	-8969
クロア	-8970
1978	-8971
残っている	-8972
大西洋	-8973
番号は	-8974
4,	-8975
歩く	-8976
法学部	-8977
位置づけ	-8978
共産主義	-8979
シグ	-8980
に似た	-8981
Play	-8982
発生する	-8983
でありながら	-8984
発売の	-8985
浮上	-8986
野菜	-8987
を作った	-8988
シュート	-8989
成立した	-8990
信濃	-8991
教養	-8992
浅草	-8993
の成績	-8994
▁アメリカ	-8995
高知	-8996
▁から	-8997
ヘビー級	-8998
なう	-8999
長男	-9000
が広が	-9001
できるように	-9002
ペア	-9003
()、	-9004
決めた	-9005
ヒロイン	-9006
コンテスト	-9007
つま	-9008
とほぼ	-9009
マール	-9010
云ふ	-9011
期から	-9012
として活躍	-9013
と書	-9014
過剰	-9015
を破壊	-9016
損失	-9017
突入	-9018
革新	-9019
が出演	-9020
を開設	-9021
ナーは	-9022
特徴である	-9023
予防	-9024
放棄	-9025
わたし	-9026
を防ぐ	-9027
建物の	-9028
を起こした	-9029
AV	-9030
だな	-9031
身長	-9032
化が進	-9033
彼らが	-9034
いゝ	-9035
だの	-9036
廃車	-9037
次男	-9038
rom	-9039
とすると	-9040
と呼ばれていた	-9041
ミッ	-9042
局は	-9043
海賊	-9044
焼失	-9045
ってる	-9046
ろうと	-9047
カンド	-9048
はじめて	-9049
されることとなった	-9050
ラド	-9051
を迎える	-9052
の頭	-9053
パナ	-9054
110	-9055
ネルの	-9056
動く	-9057
抗争	-9058
コック	-9059
ディエ	-9060
出来事	-9061
キスタン	-9062
を望	-9063
移植	-9064
頻繁に	-9065
をつける	-9066
を訪れた	-9067
品質	-9068
条例	-9069
瞬間	-9070
ach	-9071
文の	-9072
監査	-9073
いても	-9074
1971	-9075
違法	-9076
ディナ	-9077
を起こし	-9078
平方マイル	-9079
に任命された	-9080
意に	-9081
盗塁	-9082
葉は	-9083
調節	-9084
家から	-9085
示している	-9086
ースは	-9087
地位を	-9088
限定盤	-9089
テオ	-9090
審議	-9091
AAA	-9092
und	-9093
を批判	-9094
1976	-9095
選定	-9096
部と	-9097
ガール	-9098
らっしゃ	-9099
インドの	-9100
ということは	-9101
セリ	-9102
前は	-9103
セッツ	-9104
ストック	-9105
を使用して	-9106
ものもある	-9107
常務	-9108
意向	-9109
本編	-9110
訴え	-9111
を卒業し	-9112
土壌	-9113
山頂	-9114
日米	-9115
気で	-9116
渡し	-9117
ost	-9118
当初から	-9119
月曜	-9120
抑制	-9121
家である	-9122
ゆえ	-9123
の間の	-9124
エリザベス	-9125
03	-9126
NN	-9127
上下	-9128
口径	-9129
気な	-9130
。1995	-9131
低迷	-9132
増大	-9133
神社の	-9134
マガジン	-9135
さの	-9136
国を	-9137
国籍	-9138
らった	-9139
ニーズ	-9140
レスの	-9141
Am	-9142
DE	-9143
一本	-9144
馬は	-9145
から外	-9146
たしか	-9147
レンズ	-9148
ite	-9149
が高く	-9150
前には	-9151
した結果	-9152
を誇	-9153
高松	-9154
らかな	-9155
傷を負	-9156
1981	-9157
とりわけ	-9158
事実上の	-9159
主任	-9160
函館	-9161
素晴	-9162
ick	-9163
aw	-9164
。1996	-9165
-17	-9166
恐ろしい	-9167
マネージャー	-9168
運び	-9169
グラフ	-9170
しくない	-9171
都道府県	-9172
ばら	-9173
ゼー	-9174
を選択	-9175
フロー	-9176
仕組み	-9177
"」	-9178
世と	-9179
の内容	-9180
はっきり	-9181
を含めて	-9182
郡は	-9183
いてい	-9184
に着手	-9185
もあったが	-9186
配布	-9187
シャルル	-9188
SD	-9189
母が	-9190
が出た	-9191
人物の	-9192
恐らく	-9193
カロライ	-9194
ハリウッド	-9195
端の	-9196
チャイ	-9197
ラーが	-9198
人たち	-9199
▁1998	-9200
隠居	-9201
ass	-9202
▁Sp	-9203
ところを	-9204
Station	-9205
-8	-9206
さで	-9207
ふり	-9208
協同	-9209
春日	-9210
つても	-9211
と命名	-9212
タワー	-9213
パフォーマンス	-9214
問題を	-9215
一貫	-9216
滑走	-9217
番の	-9218
流れる	-9219
昆虫	-9220
が発足	-9221
ウスは	-9222
ふく	-9223
エム	-9224
密な	-9225
虐殺	-9226
グローバル	-9227
ラフ	-9228
探検	-9229
を披露	-9230
観光客	-9231
はじめた	-9232
免疫	-9233
単行本	-9234
の話	-9235
ってお	-9236
に興味	-9237
Su	-9238
タリ	-9239
入社	-9240
及ば	-9241
辞任	-9242
エルの	-9243
年後に	-9244
所持	-9245
同士の	-9246
を設立し	-9247
、1986	-9248
諏訪	-9249
に従い	-9250
警察署	-9251
マドリード	-9252
滅亡	-9253
テレビ番組	-9254
は中	-9255
みず	-9256
会話	-9257
発の	-9258
百姓	-9259
コーヒー	-9260
老朽	-9261
駅で	-9262
iss	-9263
八五郎	-9264
続けている	-9265
GB	-9266
検出	-9267
破り	-9268
レンタル	-9269
を求め	-9270
ターボ	-9271
リーナ	-9272
登場人物	-9273
、1985	-9274
ナポレオン	-9275
の他	-9276
阪急	-9277
リンは	-9278
テリー	-9279
活性化	-9280
グレード	-9281
エンジニア	-9282
Twitter	-9283
まじ	-9284
ゼフ	-9285
不能	-9286
水は	-9287
永久	-9288
二次	-9289
と説明	-9290
。1997	-9291
兵の	-9292
語る	-9293
130	-9294
▁東	-9295
長年	-9296
、30	-9297
チューセッツ	-9298
に収	-9299
近衛	-9300
が続いた	-9301
打ち上げ	-9302
きれ	-9303
所得	-9304
ドレス	-9305
たた	-9306
リゾ	-9307
。2024	-9308
変更された	-9309
なぞ	-9310
小野	-9311
に加入	-9312
アイヌ	-9313
▁本作は	-9314
いよいよ	-9315
を務めている	-9316
伊達	-9317
管区	-9318
ツィア	-9319
攻撃を	-9320
▁第二次世界大戦	-9321
の町	-9322
を脱	-9323
入院	-9324
役所	-9325
が採用	-9326
ゆえに	-9327
を学んだ	-9328
同志	-9329
変異	-9330
▁だが	-9331
ピーク	-9332
競馬場	-9333
が通	-9334
とよ	-9335
分か	-9336
寛永	-9337
団体の	-9338
に比べて	-9339
を起こす	-9340
ブルガリア	-9341
尽く	-9342
試合は	-9343
何らかの	-9344
選挙では	-9345
テレビ朝日	-9346
を学ぶ	-9347
国民の	-9348
ってくる	-9349
コマンド	-9350
会社である	-9351
人権	-9352
回は	-9353
排気	-9354
が最も	-9355
家と	-9356
役に	-9357
セックス	-9358
陣営	-9359
ポリス	-9360
モニー	-9361
をもたらす	-9362
路面	-9363
なかに	-9364
De	-9365
月下旬	-9366
止める	-9367
出場した	-9368
記者会見	-9369
ジョージア	-9370
の無	-9371
ロド	-9372
修行	-9373
創建	-9374
貨幣	-9375
から約	-9376
を取得した	-9377
透明	-9378
間隔	-9379
ヴィヒ	-9380
に不	-9381
大名	-9382
州で	-9383
主として	-9384
されるなど	-9385
に至るまで	-9386
DD	-9387
なす	-9388
に直	-9389
反射	-9390
ork	-9391
に重	-9392
の遺	-9393
曰く	-9394
細川	-9395
バイオ	-9396
チは	-9397
ドール	-9398
ためには	-9399
仮説	-9400
を投げ	-9401
経済的	-9402
ence	-9403
なくても	-9404
しまいました	-9405
ゴム	-9406
和解	-9407
平日	-9408
法第	-9409
誤解	-9410
ニズム	-9411
市町村	-9412
代表的な	-9413
あっ	-9414
傾斜	-9415
入賞	-9416
ブロン	-9417
過去に	-9418
ちが	-9419
を外	-9420
競輪	-9421
カート	-9422
という説	-9423
はいずれ	-9424
に向かった	-9425
ue	-9426
かげ	-9427
エキ	-9428
ポケ	-9429
すぎる	-9430
のちの	-9431
サーク	-9432
商売	-9433
を手が	-9434
アルゴ	-9435
ときには	-9436
水平	-9437
を重視	-9438
存在し	-9439
方向に	-9440
設立した	-9441
死後	-9442
ern	-9443
しや	-9444
計画を	-9445
ならびに	-9446
慶應義塾	-9447
チャンピオンズ	-9448
ps	-9449
体で	-9450
在任	-9451
声明	-9452
貧困	-9453
act	-9454
つてゐ	-9455
やその	-9456
バイル	-9457
であるから	-9458
原は	-9459
自信	-9460
ビング	-9461
年間で	-9462
技術の	-9463
日の対	-9464
連続で	-9465
ックスの	-9466
ブロード	-9467
を落	-9468
局が	-9469
ロジー	-9470
過ごした	-9471
バナ	-9472
メダ	-9473
真っ	-9474
ボーン	-9475
全国の	-9476
1967	-9477
松竹	-9478
締め	-9479
と思ふ	-9480
ッパー	-9481
ドメイン	-9482
たけ	-9483
期間は	-9484
快速	-9485
立法	-9486
細い	-9487
ボウ	-9488
延伸	-9489
が勃発	-9490
ベッド	-9491
以後は	-9492
が生まれた	-9493
なの	-9494
人間が	-9495
制度の	-9496
意志	-9497
▁西	-9498
ザル	-9499
友達	-9500
順位	-9501
日本は	-9502
段階で	-9503
br	-9504
▁–	-9505
事項	-9506
北の	-9507
開館	-9508
oft	-9509
が起き	-9510
あなたは	-9511
として扱	-9512
人であった	-9513
ラが	-9514
冬季	-9515
台車	-9516
少佐	-9517
書は	-9518
確実	-9519
スペインの	-9520
争い	-9521
建国	-9522
使用され	-9523
たん	-9524
いません	-9525
に含まれる	-9526
調理	-9527
の生産	-9528
植物の	-9529
組織の	-9530
自由に	-9531
下位	-9532
土佐	-9533
東の	-9534
マンが	-9535
めており	-9536
ペンシル	-9537
GO	-9538
再現	-9539
カルタ	-9540
ドクター	-9541
放送されていた	-9542
Ph	-9543
丁度	-9544
奨励	-9545
退団	-9546
メリー	-9547
切りに	-9548
逮捕された	-9549
が必要である	-9550
に比べ	-9551
返し	-9552
さすが	-9553
を収め	-9554
リッチ	-9555
年前の	-9556
大字	-9557
弾薬	-9558
谷川	-9559
文化の	-9560
歌舞伎	-9561
車両は	-9562
っています	-9563
味方	-9564
が発売	-9565
ロッテ	-9566
orld	-9567
創設された	-9568
に分類される	-9569
含まれていた	-9570
お父	-9571
松山	-9572
音の	-9573
かせた	-9574
接する	-9575
を倒	-9576
ッシ	-9577
会合	-9578
往来	-9579
1.5	-9580
バット	-9581
ボルト	-9582
制約	-9583
収益	-9584
田市	-9585
長に	-9586
いつか	-9587
以内に	-9588
を受けていた	-9589
降板	-9590
学校で	-9591
その中で	-9592
スタンド	-9593
ハンマド	-9594
ミュンヘン	-9595
ical	-9596
にわたる	-9597
つかり	-9598
カーン	-9599
02	-9600
手続き	-9601
都市の	-9602
るか	-9603
中野	-9604
官が	-9605
総務	-9606
900	-9607
傘下の	-9608
に向けた	-9609
キューバ	-9610
フェラー	-9611
かれており	-9612
を採用した	-9613
気分	-9614
順次	-9615
云って	-9616
グレート	-9617
を経由して	-9618
建物は	-9619
わずかに	-9620
ダウンロード	-9621
きわ	-9622
べて	-9623
動機	-9624
。1960	-9625
んだよ	-9626
佐々木	-9627
来ると	-9628
アイランド	-9629
ダイヤ改正	-9630
山崎	-9631
せられ	-9632
忘れて	-9633
著しく	-9634
するのに	-9635
食糧	-9636
降下	-9637
あくまで	-9638
たびたび	-9639
▁1996	-9640
、1984	-9641
ぼう	-9642
職務	-9643
行方	-9644
世紀末	-9645
観点から	-9646
を設立した	-9647
鳥取	-9648
ペース	-9649
列車の	-9650
周囲の	-9651
1965	-9652
つに	-9653
つぶ	-9654
ラジ	-9655
所へ	-9656
過程で	-9657
手として	-9658
なくなって	-9659
推奨	-9660
療法	-9661
私に	-9662
財務	-9663
音を	-9664
平次は	-9665
目的は	-9666
1964	-9667
バルセロ	-9668
マラソン	-9669
というような	-9670
Al	-9671
ゥー	-9672
招待	-9673
ジェル	-9674
機能を	-9675
をとった	-9676
兵を	-9677
将棋	-9678
球場	-9679
司令部	-9680
apan	-9681
シドニー	-9682
チェック	-9683
アメリカで	-9684
キャラクターの	-9685
航路	-9686
船を	-9687
に派遣	-9688
初優勝	-9689
普通の	-9690
フィラデル	-9691
07	-9692
「"	-9693
!」「	-9694
独特の	-9695
何う	-9696
分散	-9697
骨折	-9698
の指揮	-9699
大量の	-9700
を見せる	-9701
クーデター	-9702
が設置された	-9703
%)	-9704
れん	-9705
アラン	-9706
工事が	-9707
関係者	-9708
村が	-9709
背負	-9710
街の	-9711
横須賀	-9712
キハ	-9713
ory	-9714
家督を	-9715
家として	-9716
ほとんどが	-9717
といわれている	-9718
ギア	-9719
愛媛	-9720
代表の	-9721
したのが	-9722
都市計画	-9723
されておらず	-9724
広域	-9725
がよく	-9726
考えられる	-9727
夕方	-9728
小倉	-9729
紋章	-9730
やっと	-9731
を継続	-9732
トランプ	-9733
されてしまう	-9734
Un	-9735
敗戦	-9736
注文	-9737
スコア	-9738
が発生し	-9739
に必要な	-9740
の道	-9741
任期	-9742
景観	-9743
の製造	-9744
中華民国	-9745
していることが	-9746
に合格	-9747
に立つ	-9748
公式サイト	-9749
ラマ	-9750
青山	-9751
飲食	-9752
詳細は	-9753
ことになり	-9754
知っている	-9755
2、	-9756
運動の	-9757
▁1960	-9758
ダイヤモンド	-9759
倉庫	-9760
官房	-9761
法的	-9762
真理	-9763
編曲	-9764
大規模	-9765
せられる	-9766
アシスト	-9767
などにより	-9768
は新	-9769
原稿	-9770
記事を	-9771
オリジナルの	-9772
04	-9773
GA	-9774
専念	-9775
辞職	-9776
その一方で	-9777
ee	-9778
地名	-9779
ダイナ	-9780
と言える	-9781
法廷	-9782
ium	-9783
ナップ	-9784
の一部を	-9785
しておらず	-9786
近くに	-9787
アレンジ	-9788
四十	-9789
橋本	-9790
の方向	-9791
チップ	-9792
タクシー	-9793
役として	-9794
codice	-9795
付けられている	-9796
へた	-9797
叩き	-9798
跡を	-9799
電灯	-9800
が多数	-9801
と評価	-9802
著作権	-9803
静かに	-9804
が始まり	-9805
デザイナー	-9806
近藤	-9807
歳以上	-9808
地域では	-9809
に代わって	-9810
TE	-9811
ひき	-9812
タス	-9813
永遠	-9814
の映画	-9815
んでも	-9816
アルメ	-9817
クイズ	-9818
具体的な	-9819
に頼	-9820
山陽	-9821
の位置	-9822
働いた	-9823
出来た	-9824
発見した	-9825
が作	-9826
に導	-9827
南海	-9828
し始めた	-9829
ごとの	-9830
マスコ	-9831
が目	-9832
を博	-9833
充実	-9834
チェコ	-9835
だったという	-9836
壊滅	-9837
敵対	-9838
言を	-9839
セーブ	-9840
1977	-9841
最後まで	-9842
スティーヴ	-9843
ことであった	-9844
2.	-9845
の王	-9846
まっ	-9847
大坂	-9848
心は	-9849
ux	-9850
うん	-9851
回戦	-9852
ベンチ	-9853
ミドル	-9854
、1972	-9855
本名	-9856
を重ね	-9857
シネマ	-9858
これに対し	-9859
恒星	-9860
海域	-9861
立憲	-9862
-16	-9863
訪れた	-9864
ハロ	-9865
互換	-9866
豊臣	-9867
ann	-9868
ier	-9869
りして	-9870
議会は	-9871
豊かな	-9872
イースト	-9873
高く評価	-9874
自体	-9875
十分に	-9876
カプ	-9877
ナラ	-9878
・2	-9879
三河	-9880
入植	-9881
村上	-9882
被災	-9883
者たち	-9884
CA	-9885
▁北	-9886
電圧	-9887
rou	-9888
を通り	-9889
エント	-9890
これには	-9891
廃止され	-9892
▁コ	-9893
南の	-9894
復元	-9895
挙げた	-9896
のみである	-9897
▁翌	-9898
定め	-9899
歌唱	-9900
米国の	-9901
をテーマ	-9902
、1983	-9903
の数	-9904
幼稚	-9905
承知	-9906
有料	-9907
質量	-9908
主張した	-9909
に入団	-9910
――」「	-9911
ガソリン	-9912
相互作用	-9913
マサチューセッツ	-9914
水上	-9915
アクセ	-9916
に叙	-9917
並ぶ	-9918
法令	-9919
ることは	-9920
年半	-9921
水路	-9922
発揮	-9923
講談	-9924
ベック	-9925
宮城県	-9926
が初めて	-9927
、1975	-9928
。1994	-9929
ウェールズ	-9930
キの	-9931
ツォ	-9932
市川	-9933
読者	-9934
DP	-9935
を自	-9936
モス	-9937
形を	-9938
世界に	-9939
会社は	-9940
どういう	-9941
てん	-9942
を積	-9943
ツイ	-9944
発明	-9945
谷の	-9946
たれた	-9947
一般の	-9948
砲塔	-9949
を取った	-9950
天下	-9951
書簡	-9952
この場合	-9953
どちらも	-9954
右翼	-9955
ブール	-9956
置かれ	-9957
シアター	-9958
例は	-9959
国外	-9960
生は	-9961
個々の	-9962
が施	-9963
世を	-9964
叫び	-9965
島津	-9966
ユーゴ	-9967
とは別に	-9968
本人	-9969
確率	-9970
ABC	-9971
を宣言	-9972
世代の	-9973
に終わり	-9974
年代初頭	-9975
するの	-9976
賞の	-9977
スカウト	-9978
のことである	-9979
式は	-9980
燃焼	-9981
スイッチ	-9982
と第	-9983
抜擢	-9984
良好	-9985
製作された	-9986
だけではなく	-9987
歩行	-9988
のもとで	-9989
存じ	-9990
干渉	-9991
洪水	-9992
軍勢	-9993
戦った	-9994
オリコン	-9995
アメリカ人	-9996
▁あ	-9997
元禄	-9998
直ちに	-9999
計画が	-10000
無かった	-10001
▁1997	-10002
公の	-10003
重い	-10004
なのだ	-10005
を用い	-10006
ブログ	-10007
従業員	-10008
をもとに	-10009
知られた	-10010
▁1995	-10011
化粧	-10012
応募	-10013
秋の	-10014
西の	-10015
オーナー	-10016
近年では	-10017
に対しても	-10018
05	-10019
タナ	-10020
メリ	-10021
微笑	-10022
の変化	-10023
ようで	-10024
事業者	-10025
どろ	-10026
ツは	-10027
遂に	-10028
res	-10029
が日本	-10030
に登録	-10031
関係は	-10032
りながら	-10033
回想	-10034
後方	-10035
政官	-10036
暗号	-10037
消え	-10038
石井	-10039
育った	-10040
試合に登板	-10041
▁イ	-10042
んですよ	-10043
大橋	-10044
ace	-10045
語った	-10046
を構成する	-10047
五位	-10048
打席	-10049
を依頼	-10050
会社が	-10051
マーシャル	-10052
Hz	-10053
べる	-10054
概ね	-10055
ままで	-10056
ワール	-10057
を取って	-10058
ペルシア	-10059
チャレンジ	-10060
開始された	-10061
おや	-10062
首位	-10063
の中国	-10064
番組である	-10065
行われていた	-10066
薄い	-10067
長編	-10068
はもう	-10069
クリスマス	-10070
難い	-10071
だけでも	-10072
が無い	-10073
父親の	-10074
プロセス	-10075
キャスター	-10076
改装	-10077
染色	-10078
ムハンマド	-10079
の妻	-10080
掘り	-10081
じゃあ	-10082
そのとき	-10083
を発表し	-10084
ぼん	-10085
傘下	-10086
化は	-10087
業者	-10088
現状	-10089
陰謀	-10090
アーム	-10091
オレンジ	-10092
、1982	-10093
の父	-10094
倍の	-10095
幾つか	-10096
サスペン	-10097
開催され	-10098
08	-10099
スで	-10100
見れば	-10101
定理	-10102
月は	-10103
解雇	-10104
メソ	-10105
族は	-10106
馬身	-10107
-12	-10108
以降に	-10109
お母	-10110
シの	-10111
天王	-10112
法学	-10113
特集	-10114
られてきた	-10115
コンクール	-10116
(,	-10117
高原	-10118
アール	-10119
やっぱり	-10120
を飾った	-10121
▁=	-10122
区に	-10123
墜落	-10124
統括	-10125
っちゃ	-10126
あたりの	-10127
をさ	-10128
或は	-10129
rit	-10130
バンドの	-10131
報じられた	-10132
センチメートル	-10133
PlayStation	-10134
世間	-10135
わたり	-10136
を出て	-10137
心理学	-10138
1966	-10139
庶民	-10140
葬儀	-10141
が生じる	-10142
を書いた	-10143
に追	-10144
シウム	-10145
と親	-10146
に提	-10147
二軍	-10148
頭が	-10149
の前で	-10150
を研究	-10151
厳しく	-10152
なのである	-10153
sp	-10154
討伐	-10155
類は	-10156
タケ	-10157
大切	-10158
工夫	-10159
変わり	-10160
つつある	-10161
財団法人	-10162
チャンピオンシップ	-10163
トマ	-10164
形に	-10165
歌う	-10166
ビルの	-10167
機関の	-10168
いており	-10169
シンガー	-10170
システムは	-10171
CH	-10172
こゝ	-10173
力に	-10174
社団	-10175
付近の	-10176
列車は	-10177
記録は	-10178
FIFA	-10179
しまつた	-10180
グラフィック	-10181
御用	-10182
策定	-10183
要件	-10184
」・「	-10185
ビーチ	-10186
取り組み	-10187
グラウンド	-10188
ハミ	-10189
各国	-10190
投与	-10191
最適	-10192
ram	-10193
ストップ	-10194
日立	-10195
つである	-10196
それ以外の	-10197
カウ	-10198
に出る	-10199
ようだ	-10200
受ける	-10201
のですが	-10202
、1976	-10203
云い	-10204
債務	-10205
現れ	-10206
SM	-10207
港湾	-10208
ませぬ	-10209
ラップ	-10210
定められた	-10211
コレ	-10212
党が	-10213
前田	-10214
と発言	-10215
ムスリ	-10216
というのが	-10217
三日	-10218
ダーク	-10219
上から	-10220
いきなり	-10221
立っている	-10222
マシ	-10223
可決	-10224
廃棄	-10225
検索	-10226
滋賀	-10227
物や	-10228
返り	-10229
ヘリコプター	-10230
(9	-10231
パック	-10232
時期は	-10233
の作	-10234
宝塚	-10235
空中	-10236
▁cm	-10237
を進め	-10238
地中海	-10239
ことにした	-10240
形が	-10241
と改名	-10242
の光	-10243
前身	-10244
形式の	-10245
苦しい	-10246
が急	-10247
岡崎	-10248
気圧	-10249
-20	-10250
isc	-10251
から一	-10252
会議で	-10253
ザクセン	-10254
であること	-10255
ウォーター	-10256
することもある	-10257
DO	-10258
の目	-10259
返す	-10260
きゅう	-10261
思わず	-10262
チェーン	-10263
ッシャー	-10264
ぶら	-10265
脂肪	-10266
にこの	-10267
ナード	-10268
を避ける	-10269
さなかった	-10270
したもので	-10271
へ進	-10272
農村	-10273
城は	-10274
尾張	-10275
望遠	-10276
独裁	-10277
繋が	-10278
金銭	-10279
フェルト	-10280
世紀から	-10281
ナビ	-10282
内蔵	-10283
撃墜	-10284
代表として	-10285
を欠	-10286
明智	-10287
釣り	-10288
黒人	-10289
冷却	-10290
成る	-10291
熱心	-10292
表紙	-10293
ライド	-10294
生活を送	-10295
日光	-10296
日産	-10297
楕円	-10298
視覚	-10299
App	-10300
以降も	-10301
神奈川	-10302
結果は	-10303
に次いで	-10304
卒業後は	-10305
SL	-10306
予約	-10307
情勢	-10308
水産	-10309
研究会	-10310
とうとう	-10311
に達した	-10312
動か	-10313
牧師	-10314
鳥の	-10315
コーン	-10316
何とか	-10317
少しも	-10318
博多	-10319
ニックス	-10320
市と	-10321
所長	-10322
技師	-10323
ミット	-10324
慶応	-10325
ントの	-10326
得られる	-10327
セッション	-10328
。。	-10329
くも	-10330
タバ	-10331
摂取	-10332
その際	-10333
エット	-10334
発電所	-10335
▁それから	-10336
のであります	-10337
ug	-10338
ヒン	-10339
出版社	-10340
があると	-10341
というものは	-10342
に付	-10343
リヤ	-10344
三浦	-10345
東大	-10346
通し	-10347
を否定	-10348
いけない	-10349
で知られる	-10350
ひら	-10351
州立	-10352
稼働	-10353
を示し	-10354
スピン	-10355
新潟県	-10356
そもそも	-10357
にわたり	-10358
。1991	-10359
RI	-10360
反撃	-10361
年が	-10362
手な	-10363
▁An	-10364
シェイ	-10365
ブリン	-10366
各国の	-10367
立てた	-10368
さらなる	-10369
同時期に	-10370
キャンパス	-10371
海底	-10372
くなって	-10373
を被	-10374
イア	-10375
コク	-10376
倫理	-10377
性愛	-10378
色に	-10379
工学部	-10380
キャップ	-10381
でデビュー	-10382
くん	-10383
ロは	-10384
控え	-10385
付近で	-10386
わい	-10387
交際	-10388
告白	-10389
後で	-10390
科医	-10391
将軍の	-10392
と結婚した	-10393
06	-10394
Sh	-10395
ルフ	-10396
座に	-10397
特典	-10398
カーの	-10399
肖像画	-10400
▁サ	-10401
品種	-10402
少な	-10403
広報	-10404
株主	-10405
食事	-10406
衆議院	-10407
を利用した	-10408
日をもって	-10409
力士	-10410
順に	-10411
をまと	-10412
主導	-10413
南京	-10414
当駅	-10415
、1971	-10416
めで	-10417
ソウ	-10418
年目	-10419
日と	-10420
毎に	-10421
驚いた	-10422
倶楽	-10423
傍ら	-10424
番台	-10425
確か	-10426
、1945	-10427
ショッピング	-10428
ファンタジー	-10429
示されている	-10430
Sp	-10431
を誘	-10432
業を	-10433
砂漠	-10434
単純な	-10435
モバイル	-10436
どん	-10437
万枚	-10438
道が	-10439
の中を	-10440
ystem	-10441
堆積	-10442
暫く	-10443
蜂起	-10444
行つた	-10445
失敗した	-10446
けの	-10447
しと	-10448
対称	-10449
いかなる	-10450
代々	-10451
川と	-10452
▁Th	-10453
ステー	-10454
と思うと	-10455
沿いに	-10456
出資	-10457
の指導	-10458
を建て	-10459
を追加	-10460
共通の	-10461
失われた	-10462
されることもある	-10463
差で	-10464
水に	-10465
笠原	-10466
ニール	-10467
広大な	-10468
父親は	-10469
が始まる	-10470
提案した	-10471
の字	-10472
行な	-10473
その一	-10474
外務省	-10475
深刻な	-10476
ともいう	-10477
の美	-10478
セフ	-10479
大使館	-10480
1962	-10481
セントラル	-10482
ros	-10483
▁re	-10484
セキュ	-10485
原子力	-10486
国際連合	-10487
年を	-10488
繁栄	-10489
退役	-10490
の人物	-10491
ハイオ	-10492
暮らし	-10493
シチ	-10494
に渡り	-10495
エンス	-10496
モンテ	-10497
していることを	-10498
好意	-10499
お前は	-10500
ストレート	-10501
受けて	-10502
プロモーション	-10503
DJ	-10504
たか	-10505
の時	-10506
御座	-10507
牝馬	-10508
者であり	-10509
oci	-10510
めない	-10511
広島県	-10512
ほんとう	-10513
えん	-10514
度か	-10515
朝は	-10516
なにか	-10517
大いに	-10518
、100	-10519
ダニエル	-10520
、1981	-10521
方程	-10522
牡馬	-10523
ove	-10524
▁TO	-10525
世界で	-10526
1940	-10527
を結び	-10528
マイン	-10529
ージュ	-10530
マスコミ	-10531
復讐	-10532
無限	-10533
の命	-10534
パレ	-10535
▁Un	-10536
が困難	-10537
ストリ	-10538
速度は	-10539
に乗って	-10540
することができた	-10541
に初	-10542
ray	-10543
テルの	-10544
労働組合	-10545
次のように	-10546
得票	-10547
本質	-10548
結果的に	-10549
。1993	-10550
ミナ	-10551
リラ	-10552
併設	-10553
全般	-10554
原料	-10555
悲劇	-10556
言ふ	-10557
の制作	-10558
バキア	-10559
ボラン	-10560
飛行機	-10561
トップチーム	-10562
とす	-10563
関連の	-10564
繰り返し	-10565
っていなかった	-10566
和平	-10567
時台	-10568
。13	-10569
とは思	-10570
のカ	-10571
オイル	-10572
ゲット	-10573
シェア	-10574
ライヴ	-10575
ヴァイオリン	-10576
NC	-10577
有する	-10578
、1968	-10579
ツク	-10580
の時代	-10581
切り替	-10582
▁上	-10583
中島	-10584
学ぶ	-10585
着用	-10586
隠し	-10587
祭り	-10588
ool	-10589
フルト	-10590
ロビン	-10591
あります	-10592
▁これらの	-10593
配慮	-10594
に挑戦	-10595
を考慮	-10596
シンボル	-10597
を担当する	-10598
者となった	-10599
いかに	-10600
クロアチア	-10601
メンバーの	-10602
に因	-10603
立派な	-10604
▁FIFA	-10605
パシ	-10606
伝達	-10607
加賀	-10608
学士	-10609
に到達	-10610
入場	-10611
コンド	-10612
bo	-10613
ちの	-10614
邸宅	-10615
にかけ	-10616
こととなる	-10617
はいずれも	-10618
レンジャー	-10619
何故	-10620
が完成	-10621
患者の	-10622
告発	-10623
歌の	-10624
農林	-10625
ピール	-10626
、1979	-10627
を構	-10628
土木	-10629
白人	-10630
驚く	-10631
場所は	-10632
に置き換	-10633
うて	-10634
に面	-10635
乗組	-10636
くると	-10637
グリー	-10638
落ちて	-10639
された後	-10640
を備えた	-10641
フィギュ	-10642
▁1991	-10643
ることができる	-10644
南米	-10645
盤の	-10646
フュー	-10647
人材	-10648
夜間	-10649
立た	-10650
たとえ	-10651
テニス	-10652
ユーゴスラ	-10653
さも	-10654
をく	-10655
ズと	-10656
併用	-10657
覚悟	-10658
を制作	-10659
チョウ	-10660
ブリー	-10661
する方法	-10662
の可能性	-10663
ローマの	-10664
とコメント	-10665
オスマン帝国	-10666
に特	-10667
アタ	-10668
尋ね	-10669
えたが	-10670
ぐらい	-10671
大日本	-10672
意味で	-10673
カナダの	-10674
注目を集	-10675
を受賞した	-10676
が搭載	-10677
ウィー	-10678
ベリア	-10679
医学部	-10680
ています	-10681
えなかった	-10682
を示している	-10683
勧告	-10684
ユーザ	-10685
の一部が	-10686
、1977	-10687
を任	-10688
を促	-10689
救済	-10690
陸軍の	-10691
たくさん	-10692
ジョンの	-10693
リトアニア	-10694
に指定されている	-10695
永禄	-10696
まりの	-10697
が手	-10698
エミ	-10699
ズル	-10700
ニク	-10701
日も	-10702
砲兵	-10703
飛んで	-10704
1963	-10705
それらは	-10706
ベンチャー	-10707
ジェネ	-10708
茨城県	-10709
どのような	-10710
雄は	-10711
機関銃	-10712
的なもの	-10713
。1992	-10714
洞窟	-10715
触れ	-10716
馴染	-10717
ile	-10718
を担う	-10719
▁日本の	-10720
トロン	-10721
に大きく	-10722
がと	-10723
模型	-10724
親衛	-10725
軽減	-10726
ニーは	-10727
ヴィア	-10728
全体を	-10729
ミラー	-10730
科学的	-10731
主人公の	-10732
大統領の	-10733
人事	-10734
尊敬	-10735
性や	-10736
に出走	-10737
モデルは	-10738
増加した	-10739
、1973	-10740
によるもの	-10741
ようになって	-10742
HT	-10743
Web	-10744
を申し	-10745
国際的な	-10746
が起こった	-10747
を向	-10748
就職	-10749
入って	-10750
かなりの	-10751
一定	-10752
前進	-10753
が登場	-10754
先生の	-10755
望遠鏡	-10756
死した	-10757
だんだん	-10758
、1978	-10759
プロテスタント	-10760
アサ	-10761
但し	-10762
力と	-10763
環状	-10764
立体	-10765
Blu	-10766
の主題	-10767
らせて	-10768
両者の	-10769
1944	-10770
であるか	-10771
チームメイト	-10772
BL	-10773
が分	-10774
学長	-10775
名前の	-10776
ギタ	-10777
志願	-10778
真珠	-10779
領の	-10780
とは言	-10781
の一員	-10782
周波数	-10783
問題が	-10784
この年は	-10785
する際に	-10786
を助	-10787
セグ	-10788
退任	-10789
後述の	-10790
ivers	-10791
キャプテン	-10792
ミャ	-10793
三国	-10794
商標	-10795
月中	-10796
読む	-10797
計画の	-10798
アナログ	-10799
HC	-10800
No	-10801
不幸	-10802
享保	-10803
親友	-10804
市街地	-10805
1930	-10806
アーサー	-10807
依然として	-10808
したことにより	-10809
に入れた	-10810
アプロー	-10811
失点	-10812
数日	-10813
を題材	-10814
ドリーム	-10815
リーグ優勝	-10816
室で	-10817
田町	-10818
APAN	-10819
わかった	-10820
テキスト	-10821
ディフェン	-10822
TD	-10823
拒絶	-10824
参加し	-10825
研究者	-10826
インタビューで	-10827
別名	-10828
狩猟	-10829
ケード	-10830
史上初の	-10831
シエ	-10832
出現	-10833
大量	-10834
シード	-10835
事件は	-10836
が起こり	-10837
ハハ	-10838
休み	-10839
馬場	-10840
スリー	-10841
友人の	-10842
ッキング	-10843
すり	-10844
南極	-10845
好評	-10846
改訂	-10847
典型的な	-10848
契約を結んだ	-10849
arl	-10850
が強く	-10851
人間は	-10852
にあたって	-10853
FO	-10854
ぎり	-10855
安政	-10856
ogle	-10857
▁Sch	-10858
の裏	-10859
持続	-10860
たちと	-10861
どもの	-10862
の状態	-10863
シミュ	-10864
といえば	-10865
が開発	-10866
EX	-10867
省略	-10868
識別	-10869
場所で	-10870
どのように	-10871
選手権では	-10872
An	-10873
ax	-10874
信長	-10875
宮城	-10876
落下	-10877
さんも	-10878
に移った	-10879
パーティー	-10880
から発売された	-10881
ii	-10882
uk	-10883
ギス	-10884
下記	-10885
old	-10886
▁ところが	-10887
▁天	-10888
を払	-10889
ペラ	-10890
併せて	-10891
決定戦	-10892
開業した	-10893
ランクイン	-10894
FF	-10895
内戦	-10896
藩士	-10897
部隊が	-10898
アリーナ	-10899
さへ	-10900
タラ	-10901
ダは	-10902
貫通	-10903
が出る	-10904
までが	-10905
スピー	-10906
事から	-10907
ひとつの	-10908
オフィス	-10909
居ります	-10910
所在する	-10911
発見され	-10912
切断	-10913
ザス	-10914
基の	-10915
庁の	-10916
論の	-10917
オンの	-10918
近年は	-10919
usic	-10920
ひそ	-10921
タは	-10922
なれば	-10923
よって	-10924
ローラ	-10925
得ない	-10926
ジャイアン	-10927
だね	-10928
セク	-10929
十六	-10930
血管	-10931
クラブの	-10932
することに	-10933
ローマ帝国	-10934
コラボレーション	-10935
抹消	-10936
の設計	-10937
技術を	-10938
わっていた	-10939
はあ	-10940
三人	-10941
安価	-10942
療養	-10943
グレー	-10944
を聞いた	-10945
年連続で	-10946
やし	-10947
わす	-10948
サント	-10949
セリエ	-10950
を介して	-10951
を集めた	-10952
▁長	-10953
冬の	-10954
延び	-10955
じっと	-10956
メット	-10957
敗れた	-10958
簡単に	-10959
と比較して	-10960
原則として	-10961
薬物	-10962
そうと	-10963
トンの	-10964
乗った	-10965
将来の	-10966
だけでは	-10967
デリック	-10968
、1974	-10969
支部	-10970
表題	-10971
に出場し	-10972
▁1992	-10973
新型コロナウイルス	-10974
木材	-10975
ユニバーサル	-10976
コは	-10977
幹事	-10978
ヘリ	-10979
体調	-10980
面が	-10981
馬が	-10982
に当た	-10983
ラード	-10984
沖縄県	-10985
と対戦し	-10986
させられた	-10987
ホッ	-10988
友好	-10989
東方	-10990
演習	-10991
神殿	-10992
前後の	-10993
求める	-10994
▁You	-10995
ますます	-10996
ソワ	-10997
タイガ	-10998
何でも	-10999
明確に	-11000
取り上げ	-11001
するところ	-11002
",	-11003
名詞	-11004
王妃	-11005
砂糖	-11006
の一部は	-11007
雨が	-11008
の人気	-11009
フェリー	-11010
バルセロナ	-11011
と考えていた	-11012
SH	-11013
事前に	-11014
に備	-11015
ニル	-11016
トイレ	-11017
医薬品	-11018
年頃に	-11019
磁気	-11020
艦長	-11021
部屋の	-11022
この年の	-11023
放送開始	-11024
不振	-11025
中期	-11026
住友	-11027
肯定	-11028
並びに	-11029
面では	-11030
によつて	-11031
州は	-11032
描く	-11033
東急	-11034
語が	-11035
出身で	-11036
社団法人	-11037
パレスチナ	-11038
5,	-11039
af	-11040
具合	-11041
吉の	-11042
賞を	-11043
マリオ	-11044
名義で	-11045
研究の	-11046
フィラデルフィア	-11047
族が	-11048
法に	-11049
銀座	-11050
ott	-11051
お前の	-11052
が存在し	-11053
が生じた	-11054
経済学部	-11055
をもたらした	-11056
昔の	-11057
標的	-11058
知の	-11059
沿いの	-11060
つかない	-11061
○○	-11062
たの	-11063
一寸	-11064
生態	-11065
と並んで	-11066
として使用	-11067
新設された	-11068
SO	-11069
じい	-11070
伝記	-11071
捕獲	-11072
照明	-11073
短く	-11074
るもの	-11075
総理大臣	-11076
で行われる	-11077
両が	-11078
予告	-11079
人格	-11080
河原	-11081
総長	-11082
を派遣	-11083
ブラザ	-11084
っそ	-11085
ハマ	-11086
敗で	-11087
書類	-11088
おまえ	-11089
という名称	-11090
に出演した	-11091
ケネ	-11092
ボブ	-11093
侵害	-11094
すこし	-11095
戦争で	-11096
ゾー	-11097
北方	-11098
次は	-11099
はないが	-11100
指摘されている	-11101
木が	-11102
集会	-11103
を説明	-11104
苦しみ	-11105
ジャクソン	-11106
今後	-11107
王位	-11108
表明	-11109
赤字	-11110
わせた	-11111
ワース	-11112
オファー	-11113
パーティ	-11114
、1969	-11115
グア	-11116
出席	-11117
四日	-11118
舞い	-11119
は他の	-11120
あなたの	-11121
クラーク	-11122
▁1993	-11123
アメリカ軍	-11124
わら	-11125
中日	-11126
元素	-11127
前方	-11128
宮の	-11129
に利用	-11130
▁THE	-11131
を決める	-11132
日本人の	-11133
ーリ	-11134
余裕	-11135
"、	-11136
地質	-11137
ジョル	-11138
命じた	-11139
限りで	-11140
スポット	-11141
に所属する	-11142
感を	-11143
の名は	-11144
を指揮	-11145
かという	-11146
なくては	-11147
日からは	-11148
サービスの	-11149
と同じように	-11150
みや	-11151
俳句	-11152
商人	-11153
王に	-11154
見せ	-11155
スミス	-11156
ベール	-11157
付きの	-11158
各地に	-11159
を引き起こす	-11160
が上	-11161
出生	-11162
立地	-11163
▁on	-11164
ブドウ	-11165
影響を与えた	-11166
試合に出場し	-11167
uc	-11168
艦の	-11169
落語	-11170
を守る	-11171
を追い	-11172
アーノ	-11173
olog	-11174
。1950	-11175
09	-11176
懲役	-11177
越前	-11178
なくて	-11179
ビーム	-11180
ブライアン	-11181
東日本大震災	-11182
年俸	-11183
ランス	-11184
鉄道は	-11185
。1989	-11186
がなされた	-11187
を破り	-11188
川を	-11189
▁st	-11190
には至	-11191
を通る	-11192
新聞の	-11193
▁アメリカ合衆国	-11194
団は	-11195
市販	-11196
様は	-11197
津波	-11198
聞く	-11199
艦艇	-11200
を執筆	-11201
歳から	-11202
貴重な	-11203
ハインリヒ	-11204
去る	-11205
普段	-11206
体である	-11207
)「	-11208
かねて	-11209
に敗れ	-11210
国内で	-11211
社長の	-11212
したので	-11213
出身の元	-11214
来ている	-11215
消滅した	-11216
であったという	-11217
BI	-11218
子も	-11219
略奪	-11220
▁Sh	-11221
に続く	-11222
起こる	-11223
を大きく	-11224
にかけての	-11225
にい	-11226
含む	-11227
直前の	-11228
福島県	-11229
オハイオ	-11230
フレッド	-11231
っていました	-11232
満ち	-11233
箱根	-11234
さんと	-11235
現存する	-11236
残留	-11237
関節	-11238
▁そう	-11239
路線は	-11240
PA	-11241
Th	-11242
値は	-11243
加速	-11244
城に	-11245
賞金	-11246
アウグ	-11247
最古の	-11248
▁二	-11249
「『	-11250
戦力	-11251
を買収	-11252
様子が	-11253
プリント	-11254
基本的には	-11255
KI	-11256
けに	-11257
噴火	-11258
塗り	-11259
専務	-11260
意義	-11261
を開き	-11262
▁バ	-11263
尋常	-11264
風俗	-11265
が生じ	-11266
ガイド	-11267
クリエイ	-11268
準決勝で	-11269
があります	-11270
▁e	-11271
▁リ	-11272
しめ	-11273
まゝ	-11274
太鼓	-11275
木造	-11276
直前	-11277
航行	-11278
通勤	-11279
は後に	-11280
博士の	-11281
少年の	-11282
があるため	-11283
を閉	-11284
ピオ	-11285
僅か	-11286
公益	-11287
神田	-11288
ダメージ	-11289
▁1994	-11290
という名前	-11291
フィギュア	-11292
を食	-11293
中退	-11294
大気	-11295
求められる	-11296
祖先	-11297
程の	-11298
聖母	-11299
ung	-11300
の楽曲	-11301
共和党	-11302
後者は	-11303
短期間	-11304
を広	-11305
仮定	-11306
山下	-11307
甚だ	-11308
再開発	-11309
テレビ東京	-11310
が発売された	-11311
ことがあった	-11312
シリーズでは	-11313
誰が	-11314
国土交通	-11315
大統領は	-11316
パロ	-11317
マケ	-11318
一が	-11319
シオン	-11320
関係を	-11321
バイパス	-11322
アメリカでは	-11323
州に	-11324
大型の	-11325
に対応する	-11326
楽天	-11327
▁アル	-11328
ギタリスト	-11329
ンが	-11330
兵が	-11331
吉野	-11332
度で	-11333
兵衛は	-11334
、1930	-11335
に到着した	-11336
ファイター	-11337
することができ	-11338
ザイ	-11339
チリ	-11340
平面	-11341
筑波	-11342
と表現	-11343
サーバ	-11344
が大きい	-11345
ユーゴスラビア	-11346
並び	-11347
実況	-11348
筋肉	-11349
貸し	-11350
に進出	-11351
シフト	-11352
一人で	-11353
シュタット	-11354
にや	-11355
中隊	-11356
女性は	-11357
帰った	-11358
行動を	-11359
評議会	-11360
キーボード	-11361
派が	-11362
突撃	-11363
過激	-11364
と呼称	-11365
、1964	-11366
みつ	-11367
ッテ	-11368
ood	-11369
ートは	-11370
日間の	-11371
活動が	-11372
1500	-11373
を開いた	-11374
ジャージー	-11375
MF	-11376
▁本作	-11377
かかり	-11378
教育の	-11379
アイデア	-11380
ジメント	-11381
描かれる	-11382
と主張した	-11383
奉公	-11384
総称	-11385
演じる	-11386
▁1989	-11387
グループは	-11388
デザインは	-11389
捕食	-11390
講座	-11391
記した	-11392
れません	-11393
制定された	-11394
攻勢	-11395
先生は	-11396
を連れて	-11397
対空	-11398
幾何	-11399
施工	-11400
確信	-11401
ブロー	-11402
を越えて	-11403
ジョンは	-11404
していたという	-11405
孤立	-11406
生放送	-11407
重大な	-11408
社に	-11409
考察	-11410
したほか	-11411
が全	-11412
職の	-11413
ボウル	-11414
ようにして	-11415
するようになり	-11416
EM	-11417
とて	-11418
改編	-11419
至る	-11420
郷土	-11421
順調	-11422
チームを	-11423
年時点で	-11424
に過ぎない	-11425
刺史	-11426
テレビの	-11427
らとともに	-11428
クビ	-11429
二の	-11430
党首	-11431
薬剤	-11432
診療	-11433
認証	-11434
我々は	-11435
東京帝国大学	-11436
ウエ	-11437
増強	-11438
目撃	-11439
祖母	-11440
the	-11441
フェリ	-11442
、1967	-11443
。1945	-11444
助言	-11445
思考	-11446
恐竜	-11447
eat	-11448
シリーズは	-11449
位と	-11450
小川	-11451
平等	-11452
日目	-11453
末の	-11454
ひどい	-11455
批評家	-11456
LD	-11457
あが	-11458
一杯	-11459
完結	-11460
数千	-11461
▁Ex	-11462
横浜市	-11463
所有する	-11464
違いない	-11465
れなかった	-11466
わけではなく	-11467
▁ハ	-11468
ベア	-11469
木曜	-11470
姿を消	-11471
タイムズ	-11472
入る	-11473
司祭	-11474
野党	-11475
年以来	-11476
しやすい	-11477
マレーシア	-11478
WS	-11479
フが	-11480
今も	-11481
紙幣	-11482
を歴任	-11483
を製造	-11484
ミステ	-11485
前年の	-11486
ピエール	-11487
参加している	-11488
3)	-11489
事な	-11490
元帥	-11491
蓄積	-11492
野郎	-11493
-6,	-11494
先進	-11495
の監督	-11496
リッジ	-11497
られていない	-11498
2』	-11499
▁正	-11500
採掘	-11501
その上	-11502
トマス	-11503
ビッド	-11504
作品に	-11505
始めて	-11506
映画は	-11507
認めた	-11508
セカンド	-11509
弾圧	-11510
視察	-11511
▁では	-11512
インの	-11513
資金を	-11514
されたり	-11515
を図った	-11516
と評している	-11517
の会	-11518
バマ	-11519
助は	-11520
号が	-11521
島で	-11522
行事	-11523
に専念	-11524
ックスは	-11525
データベース	-11526
が設置されている	-11527
▁ただし	-11528
はそのまま	-11529
の一つとして	-11530
ディスプレイ	-11531
切る	-11532
玩具	-11533
症候	-11534
発注	-11535
順序	-11536
主義者	-11537
全体が	-11538
社会党	-11539
高校生	-11540
PP	-11541
の初	-11542
アベ	-11543
王が	-11544
石は	-11545
タンの	-11546
黙って	-11547
そのために	-11548
兵は	-11549
妖怪	-11550
文を	-11551
色彩	-11552
に依存	-11553
に来た	-11554
を図る	-11555
チンの	-11556
マンド	-11557
ばかりで	-11558
鹿児島県	-11559
十七	-11560
差異	-11561
▁昭和	-11562
を伴う	-11563
しっかり	-11564
変化する	-11565
定期的に	-11566
のさ	-11567
排出	-11568
総額	-11569
にでも	-11570
作目の	-11571
回大会	-11572
米ドル	-11573
連載された	-11574
ドミ	-11575
伏見	-11576
収穫	-11577
ルーム	-11578
番組で	-11579
答えた	-11580
ソフトバンク	-11581
仲介	-11582
火星	-11583
いつの	-11584
の主人	-11585
構造の	-11586
して来た	-11587
ペンシルベニア	-11588
へ転	-11589
勾配	-11590
以上が	-11591
鉄道が	-11592
アントニオ	-11593
オラ	-11594
同期	-11595
を継承	-11596
インは	-11597
世紀には	-11598
投球	-11599
満州	-11600
に戻る	-11601
ペルー	-11602
についた	-11603
意味する	-11604
いていたが	-11605
こともあって	-11606
を分	-11607
十両	-11608
っこう	-11609
にかかる	-11610
構成される	-11611
の身	-11612
やむ	-11613
アキ	-11614
急激	-11615
son	-11616
をおこ	-11617
を確認	-11618
セラー	-11619
ゼント	-11620
路線の	-11621
決勝では	-11622
東南アジア	-11623
ヴェネツィア	-11624
HS	-11625
フン	-11626
光景	-11627
妻は	-11628
姿が	-11629
甲府	-11630
を記念して	-11631
しているという	-11632
ニヤ	-11633
最上	-11634
参議院議員	-11635
後藤	-11636
部では	-11637
』(19	-11638
は上	-11639
政務	-11640
滅ぼ	-11641
知名	-11642
エルサ	-11643
を免	-11644
求め	-11645
を聞き	-11646
幼稚園	-11647
CR	-11648
残された	-11649
研究所の	-11650
に加わった	-11651
天候	-11652
楽園	-11653
町で	-11654
まわり	-11655
大学校	-11656
りや	-11657
を頼	-11658
に出席	-11659
に生息	-11660
を計画	-11661
を続ける	-11662
名古屋市	-11663
になっても	-11664
だら	-11665
僧侶	-11666
天才	-11667
寛政	-11668
成田	-11669
義の	-11670
肉体	-11671
、1965	-11672
まれており	-11673
ニウム	-11674
に転じた	-11675
メアリー	-11676
国立公園	-11677
用として	-11678
タイミング	-11679
を与えられた	-11680
成人	-11681
所謂	-11682
日々	-11683
閣僚	-11684
らと共に	-11685
リエーション	-11686
▁Q	-11687
有罪	-11688
カウント	-11689
ということで	-11690
CT	-11691
oo	-11692
げん	-11693
カメ	-11694
内陸	-11695
台頭	-11696
城主	-11697
NTT	-11698
の言葉	-11699
エール	-11700
区間は	-11701
月中旬	-11702
▁そこで	-11703
されていなかった	-11704
テラ	-11705
声は	-11706
洗礼	-11707
総会	-11708
」()	-11709
ケンタ	-11710
ヤーの	-11711
映画館	-11712
アルメニア	-11713
明らかになった	-11714
の強	-11715
あれは	-11716
プトン	-11717
次郎は	-11718
で敗れた	-11719
ガーデン	-11720
コンテナ	-11721
。1988	-11722
3.	-11723
掌握	-11724
歌謡	-11725
▁al	-11726
NO	-11727
パイプ	-11728
サークル	-11729
ダンサー	-11730
末期	-11731
村に	-11732
破綻	-11733
食堂	-11734
知らぬ	-11735
殺害された	-11736
セキュリティ	-11737
城下	-11738
理念	-11739
食べる	-11740
などを歴	-11741
に掲載された	-11742
ai	-11743
がす	-11744
じゅ	-11745
を公	-11746
夜に	-11747
幼児	-11748
CPU	-11749
に生まれ	-11750
およびその	-11751
せぬ	-11752
バカ	-11753
部落	-11754
いては	-11755
制作の	-11756
というもの	-11757
シングルス	-11758
スズ	-11759
の名を	-11760
の記録	-11761
ゲオル	-11762
ストア	-11763
会議員	-11764
に向かい	-11765
シーズンに	-11766
とされていた	-11767
スマートフォン	-11768
テス	-11769
メド	-11770
モロ	-11771
道に	-11772
を拡大	-11773
LP	-11774
指令	-11775
セブン	-11776
▁ラ	-11777
の約	-11778
につく	-11779
シニア	-11780
岐阜県	-11781
男性の	-11782
社から	-11783
させると	-11784
などにも	-11785
▁0	-11786
前述	-11787
大韓	-11788
提出	-11789
支給	-11790
を創設	-11791
盛んに	-11792
私には	-11793
群馬県	-11794
日までの	-11795
文政	-11796
最年	-11797
ime	-11798
まらず	-11799
交響曲	-11800
のやうに	-11801
に出場した	-11802
ve	-11803
浜松	-11804
真似	-11805
系は	-11806
と比べて	-11807
と小	-11808
仮想	-11809
半径	-11810
省は	-11811
量子	-11812
を失い	-11813
リアー	-11814
回った	-11815
与えられた	-11816
鑑賞	-11817
でこの	-11818
に掲載	-11819
の手紙	-11820
アンナ	-11821
悲しみ	-11822
客観	-11823
民俗	-11824
が使用	-11825
よかった	-11826
コンサル	-11827
マウント	-11828
で再	-11829
商工	-11830
序盤	-11831
感動	-11832
電化	-11833
ミラノ	-11834
方法は	-11835
本人は	-11836
日に発売された	-11837
スワ	-11838
太守	-11839
標本	-11840
重複	-11841
に転じ	-11842
理由として	-11843
していたことが	-11844
............	-11845
を極	-11846
怪獣	-11847
愛の	-11848
iel	-11849
に合流	-11850
▁1945	-11851
を目指して	-11852
BBC	-11853
に任ぜ	-11854
自動車の	-11855
、“	-11856
を聴	-11857
多用	-11858
抑え	-11859
明日	-11860
粒子	-11861
軽い	-11862
をつく	-11863
をつと	-11864
をもう	-11865
マップ	-11866
先住民	-11867
デビューした	-11868
・3	-11869
原始	-11870
宮内	-11871
際は	-11872
電機	-11873
なんです	-11874
ction	-11875
の金	-11876
工芸	-11877
と同一	-11878
と言ふ	-11879
専門家	-11880
ここから	-11881
me	-11882
▁日	-11883
のエ	-11884
八郎	-11885
次官	-11886
正月	-11887
沢山	-11888
駅間	-11889
と比べ	-11890
不安定	-11891
最後は	-11892
皮切りに	-11893
むら	-11894
ブは	-11895
眼鏡	-11896
を設け	-11897
彼女を	-11898
所から	-11899
日本軍	-11900
1958	-11901
レーザー	-11902
ition	-11903
プログラミング	-11904
に迫	-11905
の根	-11906
皮肉	-11907
トニー	-11908
実業家	-11909
そうです	-11910
決まった	-11911
大宮	-11912
USS	-11913
そこの	-11914
ゲージ	-11915
ロープ	-11916
いかにも	-11917
こちらは	-11918
ディエゴ	-11919
データを	-11920
が新	-11921
外見	-11922
管制	-11923
と言われた	-11924
中佐	-11925
処置	-11926
大蔵	-11927
水雷	-11928
浸透	-11929
熊野	-11930
の人間	-11931
ピッチ	-11932
我々の	-11933
をあげた	-11934
特徴的な	-11935
井は	-11936
分で	-11937
撃破	-11938
調和	-11939
うしろ	-11940
そんなに	-11941
やってきた	-11942
がき	-11943
なじ	-11944
に入れて	-11945
調査では	-11946
私を	-11947
だけである	-11948
なさ	-11949
火を	-11950
適応	-11951
に組み	-11952
マニュ	-11953
リレー	-11954
初期に	-11955
実際は	-11956
明確な	-11957
、1940	-11958
悪く	-11959
、1966	-11960
することがある	-11961
れに	-11962
台詞	-11963
式で	-11964
絶望	-11965
の放送	-11966
バレン	-11967
入りの	-11968
1961	-11969
が出来る	-11970
機として	-11971
が何	-11972
団地	-11973
腕を	-11974
カルト	-11975
タミン	-11976
夫人の	-11977
芸術家	-11978
スクリーン	-11979
で構成される	-11980
一生	-11981
野生	-11982
間接	-11983
に勤務	-11984
を多く	-11985
を表現	-11986
レーン	-11987
のではない	-11988
の森	-11989
有の	-11990
浦和	-11991
あまりに	-11992
が起きた	-11993
ショット	-11994
になったが	-11995
▁当	-11996
三島	-11997
教区	-11998
複製	-11999
講和	-12000
院は	-12001
に属し	-12002
危険な	-12003
京都大学	-12004
歓迎	-12005
満了	-12006
特性	-12007
運搬	-12008
定める	-12009
画家の	-12010
ガールズ	-12011
博士課程	-12012
のでしょう	-12013
による日本の	-12014
住み	-12015
邪魔	-12016
▁II	-12017
ついで	-12018
シスト	-12019
つもりで	-12020
を進める	-12021
トリウム	-12022
知られていた	-12023
up	-12024
山市	-12025
に分布	-12026
発した	-12027
具体的には	-12028
配信された	-12029
▁も	-12030
側で	-12031
進む	-12032
時間に	-12033
ound	-12034
伝えられている	-12035
の底	-12036
室は	-12037
控訴	-12038
高は	-12039
を決め	-12040
研究員	-12041
▁Ser	-12042
引き起こ	-12043
という考え	-12044
坂本	-12045
大人	-12046
正しく	-12047
と思っていた	-12048
の弟	-12049
保全	-12050
格納	-12051
たちも	-12052
に搭載	-12053
を保持	-12054
一方の	-12055
豊富な	-12056
バク	-12057
店で	-12058
石が	-12059
腫瘍	-12060
駅舎	-12061
ったのは	-12062
合せ	-12063
太刀	-12064
実証	-12065
液体	-12066
NFL	-12067
ピスト	-12068
構造は	-12069
人であり	-12070
素晴らしい	-12071
となったため	-12072
が遅	-12073
を全	-12074
合わ	-12075
家老	-12076
打者	-12077
に巻き	-12078
の概念	-12079
1943	-12080
を表明した	-12081
ジョンソン	-12082
ケンタッキー	-12083
探査	-12084
▁これ	-12085
デント	-12086
1956	-12087
Google	-12088
バレーボール	-12089
最強	-12090
椅子	-12091
を可能	-12092
を推進	-12093
事件を	-12094
自分に	-12095
このほか	-12096
とア	-12097
内を	-12098
分は	-12099
綺麗	-12100
に改名	-12101
パリの	-12102
区間の	-12103
古代の	-12104
メンバーは	-12105
ッソ	-12106
ニは	-12107
ホロ	-12108
ron	-12109
を組織	-12110
ブラッド	-12111
されてしまった	-12112
を深	-12113
ニの	-12114
品を	-12115
寺に	-12116
小松	-12117
青木	-12118
音響	-12119
その間	-12120
ディは	-12121
億ドル	-12122
来ました	-12123
設計された	-12124
ございません	-12125
ツと	-12126
圧力	-12127
入りした	-12128
民営	-12129
経歴	-12130
苦痛	-12131
項目	-12132
ないで	-12133
に分割	-12134
を経営	-12135
エンターテインメント	-12136
が取	-12137
オロ	-12138
出で	-12139
去り	-12140
かせて	-12141
過ぎた	-12142
すことが	-12143
オックス	-12144
6,	-12145
同級	-12146
後年	-12147
是非	-12148
補強	-12149
鉄の	-12150
が強い	-12151
の大型	-12152
州刺史	-12153
1959	-12154
。1986	-12155
の書	-12156
武将	-12157
と対立	-12158
落ちた	-12159
当選した	-12160
形成された	-12161
は北	-12162
は長	-12163
八重	-12164
妙に	-12165
還元	-12166
ech	-12167
▁Al	-12168
難しく	-12169
したとき	-12170
ではある	-12171
、1963	-12172
ci	-12173
ズミ	-12174
筆頭	-12175
に努	-12176
納言	-12177
こんだ	-12178
の変	-12179
密接	-12180
物で	-12181
▁こう	-12182
へ出て	-12183
が非常に	-12184
アンティ	-12185
エンタテインメント	-12186
作目	-12187
女を	-12188
客員	-12189
服装	-12190
簡易	-12191
譲り	-12192
閉店	-12193
に尽力	-12194
の四	-12195
タカ	-12196
増え	-12197
復旧	-12198
若者	-12199
除去	-12200
キース	-12201
以後の	-12202
▁すると	-12203
ソニック	-12204
ディーン	-12205
内にある	-12206
IX	-12207
ノの	-12208
外で	-12209
習得	-12210
高野	-12211
たびに	-12212
を知る	-12213
CC	-12214
定住	-12215
閲覧	-12216
ッセイ	-12217
借りて	-12218
進んで	-12219
デバイス	-12220
ラッシュ	-12221
タイトルは	-12222
認められる	-12223
済み	-12224
高田	-12225
楽しむ	-12226
どんなに	-12227
に行った	-12228
万ドルの	-12229
ルートヴィヒ	-12230
制服	-12231
国有	-12232
文句	-12233
曹操	-12234
河口	-12235
聖職	-12236
補償	-12237
誰か	-12238
から離	-12239
ッペ	-12240
側近	-12241
前期	-12242
十四	-12243
に持ち	-12244
ピング	-12245
之助は	-12246
チケット	-12247
が多かった	-12248
コーポ	-12249
同社は	-12250
もとより	-12251
出来なかった	-12252
-9	-12253
交戦	-12254
侯爵	-12255
知的	-12256
ライズ	-12257
商店街	-12258
気に入	-12259
タイトルの	-12260
国際映画祭	-12261
で約	-12262
の事	-12263
厩舎	-12264
生じる	-12265
ジュアル	-12266
▁......	-12267
▁,	-12268
が強	-12269
ピラ	-12270
耐久	-12271
ina	-12272
が導入	-12273
は全て	-12274
をなす	-12275
るような	-12276
をかける	-12277
101	-12278
任意の	-12279
安定した	-12280
のに対して	-12281
ティッシュ	-12282
は西	-12283
ハド	-12284
首脳	-12285
レベルの	-12286
の母	-12287
常識	-12288
沙汰	-12289
もいる	-12290
を上げ	-12291
この時の	-12292
リゾート	-12293
日本でも	-12294
マーティン	-12295
ヨル	-12296
回数	-12297
花は	-12298
Mar	-12299
万円の	-12300
1952	-12301
と考えた	-12302
ファンの	-12303
ベクトル	-12304
アルバムの	-12305
充分	-12306
屋は	-12307
情熱	-12308
首長	-12309
を離れ	-12310
内部の	-12311
単独で	-12312
合って	-12313
終了し	-12314
起用された	-12315
ニエ	-12316
寿命	-12317
戦場	-12318
進み	-12319
の舞台	-12320
ぶりに	-12321
ルーツ	-12322
月の第	-12323
▁」	-12324
飛ぶ	-12325
首席	-12326
からね	-12327
が開業	-12328
スカー	-12329
1946	-12330
▁これは	-12331
ったという	-12332
トの	-12333
ハナ	-12334
が主催	-12335
ケープ	-12336
ダース	-12337
庁所在	-12338
そのほか	-12339
んでいたが	-12340
マンション	-12341
KE	-12342
が本	-12343
役職	-12344
書に	-12345
百合	-12346
はすべて	-12347
フォート	-12348
Apple	-12349
アルゴリズム	-12350
ホールディングス	-12351
がも	-12352
先祖	-12353
取扱	-12354
隣の	-12355
ホラー	-12356
と呼んだ	-12357
ブッシュ	-12358
マネジメント	-12359
拳銃	-12360
近世	-12361
みたいな	-12362
。1985	-12363
ろうとする	-12364
ニューヨークの	-12365
を眺	-12366
ジル	-12367
付与	-12368
疑惑	-12369
Mic	-12370
づくり	-12371
トリオ	-12372
このことは	-12373
利用できる	-12374
りつ	-12375
付く	-12376
天神	-12377
転写	-12378
サード	-12379
略称は	-12380
届け	-12381
採択	-12382
を廃止	-12383
を考え	-12384
入れ替	-12385
警視庁	-12386
に入れる	-12387
ストリー	-12388
重要な役割	-12389
作画	-12390
天体	-12391
機嫌	-12392
殊に	-12393
燃え	-12394
解任	-12395
いっぱ	-12396
を押し	-12397
多大な	-12398
クリーム	-12399
アーケード	-12400
厳密	-12401
子爵	-12402
帯び	-12403
群は	-12404
胸に	-12405
▁ある	-12406
、21	-12407
を殺害	-12408
を確立	-12409
ランカ	-12410
文化的	-12411
細胞の	-12412
を形成する	-12413
シロ	-12414
同人	-12415
隊員	-12416
どうぞ	-12417
の際には	-12418
JA	-12419
が設定	-12420
と合併	-12421
政権の	-12422
と云って	-12423
発行された	-12424
組み合わせた	-12425
うな	-12426
が再	-12427
抽象	-12428
楽章	-12429
異動	-12430
ダート	-12431
1920	-12432
参事	-12433
突如	-12434
薬の	-12435
ult	-12436
ありが	-12437
ホット	-12438
工場で	-12439
した後に	-12440
授与された	-12441
イングランドの	-12442
互に	-12443
急遽	-12444
難民	-12445
を突き	-12446
訪れる	-12447
ものが多い	-12448
選出された	-12449
平は	-12450
が立ち	-12451
アフガニ	-12452
ボーイング	-12453
垂直	-12454
道館	-12455
で使用	-12456
の方は	-12457
をあげ	-12458
スーツ	-12459
ハリー	-12460
リンズ	-12461
英語の	-12462
を超えた	-12463
アプローチ	-12464
成熟	-12465
骨格	-12466
ress	-12467
ムス	-12468
廊下	-12469
必然	-12470
硫黄	-12471
レディ	-12472
1942	-12473
▁1950	-12474
クが	-12475
号機	-12476
後日	-12477
るなど	-12478
を実行	-12479
経由で	-12480
翌年に	-12481
越した	-12482
用いられ	-12483
すみ	-12484
婚約	-12485
1954	-12486
ance	-12487
▁1987	-12488
サウンドトラック	-12489
▁旧	-12490
あわ	-12491
に準	-12492
危惧	-12493
遠慮	-12494
青春	-12495
PER	-12496
グッド	-12497
飛行場	-12498
それらを	-12499
フランソワ	-12500
を交	-12501
反論	-12502
軽く	-12503
れども	-12504
月現在	-12505
に位置し	-12506
▁Comp	-12507
たゞ	-12508
キラ	-12509
中立	-12510
合法	-12511
壁に	-12512
天の	-12513
SNS	-12514
返して	-12515
インフラ	-12516
記載されている	-12517
日野	-12518
のみを	-12519
を着用	-12520
を製作	-12521
副会長	-12522
つかった	-12523
メニュー	-12524
物として	-12525
を仕	-12526
マカ	-12527
付加	-12528
小路	-12529
混同	-12530
阿部	-12531
いたり	-12532
するに	-12533
ソ連の	-12534
バリー	-12535
博覧会	-12536
美しく	-12537
たちまち	-12538
耳を	-12539
虐待	-12540
表す	-12541
マーケ	-12542
半島の	-12543
と言われ	-12544
ノルマン	-12545
したとされる	-12546
差の	-12547
砲弾	-12548
醍醐	-12549
2.5	-12550
Pro	-12551
レアル	-12552
交通の	-12553
大聖堂	-12554
日までに	-12555
こも	-12556
も出	-12557
を訴	-12558
大島	-12559
とくに	-12560
大学は	-12561
認める	-12562
ビートル	-12563
ことも多い	-12564
ゼネ	-12565
面倒	-12566
WBC	-12567
ことによる	-12568
ることになった	-12569
さく	-12570
ダラ	-12571
愉快	-12572
近年の	-12573
してゐた	-12574
クイーン	-12575
に関連する	-12576
RS	-12577
技能	-12578
駅と	-12579
MVP	-12580
デート	-12581
国民党	-12582
方法で	-12583
自然に	-12584
ヒトラー	-12585
ポケモン	-12586
興行収入	-12587
が第	-12588
イノ	-12589
の方針	-12590
できると	-12591
を造	-12592
発し	-12593
ohn	-12594
体育館	-12595
に続いて	-12596
明らかにした	-12597
領事	-12598
が原因	-12599
置かれている	-12600
MT	-12601
車輪	-12602
雪の	-12603
アーキ	-12604
博士号	-12605
自由な	-12606
わたしの	-12607
年代半ば	-12608
。1987	-12609
が含まれる	-12610
出雲	-12611
就役	-12612
暴動	-12613
髪の	-12614
に加盟	-12615
を訪れ	-12616
ルーズ	-12617
叫んだ	-12618
ということが	-12619
コブ	-12620
家畜	-12621
早朝	-12622
果実	-12623
▁当初は	-12624
ウイルスの	-12625
真面	-12626
、1944	-12627
いなかった	-12628
ヴィクトリア	-12629
つが	-12630
と共	-12631
ムシ	-12632
両国	-12633
十九	-12634
通商	-12635
350	-12636
▁それは	-12637
に就いた	-12638
アシスタント	-12639
代表取締役社長	-12640
に会	-12641
をま	-12642
万石	-12643
全土	-12644
馬車	-12645
だけを	-12646
オランダの	-12647
自分たちの	-12648
曲線	-12649
豪華	-12650
ath	-12651
が死去	-12652
ターは	-12653
状況を	-12654
▁現在の	-12655
ジョーンズ	-12656
九郎	-12657
裏に	-12658
につれ	-12659
分野で	-12660
博士は	-12661
年ほど	-12662
しません	-12663
報告した	-12664
っていると	-12665
分を	-12666
愛情	-12667
軍用	-12668
の公	-12669
の開	-12670
厳格	-12671
」("	-12672
の子孫	-12673
を集め	-12674
パーツ	-12675
一時は	-12676
諸国の	-12677
へ行って	-12678
まらない	-12679
撤退した	-12680
と見られる	-12681
プロセッサ	-12682
することなく	-12683
イチ	-12684
石垣	-12685
院で	-12686
人目の	-12687
1941	-12688
land	-12689
に於ける	-12690
、1961	-12691
ics	-12692
ナポリ	-12693
▁一方で	-12694
▁ス	-12695
へい	-12696
むね	-12697
・・	-12698
必須	-12699
東芝	-12700
駄目	-12701
バーの	-12702
性的な	-12703
▁1988	-12704
設けられた	-12705
▁%	-12706
▁南	-12707
改称	-12708
酷な	-12709
で日本	-12710
地には	-12711
自らが	-12712
チオピア	-12713
朝日新聞	-12714
アビ	-12715
口が	-12716
山を	-12717
連敗	-12718
チャル	-12719
ヨハネ	-12720
主人の	-12721
部分に	-12722
▁100	-12723
ホイール	-12724
下流	-12725
老人	-12726
に留学	-12727
を無視	-12728
ドミニ	-12729
言えば	-12730
詳細な	-12731
が見える	-12732
ほとんどは	-12733
務め	-12734
運ぶ	-12735
遠ざ	-12736
が監督	-12737
まさに	-12738
付近に	-12739
労働者の	-12740
きを	-12741
回に	-12742
に使用	-12743
マウス	-12744
ではこの	-12745
スティング	-12746
マンチェスター	-12747
になってしまった	-12748
もお	-12749
寺は	-12750
意気	-12751
散歩	-12752
激怒	-12753
発覚	-12754
菩薩	-12755
ヴィチ	-12756
装置は	-12757
が登場する	-12758
テンベルク	-12759
破壊された	-12760
UC	-12761
体操	-12762
冗談	-12763
無視	-12764
終わ	-12765
車線	-12766
軍艦	-12767
都心	-12768
北九州	-12769
外国語	-12770
グラフィ	-12771
コリ	-12772
救急	-12773
肩を	-12774
pen	-12775
の判定	-12776
代わり	-12777
終了後	-12778
ジャーズ	-12779
GS	-12780
に手	-12781
像は	-12782
元来	-12783
展望	-12784
mer	-12785
でん	-12786
カミ	-12787
レフ	-12788
屋で	-12789
衣服	-12790
住民は	-12791
年にも	-12792
との間の	-12793
ともかく	-12794
協同組合	-12795
点である	-12796
メジャーデビュー	-12797
▁y	-12798
の門	-12799
ウマ	-12800
乗員	-12801
婚姻	-12802
混ぜ	-12803
空に	-12804
藤田	-12805
▁現在	-12806
なこと	-12807
を検討	-12808
例である	-12809
されたもの	-12810
として機能	-12811
土器	-12812
海水	-12813
誤り	-12814
ons	-12815
背景に	-12816
2025	-12817
一時的に	-12818
書かれている	-12819
ではありません	-12820
▁パ	-12821
を固	-12822
品川	-12823
警官	-12824
越後	-12825
に配属	-12826
内容の	-12827
暮らす	-12828
はるかに	-12829
問い	-12830
変身	-12831
知らせ	-12832
確かに	-12833
ディアン	-12834
別荘	-12835
忍び	-12836
リトル	-12837
奇妙な	-12838
を使用している	-12839
電流	-12840
アンリ	-12841
獲得した	-12842
異なっている	-12843
没収	-12844
の必要	-12845
るのは	-12846
形式で	-12847
情報の	-12848
成績は	-12849
1957	-12850
inux	-12851
すために	-12852
もなかった	-12853
横に	-12854
賞賛	-12855
鹿島	-12856
番組を	-12857
と考える	-12858
ヤクルト	-12859
するためには	-12860
HP	-12861
に近	-12862
隠れ	-12863
RPG	-12864
フェイス	-12865
化されている	-12866
コンスタンティ	-12867
に襲	-12868
僕が	-12869
あげて	-12870
でせう	-12871
カスタ	-12872
生物の	-12873
カップリング	-12874
考えられている	-12875
無し	-12876
無人	-12877
病の	-12878
しさを	-12879
やろう	-12880
写真を	-12881
この時期	-12882
であったことから	-12883
EE	-12884
バグ	-12885
此処	-12886
煙突	-12887
阿弥	-12888
で販売	-12889
に移管	-12890
彼等は	-12891
施設は	-12892
本名は	-12893
編集長	-12894
関係が	-12895
だろうか	-12896
ついている	-12897
イヤ	-12898
モナ	-12899
市域	-12900
帝は	-12901
こん	-12902
の奥	-12903
を乗	-12904
中尉	-12905
息を	-12906
旅館	-12907
田川	-12908
逃走	-12909
駈け	-12910
パウロ	-12911
楽しみ	-12912
▁Man	-12913
に基づいた	-12914
仮面ライダー	-12915
シリン	-12916
過ぎて	-12917
年代前半	-12918
、1949	-12919
かで	-12920
併し	-12921
冒頭	-12922
サクラ	-12923
落した	-12924
語では	-12925
世界遺産	-12926
出場機会	-12927
_1	-12928
封鎖	-12929
我々	-12930
掲げ	-12931
氷河	-12932
温暖	-12933
ケート	-12934
消えて	-12935
に指定された	-12936
利根	-12937
慣習	-12938
懸命	-12939
125	-12940
ose	-12941
の技術	-12942
イエス	-12943
トリー	-12944
▁1986	-12945
されるまで	-12946
とみられる	-12947
マーケティング	-12948
と組	-12949
ムズ	-12950
ピンク	-12951
ミーの	-12952
戦いで	-12953
教会は	-12954
、1962	-12955
に任じられた	-12956
ロニ	-12957
幽霊	-12958
陸奥	-12959
バイト	-12960
1951	-12961
それとも	-12962
せざるを得	-12963
罪で	-12964
裕福	-12965
小田原	-12966
ハーバード	-12967
BF	-12968
中東	-12969
神は	-12970
閉じ	-12971
ピアニ	-12972
感じて	-12973
有力な	-12974
貧しい	-12975
の主要な	-12976
を卒業後	-12977
▁1985	-12978
を連	-12979
トは	-12980
▁やがて	-12981
と称する	-12982
フォース	-12983
可能性が	-12984
徳川家康	-12985
月までに	-12986
、1943	-12987
が残っている	-12988
することが可能	-12989
が建設	-12990
雰囲気	-12991
を築いた	-12992
自動的に	-12993
。1984	-12994
がく	-12995
を呈	-12996
外野	-12997
賞に	-12998
階の	-12999
幕府の	-13000
戦後は	-13001
由来は	-13002
被害者	-13003
逃げる	-13004
したのである	-13005
半数	-13006
毎回	-13007
ric	-13008
の文字	-13009
コット	-13010
世界観	-13011
状態の	-13012
ベーター	-13013
作品では	-13014
センターの	-13015
之丞	-13016
式典	-13017
突起	-13018
高山	-13019
ref	-13020
の販売	-13021
海軍は	-13022
種牡馬	-13023
があれば	-13024
ているが	-13025
ルーニャ	-13026
思われる	-13027
発足した	-13028
、1948	-13029
つけられた	-13030
グー	-13031
厚い	-13032
客の	-13033
帰る	-13034
田区	-13035
、25	-13036
▁そんな	-13037
その後に	-13038
▁平	-13039
いけ	-13040
リル	-13041
幅な	-13042
手続	-13043
米軍	-13044
の発展	-13045
本拠地	-13046
付けられる	-13047
yn	-13048
に包	-13049
盛岡	-13050
着工	-13051
に協力	-13052
デッキ	-13053
合衆国	-13054
ウエスト	-13055
科学技術	-13056
りし	-13057
少尉	-13058
徴収	-13059
拡散	-13060
第五	-13061
適当	-13062
飲料	-13063
マンガ	-13064
幅広く	-13065
格闘技	-13066
を提供する	-13067
ジロ	-13068
來る	-13069
様が	-13070
疲労	-13071
IBM	-13072
してある	-13073
工程	-13074
文は	-13075
氏と	-13076
が現れ	-13077
こんど	-13078
ったら	-13079
に近づ	-13080
けていた	-13081
を見つけ	-13082
何時	-13083
南方	-13084
屋が	-13085
支流	-13086
フランツ	-13087
▁1984	-13088
之介	-13089
一つは	-13090
三重県	-13091
何だか	-13092
のあった	-13093
ことがあり	-13094
に下	-13095
も同	-13096
強盗	-13097
発現	-13098
計測	-13099
用いた	-13100
してくる	-13101
はさらに	-13102
エージェント	-13103
ノウ	-13104
一同	-13105
遊撃	-13106
Mac	-13107
イデオ	-13108
ダーの	-13109
三郎は	-13110
外から	-13111
岡山県	-13112
ライアン	-13113
、1946	-13114
されたという	-13115
を果たしている	-13116
バチ	-13117
ムル	-13118
力学	-13119
学年	-13120
排水	-13121
探索	-13122
空を	-13123
の後任	-13124
グアイ	-13125
NASA	-13126
もう一度	-13127
ムスリム	-13128
由来する	-13129
。1979	-13130
などである	-13131
設置されている	-13132
に悩	-13133
キム	-13134
メス	-13135
娯楽	-13136
発信	-13137
att	-13138
、50	-13139
の名で	-13140
は当初	-13141
をもち	-13142
その間に	-13143
位となり	-13144
。1944	-13145
することになり	-13146
倒れ	-13147
々しく	-13148
パブリ	-13149
万人を	-13150
人には	-13151
フィール	-13152
に選出され	-13153
コンパクト	-13154
を採用している	-13155
の分	-13156
期生	-13157
レイク	-13158
広がる	-13159
▁2025	-13160
化している	-13161
エウ	-13162
ロル	-13163
che	-13164
ous	-13165
の調査	-13166
勝手に	-13167
夫人は	-13168
も務めた	-13169
年の間に	-13170
予言	-13171
参入	-13172
好調	-13173
興奮	-13174
足が	-13175
重力	-13176
魔術	-13177
EST	-13178
ちゅう	-13179
バイク	-13180
テキサス州	-13181
書いている	-13182
OM	-13183
趣旨	-13184
迷惑	-13185
までには	-13186
CF	-13187
にく	-13188
も一	-13189
と共演	-13190
あんまり	-13191
いながら	-13192
民主党の	-13193
さや	-13194
や大	-13195
を握	-13196
像が	-13197
を見せて	-13198
。1983	-13199
ような気が	-13200
をそれぞれ	-13201
れは	-13202
でその	-13203
ハーフ	-13204
リバー	-13205
ンドー	-13206
優秀な	-13207
協力を	-13208
気の毒	-13209
首都圏	-13210
アルバイト	-13211
おろ	-13212
休暇	-13213
起因	-13214
遭遇	-13215
騎手	-13216
自然の	-13217
1949	-13218
その中には	-13219
持っている	-13220
シーズンには	-13221
おき	-13222
新作	-13223
遅く	-13224
風は	-13225
-14	-13226
160	-13227
ank	-13228
▁高校	-13229
ポンプ	-13230
ルーシ	-13231
人物が	-13232
1947	-13233
ラジオ番組	-13234
PK	-13235
波の	-13236
を読み	-13237
ノベル	-13238
定めた	-13239
本来は	-13240
落とし	-13241
してくれ	-13242
理由から	-13243
エチオピア	-13244
可能性が高い	-13245
▁全	-13246
あや	-13247
機材	-13248
犯行	-13249
And	-13250
2,000	-13251
LL	-13252
家へ	-13253
ヴュル	-13254
急いで	-13255
部門の	-13256
国と	-13257
ぶりの	-13258
家族の	-13259
求めた	-13260
ファーム	-13261
団が	-13262
海戦	-13263
BGM	-13264
ちがい	-13265
子供が	-13266
に達する	-13267
。1975	-13268
カは	-13269
キョ	-13270
伊東	-13271
断片	-13272
ロンの	-13273
を通って	-13274
フランクフルト	-13275
ニュージャージー	-13276
めき	-13277
享年	-13278
屋に	-13279
本店	-13280
が出現	-13281
ホーク	-13282
ダブルス	-13283
朝日放送	-13284
を志	-13285
名も	-13286
旗艦	-13287
演算	-13288
から第	-13289
に在籍	-13290
らって	-13291
をつか	-13292
ワーズ	-13293
なことを	-13294
行方不明	-13295
銀メダル	-13296
されたものである	-13297
うれ	-13298
プチ	-13299
帝の	-13300
除く	-13301
を卒業した	-13302
江戸時代の	-13303
エビ	-13304
案が	-13305
町が	-13306
醸造	-13307
▁th	-13308
小型の	-13309
開発の	-13310
有名である	-13311
スタル	-13312
バブル	-13313
ロッコ	-13314
公式に	-13315
生物学	-13316
笑った	-13317
ハウゼン	-13318
ランドの	-13319
付けられ	-13320
、1941	-13321
される予定	-13322
信念	-13323
優位	-13324
当事	-13325
ise	-13326
が用意	-13327
ほどに	-13328
タント	-13329
フード	-13330
兄弟の	-13331
、1958	-13332
.)	-13333
ケア	-13334
一揆	-13335
巡査	-13336
条項	-13337
見方	-13338
黒田	-13339
INE	-13340
さから	-13341
を理由に	-13342
を結成し	-13343
、1920	-13344
レスリング	-13345
一般的には	-13346
めえ	-13347
早速	-13348
プロレ	-13349
1953	-13350
ニューヨーク州	-13351
オックスフォード	-13352
の場	-13353
殿堂	-13354
生み	-13355
鑑定	-13356
ild	-13357
太郎の	-13358
影響で	-13359
、1942	-13360
ことだった	-13361
ハーモニー	-13362
が用いられる	-13363
sk	-13364
あき	-13365
みん	-13366
ネク	-13367
宣告	-13368
手伝	-13369
普遍	-13370
白く	-13371
退官	-13372
駿河	-13373
地球の	-13374
好成績	-13375
展覧会	-13376
フォール	-13377
に参加する	-13378
中盤	-13379
因子	-13380
国語	-13381
容量	-13382
尊重	-13383
横綱	-13384
流入	-13385
車種	-13386
長岡	-13387
彼らを	-13388
駅まで	-13389
4000	-13390
交響楽団	-13391
厚生労働	-13392
サーキット	-13393
コナ	-13394
創始	-13395
ade	-13396
に見舞	-13397
ビリー	-13398
への参加	-13399
表示される	-13400
ことはできない	-13401
に繋	-13402
告知	-13403
定年	-13404
心得	-13405
日向	-13406
荷物	-13407
ふたり	-13408
ワット	-13409
太郎が	-13410
小惑星	-13411
珍しく	-13412
いつでも	-13413
は大きく	-13414
乗り入れ	-13415
、1947	-13416
が設置され	-13417
でなければ	-13418
出演している	-13419
うか	-13420
めん	-13421
ウズ	-13422
ヶ原	-13423
公民	-13424
登記	-13425
に行き	-13426
ストは	-13427
連合会	-13428
さういふ	-13429
高い評価	-13430
が発生する	-13431
プラスチック	-13432
布告	-13433
▁当時	-13434
ペテル	-13435
本人の	-13436
1948	-13437
ひました	-13438
されたものの	-13439
部に位置する	-13440
中等	-13441
崩れ	-13442
撤回	-13443
、24	-13444
生じた	-13445
きわめて	-13446
年頃から	-13447
してしまい	-13448
キリスト教徒	-13449
は東	-13450
位相	-13451
売買	-13452
宇治	-13453
開校	-13454
細かい	-13455
5,000	-13456
を開始する	-13457
光学	-13458
化と	-13459
大野	-13460
連動	-13461
に滞在	-13462
を残し	-13463
プラザ	-13464
それでは	-13465
路面電車	-13466
世論	-13467
符号	-13468
を機に	-13469
今でも	-13470
サギ	-13471
マヌ	-13472
五月	-13473
代行	-13474
信徒	-13475
怒り	-13476
橋は	-13477
主義的	-13478
山梨県	-13479
立てて	-13480
つて居る	-13481
ランダム	-13482
スウェーデンの	-13483
▁ミ	-13484
ヒョ	-13485
褐色	-13486
igh	-13487
サンス	-13488
。1982	-13489
し遂	-13490
みで	-13491
ドは	-13492
大の	-13493
孤独	-13494
貧乏	-13495
KYO	-13496
▁大学	-13497
それと	-13498
で開催	-13499
と批判	-13500
なかで	-13501
シズム	-13502
スタンの	-13503
なりません	-13504
フィクション	-13505
決断	-13506
花を	-13507
にすぎ	-13508
の大会	-13509
大丈夫	-13510
滑走路	-13511
が行われていた	-13512
主流	-13513
動詞	-13514
形容	-13515
白色	-13516
血の	-13517
の方法	-13518
プラー	-13519
目的に	-13520
上院議員	-13521
疑い	-13522
諸侯	-13523
伝える	-13524
増加し	-13525
建築家	-13526
西部の	-13527
名である	-13528
に対応した	-13529
プレミアム	-13530
認められた	-13531
バト	-13532
一年	-13533
途絶	-13534
に進み	-13535
は同年	-13536
分かる	-13537
ファイト	-13538
ことが多く	-13539
報告されている	-13540
カワ	-13541
公使	-13542
公衆	-13543
市電	-13544
辺境	-13545
リスは	-13546
ポスター	-13547
翌年には	-13548
ぶる	-13549
休養	-13550
使節	-13551
摂政	-13552
改札	-13553
ホンダ	-13554
発する	-13555
またこの	-13556
スティック	-13557
ヘッドコーチ	-13558
使われていた	-13559
RT	-13560
カジ	-13561
抱き	-13562
里の	-13563
おいで	-13564
ニコラ	-13565
しながらも	-13566
といっても	-13567
で放送されていた	-13568
セガ	-13569
変形	-13570
そっと	-13571
ホルム	-13572
ンマー	-13573
捨てて	-13574
退した	-13575
戦死した	-13576
チャートで	-13577
になってしまう	-13578
人質	-13579
曖昧	-13580
消化	-13581
種目	-13582
レージ	-13583
宗教的	-13584
宣教師	-13585
政府に	-13586
など様々な	-13587
クハ	-13588
タキ	-13589
一層	-13590
姿で	-13591
悪の	-13592
が続き	-13593
を残す	-13594
マリン	-13595
銀行の	-13596
の最初の	-13597
ワンマン	-13598
最初から	-13599
にちなんで	-13600
ことが出来る	-13601
きん	-13602
吉が	-13603
星は	-13604
顔が	-13605
カーブ	-13606
チェロ	-13607
サンデー	-13608
yl	-13609
ッポ	-13610
史跡	-13611
崇拝	-13612
自立	-13613
追跡	-13614
開き	-13615
鳥羽	-13616
▁la	-13617
あげた	-13618
失った	-13619
支配下	-13620
降りて	-13621
ames	-13622
メンバーが	-13623
パシフィック	-13624
しな	-13625
三好	-13626
大抵	-13627
女中	-13628
政界	-13629
男性は	-13630
試合を	-13631
過ごす	-13632
イデオロ	-13633
見えない	-13634
に任命され	-13635
に所属していた	-13636
忠実	-13637
恋人	-13638
沿い	-13639
生が	-13640
生を	-13641
に接続	-13642
返した	-13643
に立った	-13644
、1956	-13645
倒産	-13646
年金	-13647
はれる	-13648
バスが	-13649
大幅に	-13650
じられる	-13651
ユニオン	-13652
、1952	-13653
反省	-13654
各地	-13655
花が	-13656
二酸化	-13657
偉大な	-13658
そのもの	-13659
に陥った	-13660
ノーベル	-13661
ばれている	-13662
デレ	-13663
詐欺	-13664
を構築	-13665
サック	-13666
パンの	-13667
内務省	-13668
ラヴ	-13669
淡路	-13670
窒素	-13671
を思い	-13672
近郊の	-13673
駐車場	-13674
▁Mar	-13675
しましょう	-13676
そうとする	-13677
ねばならない	-13678
気動	-13679
を与えて	-13680
んですか	-13681
ベースの	-13682
ワイルド	-13683
カントリー	-13684
1、	-13685
右の	-13686
その頃	-13687
を強く	-13688
母親は	-13689
長い間	-13690
びっくり	-13691
ナトリウム	-13692
徒歩	-13693
行進	-13694
飾り	-13695
▁Cl	-13696
したの	-13697
に及ぶ	-13698
を用意	-13699
を解決	-13700
副社長	-13701
山口県	-13702
道路の	-13703
も含めて	-13704
こともできる	-13705
と考えている	-13706
親戚	-13707
音は	-13708
Com	-13709
オース	-13710
上では	-13711
主演の	-13712
他人の	-13713
▁東京都	-13714
ウォール	-13715
フォーミュ	-13716
取り組	-13717
好きで	-13718
を実施した	-13719
南は	-13720
夏季	-13721
学名	-13722
小僧	-13723
開局	-13724
で活躍	-13725
を前に	-13726
モンの	-13727
製品の	-13728
あわせて	-13729
ボーナス	-13730
いつまでも	-13731
デンブルク	-13732
リベ	-13733
動脈	-13734
box	-13735
は当時	-13736
をより	-13737
爆撃機	-13738
高度な	-13739
ステルダム	-13740
▁シ	-13741
ドの	-13742
三条	-13743
上田	-13744
駐在	-13745
ash	-13746
アミノ	-13747
心から	-13748
を命じた	-13749
送られた	-13750
ケンブリッジ	-13751
(=	-13752
りん	-13753
三つ	-13754
浅野	-13755
ジェフ	-13756
ジング	-13757
没した	-13758
電気鉄道	-13759
。1940	-13760
。1972	-13761
オリックス	-13762
するものである	-13763
サク	-13764
愛国	-13765
早期	-13766
育ち	-13767
金剛	-13768
高層	-13769
ウェン	-13770
劇場版	-13771
焦点を	-13772
艦隊は	-13773
言葉は	-13774
する計画	-13775
を認める	-13776
、1955	-13777
知られており	-13778
小児	-13779
役を	-13780
特攻	-13781
を描き	-13782
初登場	-13783
容疑で	-13784
独自に	-13785
その際に	-13786
イニング	-13787
はアメリカ	-13788
させるために	-13789
チャンピオンズリーグ	-13790
UT	-13791
其処	-13792
正常	-13793
紳士	-13794
遅延	-13795
に帰国	-13796
わざと	-13797
日発売	-13798
小学校の	-13799
これまでに	-13800
するなどの	-13801
が挙げられる	-13802
三塁	-13803
井の	-13804
前線	-13805
北上	-13806
東側	-13807
稼ぎ	-13808
を得意	-13809
リッツ	-13810
権力を	-13811
してその	-13812
ジェリア	-13813
委員会が	-13814
バウ	-13815
元気	-13816
正直	-13817
系図	-13818
されるため	-13819
らる	-13820
ノキ	-13821
五百	-13822
公募	-13823
消し	-13824
元々は	-13825
ward	-13826
しかしこの	-13827
を受けたが	-13828
に収録された	-13829
ボランティア	-13830
はれ	-13831
交付	-13832
解剖	-13833
能力が	-13834
違いは	-13835
カルロス	-13836
師範学校	-13837
カ月	-13838
中毒	-13839
親の	-13840
ale	-13841
主催の	-13842
レンツェ	-13843
CG	-13844
カシ	-13845
ロジ	-13846
ヶ谷	-13847
不全	-13848
化や	-13849
哺乳	-13850
斬り	-13851
▁Ed	-13852
企業が	-13853
ower	-13854
人気を博	-13855
がみ	-13856
レバ	-13857
全身	-13858
公は	-13859
情報が	-13860
社会人	-13861
することから	-13862
プロ野球選手	-13863
レシ	-13864
死者	-13865
決心	-13866
の多くは	-13867
国会議員	-13868
。&	-13869
わぬ	-13870
を改	-13871
道場	-13872
は通常	-13873
話した	-13874
ってから	-13875
どちらか	-13876
日本における	-13877
川口	-13878
暴行	-13879
福田	-13880
マント	-13881
バスター	-13882
呼ばれる	-13883
作品として	-13884
だす	-13885
をみ	-13886
召集	-13887
現金	-13888
は再び	-13889
サロン	-13890
▁平次は	-13891
開始した	-13892
。1973	-13893
ノは	-13894
愛好	-13895
県内	-13896
いたま	-13897
テール	-13898
作者の	-13899
止めた	-13900
警察の	-13901
運転台	-13902
。1976	-13903
co	-13904
・『	-13905
次ぎ	-13906
水曜	-13907
親切	-13908
防災	-13909
)」「	-13910
シャツ	-13911
ヤマト	-13912
車両が	-13913
アンテナ	-13914
Re	-13915
差を	-13916
書が	-13917
顔の	-13918
骨の	-13919
を促進	-13920
を元に	-13921
周囲に	-13922
番組が	-13923
面には	-13924
置かれる	-13925
、1959	-13926
ウィリアムズ	-13927
7,	-13928
▁'	-13929
便宜	-13930
応答	-13931
番手	-13932
菊池	-13933
西は	-13934
費や	-13935
けると	-13936
スラム	-13937
現地の	-13938
自分も	-13939
って来る	-13940
断念	-13941
鳴り	-13942
フェイ	-13943
公開の	-13944
支払う	-13945
歳未満	-13946
1955	-13947
グループが	-13948
に臨	-13949
器は	-13950
当日	-13951
本体	-13952
機で	-13953
白河	-13954
通路	-13955
に売却	-13956
視聴率	-13957
とされるが	-13958
La	-13959
エコ	-13960
測量	-13961
特異	-13962
願寺	-13963
ART	-13964
own	-13965
ドニア	-13966
ラング	-13967
日本が	-13968
法では	-13969
に立って	-13970
終わった	-13971
派と	-13972
辺の	-13973
動かす	-13974
動物園	-13975
集まり	-13976
▁紀元前	-13977
シングルとして	-13978
ナリ	-13979
語源	-13980
電磁	-13981
ツイン	-13982
務める	-13983
小説家	-13984
重工業	-13985
などでも	-13986
年代以降	-13987
川水	-13988
累計	-13989
緑の	-13990
階建	-13991
主題歌	-13992
それより	-13993
りません	-13994
があったため	-13995
名付けられた	-13996
推理	-13997
に収録	-13998
ヒドロ	-13999
及ぼす	-14000
後期の	-14001
公開され	-14002
。1978	-14003
オーストラリアの	-14004
を産	-14005
報復	-14006
防空	-14007
が主流	-14008
ゴジラ	-14009
能力の	-14010
アパート	-14011
皇太	-14012
警報	-14013
ink	-14014
この際	-14015
を奪い	-14016
向こう	-14017
者による	-14018
権が	-14019
百済	-14020
直轄	-14021
面会	-14022
ラック	-14023
形式は	-14024
▁Rec	-14025
のうちの	-14026
を加えて	-14027
ウィンド	-14028
ラテン語	-14029
銅メダル	-14030
オブジェクト	-14031
ternational	-14032
対処	-14033
擁立	-14034
独り	-14035
田原	-14036
白の	-14037
石灰	-14038
を演奏	-14039
アース	-14040
やりたい	-14041
をめぐる	-14042
メロディ	-14043
所属する	-14044
研究では	-14045
つな	-14046
地と	-14047
月上	-14048
松田	-14049
足利義	-14050
ペテルブルク	-14051
佐野	-14052
破産	-14053
が出版	-14054
を抱き	-14055
パンチ	-14056
時間で	-14057
誰でも	-14058
世界的に	-14059
アルバムは	-14060
コミックス	-14061
に関する法律	-14062
として生まれた	-14063
rd	-14064
らば	-14065
娘は	-14066
沈黙	-14067
が発達	-14068
日本海	-14069
メリット	-14070
ワークス	-14071
自動車道	-14072
がほとんど	-14073
、......	-14074
されることがある	-14075
こみ	-14076
を数	-14077
乗降	-14078
川上	-14079
知能	-14080
運送	-14081
驚き	-14082
ree	-14083
▁Re	-14084
ードは	-14085
電車の	-14086
から来た	-14087
ケネディ	-14088
位だった	-14089
減少した	-14090
光は	-14091
忠誠	-14092
祭壇	-14093
の仕事	-14094
コープ	-14095
二人で	-14096
そんなことを	-14097
に耐	-14098
も兼	-14099
ベリ	-14100
集積	-14101
だと思	-14102
も同じ	-14103
を理解	-14104
▁New	-14105
の一員として	-14106
標識	-14107
140	-14108
いつは	-14109
なんぞ	-14110
を書く	-14111
を突破	-14112
記念碑	-14113
ていました	-14114
スペクトル	-14115
川町	-14116
毎月	-14117
と関連	-14118
仕様の	-14119
方式の	-14120
に向って	-14121
提供する	-14122
顔をして	-14123
クリスチャン	-14124
国産	-14125
鋭い	-14126
三人の	-14127
評論家	-14128
と答えた	-14129
のところ	-14130
世界中の	-14131
学院大学	-14132
が成立した	-14133
記録されている	-14134
代謝	-14135
退学	-14136
国では	-14137
奈良県	-14138
工場の	-14139
生産された	-14140
ma	-14141
を思	-14142
民事	-14143
決着	-14144
が行な	-14145
ラビア	-14146
事件で	-14147
特徴は	-14148
責任者	-14149
ライブラ	-14150
▁主	-14151
不在	-14152
採取	-14153
残存	-14154
迅速	-14155
倶楽部	-14156
昔から	-14157
スイスの	-14158
テネシー	-14159
かのように	-14160
を歴任した	-14161
持っていた	-14162
されるという	-14163
として知られている	-14164
▁山	-14165
宰相	-14166
眼が	-14167
課税	-14168
つつも	-14169
従五位	-14170
架空の	-14171
完了した	-14172
、1957	-14173
。1981	-14174
天気	-14175
常陸	-14176
意外	-14177
戯曲	-14178
武家	-14179
sch	-14180
ランの	-14181
評価は	-14182
郵便局	-14183
ジャイアンツ	-14184
外線	-14185
川市	-14186
春秋	-14187
空想	-14188
が実現	-14189
トリア	-14190
ミール	-14191
▁金	-14192
つぎ	-14193
君に	-14194
渓谷	-14195
牧場	-14196
進展	-14197
に力を	-14198
カーは	-14199
1939	-14200
タイガース	-14201
ホフ	-14202
柴田	-14203
ナーズ	-14204
皇太子	-14205
系列の	-14206
んできた	-14207
ベートー	-14208
を移	-14209
営利	-14210
御殿	-14211
雨の	-14212
駆使	-14213
川流域	-14214
を聞いて	-14215
アドレス	-14216
プリンス	-14217
エントリー	-14218
多くの場合	-14219
などによって	-14220
おば	-14221
下部	-14222
謎の	-14223
コラム	-14224
大会は	-14225
絶えず	-14226
バラエティ番組	-14227
作る	-14228
日露	-14229
硬貨	-14230
行い	-14231
配属	-14232
に際し	-14233
の範囲	-14234
を提唱	-14235
今では	-14236
末期の	-14237
に終わる	-14238
らかじめ	-14239
修士課程	-14240
をそのまま	-14241
ベースボール	-14242
するようになる	-14243
姫路	-14244
週の	-14245
のほう	-14246
れたが	-14247
ヴィス	-14248
事業は	-14249
顔を見	-14250
朝鮮半島	-14251
が可能である	-14252
ブロードウェイ	-14253
レナ	-14254
人員	-14255
州都	-14256
歩道	-14257
そこは	-14258
人間に	-14259
アンドレ	-14260
センサー	-14261
を得ている	-14262
カザ	-14263
今夜	-14264
動揺	-14265
娘が	-14266
松井	-14267
火曜	-14268
焼け	-14269
デッド	-14270
バッグ	-14271
選択肢	-14272
と云った	-14273
リティー	-14274
という形で	-14275
座を	-14276
待遇	-14277
浄土	-14278
づけた	-14279
小笠原	-14280
日付の	-14281
として再	-14282
ジャネイ	-14283
だったので	-14284
一等	-14285
残念	-14286
遮断	-14287
-21	-14288
あろう	-14289
歩兵第	-14290
製作所	-14291
またその	-14292
女に	-14293
提示	-14294
柔軟	-14295
広範囲	-14296
演じた	-14297
らによって	-14298
となっているが	-14299
三の	-14300
目指	-14301
納得	-14302
ニオン	-14303
ハーン	-14304
バルブ	-14305
行くと	-14306
イリノイ	-14307
優勝を果たした	-14308
IF	-14309
すく	-14310
アジ	-14311
和泉	-14312
始動	-14313
巡礼	-14314
数で	-14315
濃い	-14316
罪を	-14317
▁ST	-14318
あたし	-14319
この一	-14320
の地位	-14321
属する	-14322
殺した	-14323
近隣の	-14324
を使用し	-14325
の中で最も	-14326
バッテリー	-14327
待機	-14328
本町	-14329
東亜	-14330
派閥	-14331
を振り	-14332
今後の	-14333
双方の	-14334
日付け	-14335
高校の	-14336
ject	-14337
パキスタン	-14338
プレーヤー	-14339
れど	-14340
堂は	-14341
帝侯	-14342
歌い	-14343
まいか	-14344
ビルマ	-14345
審議会	-14346
められて	-14347
をとって	-14348
ナイター	-14349
変わった	-14350
▁with	-14351
モーニング	-14352
フォーミュラ	-14353
AB	-14354
ヨウ	-14355
加減	-14356
階層	-14357
ans	-14358
を基に	-14359
を演じ	-14360
ドゥー	-14361
ハンス	-14362
とのこと	-14363
▁JAPAN	-14364
くなっている	-14365
スタンダード	-14366
▁ロ	-14367
おの	-14368
を企	-14369
供用	-14370
安田	-14371
招集	-14372
赤色	-14373
追撃	-14374
が確定	-14375
はほぼ	-14376
アング	-14377
早くも	-14378
的存在	-14379
諸島の	-14380
面から	-14381
を演じる	-14382
映画監督	-14383
▁1983	-14384
〜」	-14385
を減	-14386
正統	-14387
話で	-14388
に手を	-14389
に転向	-14390
を希望	-14391
ストゥ	-14392
放送は	-14393
を取得し	-14394
を進めた	-14395
アトランタ	-14396
プレゼント	-14397
CL	-14398
を授	-14399
ルが	-14400
教団	-14401
検事	-14402
高価	-14403
アテネ	-14404
ティム	-14405
重なる	-14406
ウィーク	-14407
にそれぞれ	-14408
を収録した	-14409
カタルーニャ	-14410
を現	-14411
▁中国	-14412
で撮影	-14413
に従う	-14414
を扱う	-14415
を禁止	-14416
はいけない	-14417
のぼ	-14418
包括	-14419
年寄	-14420
混雑	-14421
突っ	-14422
ari	-14423
えもん	-14424
ポルノ	-14425
公務員	-14426
ッチャー	-14427
ルーキー	-14428
東北地方	-14429
逮捕され	-14430
そうである	-14431
リバウンド	-14432
が多	-14433
げに	-14434
の異	-14435
ピカ	-14436
旋回	-14437
爆破	-14438
通知	-14439
頭は	-14440
上での	-14441
及んだ	-14442
主義的な	-14443
かま	-14444
上手	-14445
先は	-14446
客車	-14447
尤も	-14448
砲の	-14449
選ぶ	-14450
CEO	-14451
に直接	-14452
ことには	-14453
に応じた	-14454
ハイブリ	-14455
商業施設	-14456
▁1979	-14457
になることを	-14458
事前	-14459
客が	-14460
小売	-14461
小泉	-14462
年次	-14463
流出	-14464
送電	-14465
WBA	-14466
に相違	-14467
わたる	-14468
月上旬	-14469
バンドは	-14470
期限付き	-14471
、2025	-14472
場合が多い	-14473
とん	-14474
呼ぶ	-14475
銃撃	-14476
かと思	-14477
カルロ	-14478
メチル	-14479
研究は	-14480
翌日の	-14481
フランシス	-14482
MM	-14483
こぼ	-14484
はし	-14485
低減	-14486
指標	-14487
氏に	-14488
生殖	-14489
が悪い	-14490
に変換	-14491
▁Col	-14492
を問わず	-14493
シルバー	-14494
管理する	-14495
ミャンマー	-14496
本塁打を放	-14497
ボロ	-14498
台北	-14499
島根	-14500
新興	-14501
流用	-14502
義理	-14503
達に	-14504
ual	-14505
ナイン	-14506
選帝侯	-14507
が現れる	-14508
してくれた	-14509
につながる	-14510
シミュレーション	-14511
元老	-14512
政の	-14513
特撮	-14514
鳥居	-14515
を決意	-14516
ガスの	-14517
仲間の	-14518
勝った	-14519
拠点を	-14520
文字の	-14521
新日本	-14522
正確に	-14523
ビクター	-14524
ばかりでなく	-14525
が含まれている	-14526
きが	-14527
クォ	-14528
丹波	-14529
何人	-14530
味噌	-14531
放出	-14532
橋梁	-14533
破損	-14534
葉が	-14535
飲む	-14536
が入る	-14537
に帰還	-14538
日午前	-14539
としたが	-14540
カンザス	-14541
シチリア	-14542
的であり	-14543
該当する	-14544
重要である	-14545
ひょ	-14546
仮名	-14547
追悼	-14548
門は	-14549
風土	-14550
が続く	-14551
競走馬	-14552
今日では	-14553
登場している	-14554
伊賀	-14555
像を	-14556
専属	-14557
擁護	-14558
船で	-14559
anc	-14560
直線で	-14561
。1968	-14562
が開催された	-14563
オープンした	-14564
となっていたが	-14565
さつ	-14566
ふし	-14567
避け	-14568
"、"	-14569
アーチ	-14570
困難な	-14571
症候群	-14572
アルミニ	-14573
ブレイク	-14574
ことについて	-14575
を目的とした	-14576
を営	-14577
を転	-14578
來て	-14579
水泳	-14580
神を	-14581
ake	-14582
もしろ	-14583
),	-14584
下が	-14585
冷房	-14586
基金	-14587
ここの	-14588
を買い	-14589
万円で	-14590
栃木県	-14591
歩いた	-14592
▁として	-14593
board	-14594
にとどまった	-14595
を観	-14596
佐久	-14597
喜多	-14598
承諾	-14599
旗本	-14600
野田	-14601
MBS	-14602
エリー	-14603
パルト	-14604
収容所	-14605
天皇が	-14606
様式の	-14607
小規模な	-14608
。1967	-14609
。1971	-14610
したように	-14611
行っている	-14612
と相	-14613
の文	-14614
従軍	-14615
渡す	-14616
遠藤	-14617
鎮守	-14618
麻呂	-14619
中学生	-14620
影響力	-14621
教科書	-14622
クラフト	-14623
プロ入り	-14624
、1953	-14625
存在している	-14626
されるようになり	-14627
先ず	-14628
小山	-14629
瑠璃	-14630
種子	-14631
触媒	-14632
すぎて	-14633
に上陸	-14634
が可能な	-14635
まことに	-14636
を行なった	-14637
ターゲット	-14638
の一部として	-14639
内閣総理大臣	-14640
▁四	-14641
ナが	-14642
播磨	-14643
着の	-14644
製鉄	-14645
の発生	-14646
漫画家	-14647
父親が	-14648
さいたま	-14649
オットー	-14650
ハンター	-14651
ミシガン	-14652
一と	-14653
倒し	-14654
南に	-14655
平の	-14656
意欲	-14657
直す	-14658
融資	-14659
ますよ	-14660
に渡って	-14661
の名称は	-14662
ゆっくり	-14663
アピール	-14664
ジョセフ	-14665
リングは	-14666
込まれて	-14667
住んでいた	-14668
傾向にある	-14669
が設立された	-14670
出撃	-14671
感心	-14672
NPB	-14673
ここへ	-14674
どおり	-14675
を停止	-14676
民族の	-14677
病院で	-14678
を目指し	-14679
市にある	-14680
生まれの	-14681
。1977	-14682
いましょう	-14683
ないように	-14684
両方	-14685
車庫	-14686
を失う	-14687
現役を	-14688
存在していた	-14689
で覆	-14690
は平	-14691
キは	-14692
出張	-14693
放置	-14694
高崎	-14695
-13	-14696
なると	-14697
アルト	-14698
バスク	-14699
名前が	-14700
純粋な	-14701
くらいの	-14702
ファンド	-14703
ビルボード	-14704
自由民主党	-14705
Ad	-14706
pl	-14707
越え	-14708
鋳造	-14709
を完成	-14710
減少し	-14711
Le	-14712
さり	-14713
に充	-14714
佐世	-14715
加熱	-14716
太い	-14717
自覚	-14718
起動	-14719
駐留	-14720
を繰り	-14721
ザール	-14722
デトロ	-14723
大学に	-14724
小説の	-14725
広まった	-14726
。1974	-14727
させていた	-14728
となったのは	-14729
になっていった	-14730
▁ル	-14731
を覆	-14732
マは	-14733
ンと	-14734
戴冠	-14735
画の	-14736
若松	-14737
関税	-14738
ときの	-14739
イヤー	-14740
一丁目	-14741
内容が	-14742
それには	-14743
の一部の	-14744
を超えて	-14745
3,000	-14746
やって来た	-14747
GH	-14748
幸せ	-14749
誘拐	-14750
ままに	-14751
互いの	-14752
全体に	-14753
協奏曲	-14754
になるが	-14755
こだ	-14756
親交	-14757
そうか	-14758
ガンの	-14759
女学校	-14760
物語の	-14761
近代化	-14762
して居る	-14763
マッカー	-14764
ワーナー	-14765
に変更した	-14766
コンピューター	-14767
ぐり	-14768
京阪	-14769
石器	-14770
フィニ	-14771
▁イギリス	-14772
。1930	-14773
、0	-14774
めい	-14775
ダウ	-14776
徴兵	-14777
拉致	-14778
しないで	-14779
ホテルの	-14780
、1951	-14781
、1954	-14782
デトロイト	-14783
を目的として	-14784
プロデューサーの	-14785
じょ	-14786
すば	-14787
最速	-14788
橋が	-14789
にとも	-14790
石川県	-14791
食事を	-14792
を与えている	-14793
ひた	-14794
シノ	-14795
始末	-14796
役者	-14797
炭鉱	-14798
高温	-14799
わしい	-14800
インパ	-14801
ラート	-14802
士官学校	-14803
点がある	-14804
▁Japan	-14805
ハイブリッド	-14806
に新	-14807
に進む	-14808
を置き	-14809
渡って	-14810
に代わり	-14811
ストレス	-14812
就任した	-14813
平安時代	-14814
記述する	-14815
オートバイ	-14816
が実施された	-14817
姿は	-14818
断絶	-14819
麻薬	-14820
を調べ	-14821
勢力の	-14822
able	-14823
を集めて	-14824
んだろう	-14825
本作では	-14826
が決まった	-14827
は後	-14828
国務	-14829
妹の	-14830
条第	-14831
身は	-14832
▁Me	-14833
が展開	-14834
カレー	-14835
事務局	-14836
富山県	-14837
しまって	-14838
する前に	-14839
はそれを	-14840
ものであるが	-14841
テクノロジー	-14842
サリ	-14843
中川	-14844
京成	-14845
連立	-14846
駅伝	-14847
rad	-14848
岩手県	-14849
するのを	-14850
▁1982	-14851
きっかけで	-14852
敗と	-14853
斯う	-14854
旨を	-14855
縁の	-14856
色々	-14857
おいて	-14858
を販売	-14859
コスロ	-14860
ラファ	-14861
初めに	-14862
静かな	-14863
シベリア	-14864
以外では	-14865
短期大学	-14866
大きかった	-14867
BD	-14868
主体	-14869
目覚	-14870
の導入	-14871
をその	-14872
ニコライ	-14873
のであつた	-14874
ae	-14875
さび	-14876
優勢	-14877
全集	-14878
双方	-14879
寛文	-14880
明石	-14881
田園	-14882
▁Co	-14883
々たる	-14884
ノット	-14885
少年は	-14886
したのち	-14887
▁こうした	-14888
の背	-14889
シリ	-14890
吉川	-14891
薬師	-14892
▁En	-14893
地区は	-14894
機能は	-14895
。1941	-14896
。1943	-14897
に移籍した	-14898
アカウント	-14899
番組として	-14900
インターチェンジ	-14901
をき	-14902
アバ	-14903
品は	-14904
変な	-14905
▁21	-14906
とは別	-14907
にはい	-14908
や他の	-14909
参議院	-14910
市民の	-14911
文学の	-14912
エリック	-14913
かなければ	-14914
してくれる	-14915
採集	-14916
から見	-14917
の意向	-14918
の死後	-14919
▁かつて	-14920
ギャング	-14921
シンプル	-14922
、1937	-14923
二塁	-14924
従事	-14925
説は	-14926
の中間	-14927
最多の	-14928
限定で	-14929
データの	-14930
復活した	-14931
性がある	-14932
欧州連合	-14933
kW	-14934
島田	-14935
荒廃	-14936
豊田	-14937
負荷	-14938
生する	-14939
能力は	-14940
し続けた	-14941
カルタゴ	-14942
ヴェスト	-14943
チェコスロ	-14944
年代にかけて	-14945
ことができない	-14946
出馬	-14947
に移行	-14948
の一角	-14949
リアス	-14950
地域を	-14951
を作って	-14952
を送った	-14953
プライズ	-14954
地方裁判所	-14955
つる	-14956
神秘	-14957
おれは	-14958
と知り	-14959
ホップ	-14960
ミシシ	-14961
国から	-14962
自由党	-14963
親衛隊	-14964
身につ	-14965
この結果	-14966
人だった	-14967
の土	-14968
れも	-14969
今川	-14970
積も	-14971
車内	-14972
ちゃんと	-14973
管弦楽団	-14974
購入した	-14975
、1939	-14976
と呼ばれるようになった	-14977
之を	-14978
尾崎	-14979
率の	-14980
痕跡	-14981
稲荷	-14982
の後に	-14983
を伸ば	-14984
アシュ	-14985
英国の	-14986
部隊を	-14987
々として	-14988
スキャン	-14989
デザインの	-14990
デヴィッド	-14991
作成された	-14992
変わらない	-14993
アグ	-14994
・4	-14995
日程	-14996
潜在	-14997
脅迫	-14998
銀の	-14999
随分	-15000
飯田	-15001
いいえ	-15002
ネズミ	-15003
太陽系	-15004
左右に	-15005
述べる	-15006
6000	-15007
ヴィッチ	-15008
が開始され	-15009
争う	-15010
凱旋	-15011
読書	-15012
足で	-15013
文部科学	-15014
丸の	-15015
口で	-15016
言ひ	-15017
ウィキ	-15018
シェン	-15019
ッサー	-15020
リース	-15021
収録曲	-15022
報じた	-15023
生活に	-15024
関わり	-15025
そこでは	-15026
クラウド	-15027
シャトル	-15028
引退後は	-15029
一般的である	-15030
Cl	-15031
入門	-15032
武力	-15033
縄文	-15034
辞典	-15035
遺構	-15036
グレン	-15037
パンク	-15038
リッヒ	-15039
考へて	-15040
でもなく	-15041
になれば	-15042
歴史的な	-15043
ハードウェア	-15044
IO	-15045
どき	-15046
ばね	-15047
傑作	-15048
光を	-15049
川越	-15050
治世	-15051
監修	-15052
ONE	-15053
支払い	-15054
間違い	-15055
音楽祭	-15056
されることを	-15057
されることが多い	-15058
できるようになった	-15059
NG	-15060
挿絵	-15061
浮き	-15062
神が	-15063
酒の	-15064
ign	-15065
してみ	-15066
を加え	-15067
バスは	-15068
乗車券	-15069
審査員	-15070
年間は	-15071
広がり	-15072
込まれている	-15073
なければならぬ	-15074
めず	-15075
を要	-15076
カエ	-15077
作者	-15078
産駒	-15079
では第	-15080
の実験	-15081
アルミ	-15082
ナンド	-15083
ホスト	-15084
佐世保	-15085
悲しい	-15086
ener	-15087
と評した	-15088
リーグで	-15089
フィレンツェ	-15090
ft	-15091
一家	-15092
処罰	-15093
単語	-15094
堤防	-15095
換装	-15096
検定	-15097
ドッグ	-15098
危機に	-15099
哲学者	-15100
無関係	-15101
バッファ	-15102
実質的に	-15103
政治的な	-15104
デジャネイ	-15105
を余儀なくされた	-15106
かぬ	-15107
二等	-15108
用車	-15109
紀伊	-15110
AFC	-15111
JRA	-15112
ley	-15113
を起用	-15114
政権は	-15115
法違反	-15116
Bill	-15117
作られる	-15118
エルサレム	-15119
アフガニスタン	-15120
LS	-15121
やさ	-15122
名と	-15123
降水	-15124
の利用	-15125
を反映	-15126
を放棄	-15127
ピース	-15128
向かう	-15129
者たちは	-15130
そのものが	-15131
最高裁判所	-15132
三は	-15133
両の	-15134
雄の	-15135
駅に	-15136
高麗	-15137
ata	-15138
さえも	-15139
に達し	-15140
のアナ	-15141
の他に	-15142
らずに	-15143
プラハ	-15144
事故で	-15145
仕掛け	-15146
放射線	-15147
進んだ	-15148
マイアミ	-15149
リオデジャネイ	-15150
嫌い	-15151
州と	-15152
造営	-15153
を意識	-15154
ペドロ	-15155
市場の	-15156
▁Con	-15157
いったん	-15158
という設定	-15159
Co	-15160
寒い	-15161
工房	-15162
芸人	-15163
貯蔵	-15164
に就く	-15165
に残る	-15166
空軍の	-15167
と結婚し	-15168
ニコニコ	-15169
歳以上の	-15170
積極的な	-15171
あまりにも	-15172
リョ	-15173
原爆	-15174
昨夜	-15175
補充	-15176
、40	-15177
の流れ	-15178
告げる	-15179
方程式	-15180
違って	-15181
▁For	-15182
ギャラリー	-15183
ブラジルの	-15184
コイ	-15185
撃沈	-15186
月と	-15187
ato	-15188
送った	-15189
ream	-15190
が少ない	-15191
その中に	-15192
種である	-15193
が約	-15194
列島	-15195
置換	-15196
合いが	-15197
1938	-15198
どころか	-15199
囲まれた	-15200
私たちは	-15201
フォワード	-15202
ラインナップ	-15203
に富	-15204
代官	-15205
喜劇	-15206
を巻き	-15207
率いて	-15208
を行って	-15209
、1936	-15210
を行ったが	-15211
▁World	-15212
こい	-15213
不利	-15214
功労	-15215
掲示	-15216
細工	-15217
詩集	-15218
寄せて	-15219
年の間	-15220
開いた	-15221
いつもの	-15222
協力して	-15223
評価され	-15224
プロレタリア	-15225
角川	-15226
をよく	-15227
東部の	-15228
母親の	-15229
NATO	-15230
ボクサー	-15231
としていたが	-15232
公布	-15233
和尚	-15234
大谷	-15235
系譜	-15236
藤井	-15237
頂点	-15238
、22	-15239
ごとき	-15240
出演し	-15241
受容体	-15242
戦いの	-15243
障害者	-15244
拡大した	-15245
。1942	-15246
整備された	-15247
主席	-15248
出土	-15249
所要	-15250
の長男	-15251
との契約	-15252
なぜなら	-15253
▁1981	-15254
が描かれている	-15255
を売	-15256
ネの	-15257
八百	-15258
奉仕	-15259
巻の	-15260
天皇は	-15261
選んだ	-15262
をマーク	-15263
コミュー	-15264
フォーラム	-15265
影響を受けた	-15266
mi	-15267
字は	-15268
長州	-15269
グレゴ	-15270
チョコ	-15271
冷たい	-15272
投票で	-15273
柔らか	-15274
講談社	-15275
サンクト	-15276
圧倒的な	-15277
負傷した	-15278
がなされている	-15279
と名付けられた	-15280
開催されている	-15281
いす	-15282
にふ	-15283
同校	-15284
拷問	-15285
あんた	-15286
サリー	-15287
テック	-15288
月時点で	-15289
に従事した	-15290
働いていた	-15291
しず	-15292
れが	-15293
士が	-15294
大津	-15295
実戦	-15296
興業	-15297
通学	-15298
除外	-15299
高架	-15300
スキル	-15301
今回の	-15302
年東京	-15303
描かれ	-15304
読んで	-15305
に出演し	-15306
めながら	-15307
を採用し	-15308
月号から	-15309
終了後に	-15310
▁ク	-15311
のび	-15312
茶屋	-15313
ton	-15314
ビアン	-15315
十字架	-15316
表彰台	-15317
こんなに	-15318
▁1972	-15319
であるとして	-15320
などといった	-15321
と指摘している	-15322
アムステルダム	-15323
▁文	-15324
ナギ	-15325
下院	-15326
円の	-15327
噛み	-15328
地裁	-15329
カレン	-15330
途中に	-15331
青森県	-15332
トゥール	-15333
を持っており	-15334
FS	-15335
岩の	-15336
有用	-15337
睡眠	-15338
胞子	-15339
距離は	-15340
輝いた	-15341
あゝ	-15342
ノム	-15343
ラと	-15344
判事	-15345
土俵	-15346
織り	-15347
que	-15348
かろう	-15349
ならん	-15350
同名の	-15351
執政官	-15352
リッシュ	-15353
数少ない	-15354
わたくしは	-15355
システムが	-15356
慶應義塾大学	-15357
じり	-15358
ちよ	-15359
にた	-15360
ィー	-15361
火が	-15362
麻雀	-15363
▁世界	-15364
区から	-15365
愛称は	-15366
はその後	-15367
トロント	-15368
▁1978	-15369
▁LIVE	-15370
傾向がある	-15371
-』	-15372
に注	-15373
enn	-15374
来ない	-15375
楽曲の	-15376
リンゲン	-15377
などによる	-15378
それによって	-15379
アルミニウム	-15380
指摘している	-15381
改築	-15382
東は	-15383
河野	-15384
親族	-15385
ここは	-15386
マーの	-15387
位置し	-15388
に加わり	-15389
をあげて	-15390
日本での	-15391
日本ハム	-15392
ローマ皇帝	-15393
タニ	-15394
公的	-15395
出産	-15396
地や	-15397
恐慌	-15398
掃除	-15399
死を	-15400
に打ち	-15401
の第一	-15402
下では	-15403
年時点	-15404
警察官	-15405
▁1975	-15406
▁かつては	-15407
と称される	-15408
原子力発電	-15409
ブエ	-15410
加え	-15411
奏者	-15412
未亡	-15413
UFC	-15414
ハリス	-15415
を変える	-15416
早くから	-15417
カツ	-15418
奇跡	-15419
幻想	-15420
から逃	-15421
はいない	-15422
AG	-15423
上皇	-15424
剥奪	-15425
着く	-15426
の支援	-15427
はずの	-15428
を設定	-15429
膨大な	-15430
これらを	-15431
わずかな	-15432
相次いで	-15433
。1969	-15434
we	-15435
提督	-15436
渋滞	-15437
の動き	-15438
系統の	-15439
がっこう	-15440
テレビ局	-15441
▁1971	-15442
スティーブン	-15443
ソングライター	-15444
バビ	-15445
リム	-15446
何が	-15447
公正	-15448
学を	-15449
技法	-15450
等級	-15451
わずに	-15452
同一の	-15453
消費者	-15454
簡単な	-15455
返事を	-15456
しています	-15457
イスラエルの	-15458
OK	-15459
▁r	-15460
はん	-15461
舞踊	-15462
茨城	-15463
遺言	-15464
orn	-15465
さっき	-15466
にくい	-15467
ピッツ	-15468
会議の	-15469
労働党	-15470
告げた	-15471
込んでいる	-15472
期限付き移籍	-15473
で構成されている	-15474
にま	-15475
一向	-15476
主教	-15477
蝦夷	-15478
親善	-15479
レーヌ	-15480
人物を	-15481
詳しく	-15482
雑誌の	-15483
さすがに	-15484
などして	-15485
を結んだ	-15486
ジャース	-15487
生きている	-15488
万の	-15489
嘉永	-15490
投下	-15491
案を	-15492
領有	-15493
の上を	-15494
まえて	-15495
りょう	-15496
ゲンの	-15497
ヤマハ	-15498
両方の	-15499
大統領が	-15500
GK	-15501
Sc	-15502
TH	-15503
を張	-15504
勇気	-15505
器具	-15506
微分	-15507
新生	-15508
真剣	-15509
石原	-15510
内容を	-15511
前年に	-15512
表面に	-15513
1936	-15514
を担当し	-15515
カタログ	-15516
ラーメン	-15517
ことはなく	-15518
したことに	-15519
オーディオ	-15520
エレクトリック	-15521
事変	-15522
暗黒	-15523
給与	-15524
▁He	-15525
に統合	-15526
京都の	-15527
生きて	-15528
窓から	-15529
に所属し	-15530
ほんとに	-15531
ライナー	-15532
初期には	-15533
者もいる	-15534
ぞう	-15535
のあ	-15536
大夫	-15537
我慢	-15538
の方に	-15539
コンの	-15540
上った	-15541
勢力が	-15542
航空隊	-15543
にもなった	-15544
これを受けて	-15545
を中心として	-15546
やれ	-15547
保育	-15548
妥協	-15549
広東	-15550
牧野	-15551
住民が	-15552
或いは	-15553
月二十	-15554
ワクチン	-15555
人による	-15556
続けていた	-15557
一枚	-15558
介護	-15559
公国	-15560
局所	-15561
義勇	-15562
itt	-15563
つては	-15564
の如く	-15565
名を連	-15566
せなかった	-15567
ゐて	-15568
テュ	-15569
却下	-15570
祈祷	-15571
神道	-15572
調の	-15573
を知り	-15574
ティは	-15575
彼女に	-15576
リーマン	-15577
機動戦士	-15578
、1938	-15579
リンピック	-15580
FW	-15581
イオ	-15582
凍結	-15583
尚書	-15584
差は	-15585
渡した	-15586
を上回る	-15587
を立てた	-15588
ミシシッピ	-15589
を挙げている	-15590
▁System	-15591
に依	-15592
をよ	-15593
主は	-15594
数も	-15595
物と	-15596
羽田	-15597
角の	-15598
CBS	-15599
を回避	-15600
少数の	-15601
思って	-15602
フェロー	-15603
マンハッ	-15604
ラッセル	-15605
建造された	-15606
でありました	-15607
かゝ	-15608
とど	-15609
割引	-15610
守り	-15611
植え	-15612
うちの	-15613
仕事が	-15614
いてゐる	-15615
カンファ	-15616
キャッシュ	-15617
ヘビー級王座	-15618
名人	-15619
国分	-15620
在来	-15621
時半	-15622
集め	-15623
魚の	-15624
New	-15625
この後	-15626
関係で	-15627
ウィング	-15628
発売した	-15629
この時点で	-15630
考えていた	-15631
▁:	-15632
の役	-15633
極東	-15634
▁もう	-15635
も可能	-15636
サマー	-15637
マーガ	-15638
名前は	-15639
密かに	-15640
知って	-15641
程度で	-15642
郊外の	-15643
とすれば	-15644
人物である	-15645
確認された	-15646
児の	-15647
実力	-15648
対外	-15649
朝に	-15650
赤坂	-15651
那覇	-15652
雪が	-15653
iam	-15654
が開通	-15655
っぽい	-15656
ノヴァ	-15657
機能が	-15658
自己の	-15659
それだけ	-15660
。1965	-15661
骨を	-15662
シアン	-15663
ダーズ	-15664
秋田県	-15665
空間の	-15666
があつた	-15667
メーター	-15668
津軽	-15669
琵琶	-15670
に寄与	-15671
に応じ	-15672
の大阪	-15673
彼等の	-15674
文部省	-15675
身体を	-15676
に選ばれ	-15677
サイズの	-15678
位を獲得	-15679
認められ	-15680
することを目的	-15681
ホセ	-15682
消失	-15683
造成	-15684
顔に	-15685
LED	-15686
だつて	-15687
シュル	-15688
タイア	-15689
代表作	-15690
合いの	-15691
熊本県	-15692
立てる	-15693
なんとか	-15694
の名前は	-15695
を離れて	-15696
ハンドル	-15697
性の高い	-15698
デイヴィッド	-15699
思ふ	-15700
電報	-15701
ディビ	-15702
ヒンド	-15703
大久保	-15704
指揮者	-15705
1937	-15706
を加える	-15707
を残して	-15708
販売されている	-15709
によるものである	-15710
ぐん	-15711
れを	-15712
有馬	-15713
あたる	-15714
とあり	-15715
んだり	-15716
リン酸	-15717
その年の	-15718
はしない	-15719
化される	-15720
▁1940	-15721
ろうとした	-15722
イデオロギー	-15723
ノースカロライ	-15724
オリンピックでは	-15725
ホウ	-15726
像の	-15727
墳丘	-15728
木曽	-15729
症の	-15730
世界を	-15731
太陽の	-15732
最年少	-15733
選手は	-15734
。1964	-15735
なっていた	-15736
カスティー	-15737
紹介された	-15738
やア	-15739
教諭	-15740
書紀	-15741
樹の	-15742
無駄	-15743
疎開	-15744
相応	-15745
にのみ	-15746
ニーの	-15747
中央の	-15748
たしかに	-15749
大学野球	-15750
トレードで	-15751
少なくない	-15752
が追加された	-15753
を残している	-15754
フレデリック	-15755
のでございます	-15756
▁各	-15757
すご	-15758
外来	-15759
安置	-15760
濃度	-15761
を着て	-15762
アリゾ	-15763
ヘクタ	-15764
リオン	-15765
ヴル	-15766
円盤	-15767
勘定	-15768
回表	-15769
安芸	-15770
弥生	-15771
開戦	-15772
が進み	-15773
したる	-15774
マック	-15775
歳の時	-15776
避ける	-15777
パレード	-15778
吸収合併	-15779
儀礼	-15780
公職	-15781
妨げ	-15782
料を	-15783
次期	-15784
石田	-15785
電信	-15786
-23	-15787
うかが	-15788
と関係	-15789
はれて	-15790
を予定	-15791
等しい	-15792
部屋に	-15793
そしてその	-15794
派遣された	-15795
MB	-15796
与党	-15797
制裁	-15798
彗星	-15799
イブン	-15800
中国語	-15801
勝目を	-15802
ころから	-15803
ネーション	-15804
オマ	-15805
兵衞	-15806
型で	-15807
定数	-15808
物も	-15809
退却	-15810
麻酔	-15811
▁には	-15812
バリア	-15813
寄せた	-15814
老人は	-15815
に用いられる	-15816
UD	-15817
を弾	-15818
公判	-15819
有り	-15820
納入	-15821
難易	-15822
館は	-15823
を開く	-15824
ティの	-15825
ハイル	-15826
プロの	-15827
モンゴ	-15828
前者は	-15829
同性愛	-15830
明るく	-15831
伝統的に	-15832
われてきた	-15833
アンドリュー	-15834
いん	-15835
らも	-15836
全然	-15837
同作	-15838
実態	-15839
溶液	-15840
起工	-15841
と日本	-15842
は無い	-15843
ックル	-15844
共同体	-15845
このまま	-15846
の大統領	-15847
われない	-15848
ヘッセン	-15849
事務所の	-15850
宇宙飛行	-15851
▁1968	-15852
FR	-15853
か所	-15854
三年	-15855
京王	-15856
今度	-15857
有害	-15858
機銃	-15859
賛同	-15860
が来た	-15861
調教師	-15862
のですか	-15863
マジック	-15864
人以上の	-15865
と主張している	-15866
が収録されている	-15867
▁八	-15868
ノア	-15869
困る	-15870
常任	-15871
松の	-15872
行使	-15873
してる	-15874
は全く	-15875
を生成	-15876
駅間の	-15877
8000	-15878
ords	-15879
から出て	-15880
ライフル	-15881
発見されている	-15882
不快	-15883
前面	-15884
帰宅	-15885
捧げ	-15886
人類の	-15887
制度は	-15888
部門で	-15889
のなかで	-15890
わざわざ	-15891
を目的に	-15892
シュトゥ	-15893
ゼネラル	-15894
▁1974	-15895
rosoft	-15896
リオデジャネイロ	-15897
ガメ	-15898
コト	-15899
サヨ	-15900
代数	-15901
増殖	-15902
沿線	-15903
経費	-15904
50%	-15905
に失敗	-15906
ダーは	-15907
マニラ	-15908
徳川家	-15909
有数の	-15910
ものです	-15911
われたが	-15912
を喫した	-15913
国土交通省	-15914
を描いている	-15915
しようとしたが	-15916
▁ド	-15917
お茶	-15918
アダ	-15919
キス	-15920
一覧	-15921
店が	-15922
が放送	-15923
工事を	-15924
時代劇	-15925
を伝える	-15926
ファクト	-15927
アーキテク	-15928
クライアント	-15929
EV	-15930
NT	-15931
コパ	-15932
士は	-15933
幕末	-15934
殺す	-15935
鉄砲	-15936
の変更	-15937
を巡る	-15938
ギャグ	-15939
メイド	-15940
愛媛県	-15941
滋賀県	-15942
したまま	-15943
ところの	-15944
いろいろな	-15945
上場	-15946
男優	-15947
AND	-15948
で勝利	-15949
センの	-15950
二人が	-15951
あなたが	-15952
殺人事件	-15953
▁1944	-15954
サスペンション	-15955
まね	-15956
単一	-15957
召し	-15958
味の	-15959
圧迫	-15960
壁の	-15961
本国	-15962
調印	-15963
酒井	-15964
で演奏	-15965
ウラン	-15966
上には	-15967
何度か	-15968
▁pro	-15969
西ドイツ	-15970
に際しては	-15971
モジュール	-15972
PL	-15973
ke	-15974
イは	-15975
佐竹	-15976
格子	-15977
機と	-15978
結構	-15979
絵の	-15980
ara	-15981
に至り	-15982
を踏み	-15983
エステ	-15984
トルク	-15985
枠組み	-15986
特有の	-15987
科学の	-15988
親しま	-15989
呼びかけ	-15990
エンジンを	-15991
メーカーの	-15992
反響	-15993
宝暦	-15994
役は	-15995
敬意	-15996
負債	-15997
に指名	-15998
ナイフ	-15999
同大学	-16000
本人が	-16001
東京府	-16002
ement	-16003
ことがない	-16004
展示されている	-16005
に接	-16006
サマ	-16007
樹脂	-16008
社名	-16009
10%	-16010
コーラ	-16011
刑務所	-16012
するので	-16013
アクティブ	-16014
年に設立された	-16015
うが	-16016
汽車	-16017
遠隔	-16018
順番	-16019
額は	-16020
占める	-16021
誤って	-16022
毎日放送	-16023
▁1973	-16024
代表される	-16025
サンディエゴ	-16026
することはできない	-16027
健全	-16028
出の	-16029
塩基	-16030
幅は	-16031
戸の	-16032
景気	-16033
oll	-16034
から脱	-16035
の称号	-16036
を提案	-16037
アーク	-16038
詳しい	-16039
ミズーリ	-16040
ムービー	-16041
医科大学	-16042
るとともに	-16043
▁Music	-16044
プロデビュー	-16045
▁デ	-16046
ヵ月	-16047
土砂	-16048
引く	-16049
熊谷	-16050
請け	-16051
重ね	-16052
▁ch	-16053
が盛ん	-16054
シャワ	-16055
チャップ	-16056
によっても	-16057
を見つける	-16058
リーグでは	-16059
記している	-16060
囲碁	-16061
岡本	-16062
明は	-16063
無事	-16064
が残る	-16065
リップ	-16066
建造物	-16067
運動は	-16068
ステーク	-16069
でしょうか	-16070
このことから	-16071
スティーヴン	-16072
おこ	-16073
他社	-16074
作動	-16075
全部	-16076
半導	-16077
宝石	-16078
はれた	-16079
フロン	-16080
市役所	-16081
を相手に	-16082
カテゴリー	-16083
フィッシュ	-16084
家や	-16085
平凡	-16086
断層	-16087
早川	-16088
若し	-16089
に配置	-16090
グスタ	-16091
裁判所の	-16092
アレクサンダー	-16093
回し	-16094
町と	-16095
に当選	-16096
監督が	-16097
ator	-16098
。1966	-16099
ものではなく	-16100
官職	-16101
生育	-16102
男に	-16103
請願	-16104
人生の	-16105
信じて	-16106
いでいる	-16107
ところは	-16108
を満たす	-16109
を知った	-16110
4.	-16111
VS	-16112
だめ	-16113
を明	-16114
かしら	-16115
に集中	-16116
リウム	-16117
レバー	-16118
恵まれ	-16119
に切り替	-16120
は日本の	-16121
で優勝した	-16122
を受け入れ	-16123
ソタ	-16124
公社	-16125
南下	-16126
回帰	-16127
比率	-16128
牛乳	-16129
自家	-16130
irl	-16131
の主な	-16132
の人口	-16133
クロム	-16134
ペスト	-16135
精神的	-16136
著した	-16137
シーンは	-16138
作曲した	-16139
ロックバンド	-16140
マイクロソフト	-16141
』。	-16142
かき	-16143
かぶ	-16144
ノミ	-16145
下関	-16146
容器	-16147
西暦	-16148
輪の	-16149
と区別	-16150
の管理	-16151
を活用	-16152
並んで	-16153
天文台	-16154
ここまで	-16155
人たちは	-16156
高等学校を経て	-16157
サンクトペテルブルク	-16158
川村	-16159
構え	-16160
無効	-16161
と合流	-16162
を公開	-16163
を断念	-16164
一部は	-16165
途中の	-16166
の主人公	-16167
シグナル	-16168
モーツァ	-16169
在学中に	-16170
、1933	-16171
ソーシャル	-16172
スタートした	-16173
全国高等学校	-16174
成功を収めた	-16175
ようになっていた	-16176
「1	-16177
クン	-16178
勝手	-16179
指の	-16180
果て	-16181
樺太	-16182
段の	-16183
荘園	-16184
輝く	-16185
雄が	-16186
!』(	-16187
またま	-16188
を変え	-16189
アリス	-16190
最終回	-16191
を挟んで	-16192
リスナー	-16193
▁1969	-16194
ブランドの	-16195
の一人である	-16196
Mk	-16197
吊り	-16198
夏に	-16199
欠場	-16200
質は	-16201
金で	-16202
eam	-16203
さくら	-16204
の準備	-16205
を前提	-16206
カント	-16207
世間の	-16208
議会で	-16209
rist	-16210
コロラド	-16211
バンダイ	-16212
成長した	-16213
▁フランス	-16214
せり	-16215
他方	-16216
吾妻	-16217
寄生	-16218
山内	-16219
文が	-16220
総統	-16221
重に	-16222
鈴鹿	-16223
は一切	-16224
シーは	-16225
人々に	-16226
生活は	-16227
経済の	-16228
背番号	-16229
装置の	-16230
ウェアの	-16231
ティアン	-16232
Linux	-16233
▁ザ	-16234
リハ	-16235
調停	-16236
あとで	-16237
あとは	-16238
にしか	-16239
に変化	-16240
を阻止	-16241
ツキー	-16242
分野の	-16243
著しい	-16244
の方から	-16245
東アジア	-16246
OB	-16247
コシ	-16248
リモ	-16249
区は	-16250
極端	-16251
獅子	-16252
ren	-16253
が見え	-16254
なしで	-16255
日後の	-16256
ぼんやり	-16257
世紀半ば	-16258
事がある	-16259
自身初の	-16260
ナレーション	-16261
活動している	-16262
なければならなかった	-16263
お嬢	-16264
かみ	-16265
ダス	-16266
値が	-16267
句麗	-16268
国営	-16269
失脚	-16270
小銃	-16271
島と	-16272
後続	-16273
浅い	-16274
艦は	-16275
製薬	-16276
お笑い	-16277
を要請	-16278
使える	-16279
を呼んだ	-16280
エッセイ	-16281
スターズ	-16282
少しずつ	-16283
やその他の	-16284
メカニズム	-16285
ウクライナの	-16286
いざ	-16287
こむ	-16288
は各	-16289
友会	-16290
書房	-16291
米の	-16292
っぱら	-16293
デルタ	-16294
撮影所	-16295
▁ゲーム	-16296
リングの	-16297
得られた	-16298
を必要とする	-16299
されているため	-16300
おま	-16301
を整	-16302
タマ	-16303
二は	-16304
勤め	-16305
性別	-16306
漫才	-16307
部位	-16308
セルフ	-16309
バルの	-16310
方面の	-16311
殺され	-16312
瀬戸内	-16313
男性が	-16314
病院の	-16315
スタメン	-16316
ボーイズ	-16317
落とした	-16318
貢献した	-16319
は不明である	-16320
▁何	-16321
の首	-16322
わん	-16323
カブ	-16324
上を	-16325
本能	-16326
法師	-16327
OVE	-16328
がいい	-16329
を勝ち	-16330
ガーは	-16331
俳優の	-16332
違った	-16333
ジョーン	-16334
当たりの	-16335
が決定した	-16336
を目指した	-16337
系アメリカ	-16338
友情	-16339
多岐	-16340
女神	-16341
眼の	-16342
管の	-16343
線形	-16344
顔は	-16345
フロア	-16346
いくらか	-16347
バーデン	-16348
到着した	-16349
担当した	-16350
製作した	-16351
。1920	-16352
ヒューストン	-16353
日に開催された	-16354
が初	-16355
汽船	-16356
現行	-16357
軒の	-16358
しょに	-16359
に限定	-16360
の通り	-16361
絶対に	-16362
莫大な	-16363
視聴者	-16364
超える	-16365
クエスト	-16366
分らない	-16367
▁レ	-16368
を裏	-16369
点満	-16370
祭祀	-16371
立案	-16372
響き	-16373
クロウ	-16374
止めて	-16375
艦隊の	-16376
言つた	-16377
連合軍	-16378
▁ドイツ	-16379
ストンの	-16380
証券取引	-16381
バージニア州	-16382
が建	-16383
均衡	-16384
平行	-16385
旋律	-16386
osh	-16387
が行った	-16388
ナッシュ	-16389
ボスニア	-16390
って行った	-16391
になってから	-16392
""	-16393
fl	-16394
全線	-16395
以上は	-16396
長崎県	-16397
年度から	-16398
ピアニスト	-16399
ように見える	-16400
アレクサンドル	-16401
試合に出場して	-16402
CB	-16403
で破	-16404
ホモ	-16405
南朝	-16406
暴走	-16407
未明	-16408
死傷	-16409
資材	-16410
いわば	-16411
楽しい	-16412
に入学し	-16413
を感じた	-16414
スケール	-16415
ロシア連邦	-16416
初回限定盤	-16417
せき	-16418
を勧	-16419
アポ	-16420
イの	-16421
シク	-16422
テニ	-16423
丁寧	-16424
聴取	-16425
駕籠	-16426
もう一	-16427
ウルフ	-16428
両者は	-16429
乏しい	-16430
由来の	-16431
いったい	-16432
から引き	-16433
をモチーフ	-16434
を発見した	-16435
を始めとする	-16436
シテ	-16437
客室	-16438
帯の	-16439
平定	-16440
幼虫	-16441
征伐	-16442
猶予	-16443
自慢	-16444
阿波	-16445
飛躍	-16446
Met	-16447
ict	-16448
扱った	-16449
しきりに	-16450
ところから	-16451
をベースに	-16452
リンカーン	-16453
少なかった	-16454
4)	-16455
つう	-16456
中小	-16457
先代	-16458
封印	-16459
幅が	-16460
馬力	-16461
.5%	-16462
すぎた	-16463
を運営	-16464
ペトロ	-16465
細長い	-16466
表記は	-16467
起こり	-16468
階級の	-16469
うために	-16470
ることで	-16471
世界的な	-16472
異なった	-16473
カウンター	-16474
ストローク	-16475
リアルタイム	-16476
がけ	-16477
メア	-16478
付随	-16479
司の	-16480
天狗	-16481
料の	-16482
町域	-16483
番付	-16484
目録	-16485
▁Su	-16486
ドック	-16487
裁判官	-16488
階建て	-16489
にあって	-16490
に戻って	-16491
バロック	-16492
を補	-16493
オの	-16494
伴い	-16495
歌を	-16496
球の	-16497
カルシウム	-16498
をリリースした	-16499
三木	-16500
側を	-16501
動向	-16502
十数	-16503
反動	-16504
多分	-16505
推移	-16506
春季	-16507
構図	-16508
犯人	-16509
空き	-16510
あげる	-16511
が開設	-16512
もって	-16513
を監督	-16514
ジェラ	-16515
チャーズ	-16516
国内では	-16517
選手権で	-16518
めるために	-16519
伝道	-16520
red	-16521
まする	-16522
を象徴	-16523
未来の	-16524
機体は	-16525
次々に	-16526
級王者	-16527
どちらの	-16528
日本軍の	-16529
郡庁所在	-16530
エクスプレス	-16531
かさ	-16532
中京	-16533
佐伯	-16534
型が	-16535
声の	-16536
悪な	-16537
津田	-16538
流し	-16539
番目	-16540
細な	-16541
行が	-16542
頭部	-16543
に対処	-16544
多額の	-16545
自体の	-16546
間では	-16547
1200	-16548
を破って	-16549
工科大学	-16550
にあたった	-16551
アセ	-16552
之は	-16553
完璧	-16554
就航	-16555
本項	-16556
紙に	-16557
視野	-16558
親子	-16559
any	-16560
相当の	-16561
裕福な	-16562
限られた	-16563
、1928	-16564
だけだった	-16565
バリエーション	-16566
PO	-16567
は水	-16568
を敷	-16569
便利	-16570
信託	-16571
史の	-16572
商船	-16573
後援	-16574
湖の	-16575
調で	-16576
諸説	-16577
カンボ	-16578
ガルト	-16579
内から	-16580
前後に	-16581
学校は	-16582
できるが	-16583
ダグラス	-16584
継がれた	-16585
パトリック	-16586
レーティング	-16587
8,	-16588
合体	-16589
本郷	-16590
歌は	-16591
▁22	-16592
ギニア	-16593
問題視	-16594
が起こる	-16595
世紀前半	-16596
最終的な	-16597
そうとした	-16598
本社を置く	-16599
じられている	-16600
ブリティッシュ	-16601
;/	-16602
そん	-16603
大井	-16604
寄贈	-16605
覚醒	-16606
進撃	-16607
▁Le	-16608
に向か	-16609
ゴット	-16610
子さん	-16611
100%	-16612
しかしその	-16613
ラクション	-16614
のではないかと	-16615
同情	-16616
喫茶	-16617
性も	-16618
西郷	-16619
迎撃	-16620
金庫	-16621
ome	-16622
▁Be	-16623
▁江戸	-16624
はそれ	-16625
ガンダ	-16626
ライプ	-16627
戦いを	-16628
科学者	-16629
ミネソタ	-16630
参加する	-16631
的であった	-16632
月に行われた	-16633
研究センター	-16634
住吉	-16635
質な	-16636
を刊行	-16637
サーチ	-16638
構成は	-16639
させるため	-16640
オケ	-16641
モラ	-16642
久し	-16643
町を	-16644
を生産	-16645
大なる	-16646
子供は	-16647
幾つかの	-16648
ゴミ	-16649
ベテ	-16650
公平	-16651
抽選	-16652
死骸	-16653
漸く	-16654
結核	-16655
▁is	-16656
した時	-16657
を開業	-16658
シーの	-16659
会長の	-16660
選手団	-16661
下院議員	-16662
をしながら	-16663
イギリスで	-16664
チカ	-16665
債権	-16666
北は	-16667
慰安	-16668
時頃	-16669
泥棒	-16670
産物	-16671
用水	-16672
食の	-16673
に改造	-16674
チーズ	-16675
ハット	-16676
ンドラ	-16677
価格は	-16678
出場権	-16679
との共同	-16680
デイリー	-16681
。1963	-16682
に反対する	-16683
機関である	-16684
が与えられた	-16685
を説	-16686
四位	-16687
実務	-16688
山中	-16689
店は	-16690
後部	-16691
日活	-16692
浪人	-16693
端は	-16694
規範	-16695
誘致	-16696
週末	-16697
ガルの	-16698
よろしい	-16699
開幕から	-16700
集まった	-16701
の大部分は	-16702
▁このような	-16703
えい	-16704
が長	-16705
ぞく	-16706
中略	-16707
出荷	-16708
と結び	-16709
シュテ	-16710
任する	-16711
古くは	-16712
終わる	-16713
背景には	-16714
▁1941	-16715
契約を締結	-16716
が設けられた	-16717
、」	-16718
事典	-16719
小麦	-16720
鳥類	-16721
の普及	-16722
ポーズ	-16723
優しい	-16724
外国の	-16725
々とした	-16726
ッシング	-16727
子供たち	-16728
レースでは	-16729
もや	-16730
勅令	-16731
培養	-16732
年月	-16733
添加	-16734
虚偽	-16735
西方	-16736
に侵攻	-16737
カリブ	-16738
デスク	-16739
ビザン	-16740
笑って	-16741
誰にも	-16742
変更され	-16743
。1958	-16744
に進出した	-16745
アドベンチャー	-16746
伊予	-16747
申す	-16748
野外	-16749
階に	-16750
の番組	-16751
ホークス	-16752
対照的に	-16753
が得られる	-16754
以下の通り	-16755
お客	-16756
みと	-16757
一九	-16758
不審	-16759
処女	-16760
官吏	-16761
投獄	-16762
東武	-16763
胴体	-16764
rig	-16765
が再び	-16766
クロン	-16767
戦争は	-16768
本当の	-16769
長谷川	-16770
が入った	-16771
スターリン	-16772
させることを	-16773
プライベート	-16774
えき	-16775
がし	-16776
をふ	-16777
佐渡	-16778
何者	-16779
供養	-16780
内装	-16781
匹敵	-16782
格好	-16783
液晶	-16784
の増加	-16785
一度も	-16786
土曜日	-16787
ロシア語	-16788
漫画作品	-16789
があることを	-16790
キャラクターが	-16791
両者	-16792
寝台	-16793
強豪	-16794
有る	-16795
横山	-16796
盛期	-16797
系が	-16798
ico	-16799
におよ	-16800
を喫し	-16801
キッド	-16802
ハッチ	-16803
万人が	-16804
年度に	-16805
行つて	-16806
変わらず	-16807
渡された	-16808
、1935	-16809
こととなり	-16810
を支持する	-16811
ドラえもん	-16812
ユダヤ人の	-16813
中国共産党	-16814
せつ	-16815
の墓	-16816
丸は	-16817
以内	-16818
反面	-16819
安藤	-16820
宮本	-16821
常磐	-16822
影が	-16823
電撃	-16824
も含め	-16825
ドコモ	-16826
問題に	-16827
法改正	-16828
その日の	-16829
と共同で	-16830
シールド	-16831
を利用する	-16832
克服	-16833
激減	-16834
船体	-16835
ブルジョ	-16836
であろうか	-16837
to	-16838
上部	-16839
多彩	-16840
尾の	-16841
市営	-16842
欠陥	-16843
紅白	-16844
ini	-16845
らえる	-16846
を奪取	-16847
バータ	-16848
ヒップ	-16849
行こう	-16850
離れて	-16851
わけには	-16852
主張する	-16853
同年には	-16854
発売され	-16855
など多くの	-16856
を行っており	-16857
カトリック教会	-16858
採用されている	-16859
叔母	-16860
教官	-16861
木を	-16862
いまだ	-16863
からぬ	-16864
つくり	-16865
カルの	-16866
スパル	-16867
ティル	-16868
トミー	-16869
学生が	-16870
州知事	-16871
真珠湾	-16872
結婚式	-16873
▁多くの	-16874
ソックス	-16875
。1948	-16876
されるのは	-16877
に留まった	-16878
メダリスト	-16879
することが発表された	-16880
おる	-16881
原市	-16882
天堂	-16883
新羅	-16884
治郎	-16885
眼に	-16886
農場	-16887
進め	-16888
郡山	-16889
、23	-16890
の後ろ	-16891
シュト	-16892
ソール	-16893
フアン	-16894
事実を	-16895
成功し	-16896
英語で	-16897
所属していた	-16898
きょ	-16899
庭の	-16900
なさる	-16901
輸送船	-16902
1934	-16903
1935	-16904
roid	-16905
リントン	-16906
も見られる	-16907
ワルシャワ	-16908
リリースした	-16909
男として生まれる	-16910
▁水	-16911
五六	-16912
改名	-16913
教義	-16914
母音	-16915
講習	-16916
造り	-16917
首の	-16918
マルコ	-16919
代将軍	-16920
分ける	-16921
rans	-16922
なんでも	-16923
営業運転	-16924
標準的な	-16925
▁1977	-16926
に似ている	-16927
テレビ放送	-16928
予定だったが	-16929
位を獲得した	-16930
確認されている	-16931
がわ	-16932
時折	-16933
顔で	-16934
▁Ad	-16935
▁など	-16936
を選ぶ	-16937
利用者	-16938
7000	-16939
あたかも	-16940
ジェリー	-16941
大統領選挙	-16942
として初めて	-16943
を覚	-16944
二本	-16945
個別	-16946
地主	-16947
船橋	-16948
まとめ	-16949
を言い	-16950
在する	-16951
日に第	-16952
平均的な	-16953
はそれぞれ	-16954
が必要となる	-16955
備え	-16956
版画	-16957
終点	-16958
薬を	-16959
の中継	-16960
八王子	-16961
roup	-16962
から成る	-16963
していき	-16964
二酸化炭素	-16965
He	-16966
UP	-16967
がち	-16968
を置	-16969
ツキ	-16970
ホリ	-16971
一橋	-16972
地盤	-16973
新造	-16974
精力	-16975
に住み	-16976
を原作	-16977
オフに	-16978
ボイス	-16979
考え方	-16980
あっても	-16981
さうして	-16982
を遂げた	-16983
タッグ王座	-16984
施行された	-16985
内藤	-16986
後を	-16987
移管	-16988
若き	-16989
▁とは	-16990
そりゃ	-16991
を強化	-16992
コリン	-16993
原子炉	-16994
帰国した	-16995
復帰した	-16996
ることになる	-16997
DR	-16998
不要	-16999
公安	-17000
原田	-17001
搬送	-17002
ail	-17003
の取り	-17004
の開催	-17005
総督府	-17006
言葉が	-17007
の一つで	-17008
パロディ	-17009
▁1942	-17010
。1938	-17011
にとっても	-17012
ウルトラマン	-17013
モーツァルト	-17014
みち	-17015
ベッ	-17016
何ん	-17017
慕容	-17018
犬の	-17019
▁OF	-17020
の企画	-17021
はこれ	-17022
を出た	-17023
を掲載	-17024
を直接	-17025
ケント	-17026
メンテ	-17027
伝えた	-17028
各種の	-17029
年初頭	-17030
武蔵野	-17031
落ちる	-17032
ount	-17033
って行く	-17034
切り替え	-17035
年に日本	-17036
この作品は	-17037
販売された	-17038
も行っている	-17039
とで	-17040
湘南	-17041
迫害	-17042
通訳	-17043
を調査	-17044
ノック	-17045
ボルン	-17046
予備役	-17047
分けて	-17048
機関は	-17049
海兵隊	-17050
まとめた	-17051
に存在する	-17052
に就任する	-17053
ばた	-17054
平坦	-17055
ris	-17056
の整備	-17057
を統合	-17058
チェー	-17059
東京市	-17060
集めた	-17061
リメイク	-17062
週刊少年	-17063
。1962	-17064
ハミルトン	-17065
ルネサンス	-17066
することである	-17067
?』	-17068
EG	-17069
に処	-17070
職人	-17071
les	-17072
こそが	-17073
の基礎	-17074
の拡大	-17075
わしは	-17076
つて来た	-17077
キャンパ	-17078
クラブは	-17079
ドイツ連邦	-17080
処刑された	-17081
設定された	-17082
へお	-17083
ナノ	-17084
東区	-17085
特色	-17086
裏の	-17087
転向	-17088
院長	-17089
サーン	-17090
自宅で	-17091
への移行	-17092
▁1976	-17093
追加された	-17094
することが多い	-17095
俺の	-17096
彼等	-17097
破片	-17098
lex	-17099
▁当初	-17100
ましく	-17101
カーズ	-17102
ツィヒ	-17103
二代目	-17104
制度が	-17105
くれない	-17106
すことを	-17107
ふたたび	-17108
組み立て	-17109
マケドニア	-17110
じゃありませんか	-17111
と三	-17112
妥当	-17113
に向け	-17114
を付け	-17115
ルノー	-17116
丁目の	-17117
日の第	-17118
達した	-17119
っきりと	-17120
女子大学	-17121
経済成長	-17122
。1946	-17123
させることで	-17124
プレミアリーグ	-17125
に本	-17126
に隠	-17127
ヒュ	-17128
前回	-17129
四季	-17130
蔵の	-17131
ava	-17132
rin	-17133
▁アン	-17134
なんで	-17135
に選出	-17136
を中止	-17137
アイン	-17138
デンは	-17139
トゥル	-17140
物語は	-17141
カリスト	-17142
テイメント	-17143
主観	-17144
二年	-17145
二百	-17146
党員	-17147
崩御	-17148
産卵	-17149
高木	-17150
3.5	-17151
▁30	-17152
オーガ	-17153
ショナ	-17154
状況は	-17155
生きる	-17156
への出演	-17157
記された	-17158
そういった	-17159
を捕	-17160
ロア	-17161
因果	-17162
天平	-17163
成の	-17164
時を	-17165
群衆	-17166
聞か	-17167
NBC	-17168
let	-17169
row	-17170
からか	-17171
を入れ	-17172
近所の	-17173
に立候補	-17174
ステレオ	-17175
継承した	-17176
べきである	-17177
アッシリア	-17178
とされており	-17179
▁°	-17180
べた	-17181
四球	-17182
席の	-17183
池袋	-17184
海兵	-17185
退屈	-17186
にせよ	-17187
ニウス	-17188
リンゴ	-17189
遅れて	-17190
▁当時の	-17191
こちらの	-17192
と称して	-17193
の主題歌	-17194
をしたり	-17195
を手掛けた	-17196
例としては	-17197
を引き継いだ	-17198
イグ	-17199
クモ	-17200
シラ	-17201
円筒	-17202
囲む	-17203
嫉妬	-17204
頼み	-17205
飛騨	-17206
が一番	-17207
レクト	-17208
日本一	-17209
登録を	-17210
相手が	-17211
の上から	-17212
車として	-17213
造られた	-17214
ことが判明	-17215
これに伴い	-17216
という成績	-17217
などを経て	-17218
形となった	-17219
ることができた	-17220
に居	-17221
はた	-17222
ネコ	-17223
教鞭	-17224
望む	-17225
蔵は	-17226
規約	-17227
逸話	-17228
ちやん	-17229
を抱く	-17230
テュー	-17231
バーは	-17232
最高位	-17233
条件で	-17234
福井県	-17235
近くで	-17236
開催の	-17237
を立てて	-17238
のデザイン	-17239
ストロング	-17240
再選	-17241
北極	-17242
島が	-17243
枚目	-17244
榴弾	-17245
献上	-17246
食用	-17247
鶴見	-17248
のだと	-17249
キエフ	-17250
全体で	-17251
場合の	-17252
年代記	-17253
条約の	-17254
ハワード	-17255
、1932	-17256
のですから	-17257
ヴュルテンベルク	-17258
ミカ	-17259
出血	-17260
同国	-17261
大山	-17262
明瞭	-17263
長老	-17264
IDE	-17265
さして	-17266
へ進学	-17267
ジウム	-17268
ジミー	-17269
ダール	-17270
駆逐隊	-17271
路線バス	-17272
。1961	-17273
ジェンダー	-17274
座標	-17275
指向	-17276
推し	-17277
援護	-17278
眼で	-17279
750	-17280
Net	-17281
の上へ	-17282
コイン	-17283
仕事は	-17284
機体の	-17285
確実に	-17286
言葉で	-17287
に分けて	-17288
の人々は	-17289
を入れる	-17290
アーカイ	-17291
子である	-17292
日までは	-17293
自分自身	-17294
、1929	-17295
。1959	-17296
にかけては	-17297
Billboard	-17298
やめ	-17299
伏せ	-17300
公明	-17301
医者	-17302
神学	-17303
ife	-17304
も参照	-17305
全国に	-17306
変わる	-17307
レポート	-17308
を知らない	-17309
ウリ	-17310
メト	-17311
下は	-17312
中核	-17313
体格	-17314
如来	-17315
広範	-17316
父と	-17317
菩提	-17318
を見つ	-17319
コンゴ	-17320
ピンの	-17321
する方針	-17322
フェース	-17323
ることとなった	-17324
の風	-17325
イヌ	-17326
シマ	-17327
ボヘ	-17328
八戸	-17329
内田	-17330
千人	-17331
船長	-17332
途上	-17333
NET	-17334
みれば	-17335
地上波	-17336
との交流	-17337
オルガン	-17338
リリーフ	-17339
あくまでも	-17340
システムを	-17341
表記される	-17342
がね	-17343
の諸	-17344
台が	-17345
民放	-17346
男と	-17347
目黒	-17348
解明	-17349
連装	-17350
食材	-17351
ery	-17352
に陥り	-17353
の記述	-17354
を再現	-17355
スラヴ	-17356
▁彼女は	-17357
を設置し	-17358
場合でも	-17359
活動した	-17360
。2025	-17361
くろ	-17362
性で	-17363
緑色	-17364
能登	-17365
が計画	-17366
寄りの	-17367
専門は	-17368
1918	-17369
reat	-17370
を挙げる	-17371
コースト	-17372
試合出場	-17373
。1939	-17374
としているが	-17375
と呼んでいる	-17376
二分	-17377
値を	-17378
共鳴	-17379
吐き	-17380
塩化	-17381
対潜	-17382
子供を	-17383
使用した	-17384
自由主義	-17385
贈られた	-17386
ことに気づ	-17387
のだという	-17388
フランチェ	-17389
3、	-17390
んじ	-17391
ムラ	-17392
失業	-17393
密度	-17394
撤廃	-17395
水中	-17396
説教	-17397
速い	-17398
を保有	-17399
オフの	-17400
大司教	-17401
考古学	-17402
その上に	-17403
だろうと	-17404
ドイツ人	-17405
が存在した	-17406
ハンブルク	-17407
一応	-17408
一言	-17409
住職	-17410
据え	-17411
有志	-17412
ERS	-17413
が特徴	-17414
に続き	-17415
を締結	-17416
乗務員	-17417
1928	-17418
すべてが	-17419
リューション	-17420
年に発売された	-17421
せっ	-17422
ビオ	-17423
写本	-17424
射程	-17425
暴露	-17426
楽譜	-17427
種を	-17428
致命	-17429
out	-17430
パター	-17431
倒れた	-17432
第二の	-17433
への対応	-17434
を流れる	-17435
ウェイン	-17436
サウジア	-17437
チームで	-17438
性のある	-17439
アメリカ海軍	-17440
ポーランドの	-17441
火器	-17442
魔女	-17443
▁kg	-17444
アスレ	-17445
ガーの	-17446
タイの	-17447
出来ず	-17448
▁Ass	-17449
バイザー	-17450
ミュエル	-17451
個人的な	-17452
フラッシュ	-17453
もありません	-17454
"-	-17455
du	-17456
も大	-17457
信任	-17458
東山	-17459
ype	-17460
中央区	-17461
手紙を	-17462
都市は	-17463
クリミア	-17464
フェミニ	-17465
一般には	-17466
全国大会	-17467
足りない	-17468
チラ	-17469
暮れ	-17470
楽の	-17471
狙撃	-17472
草の	-17473
と定義	-17474
るとき	-17475
ナンス	-17476
メルセ	-17477
停留所	-17478
モニター	-17479
位を記録した	-17480
に載	-17481
寄進	-17482
水源	-17483
を行使	-17484
三つの	-17485
全てが	-17486
地上に	-17487
見込み	-17488
1929	-17489
されてい	-17490
ブリテン	-17491
。1956	-17492
にわ	-17493
に覆	-17494
の基	-17495
りも	-17496
を活	-17497
失望	-17498
尾根	-17499
泣く	-17500
青銅	-17501
AKB	-17502
へ移動	-17503
オリー	-17504
ザック	-17505
香川県	-17506
ヴァルト	-17507
化により	-17508
▁株式会社	-17509
。1947	-17510
エレベーター	-17511
PV	-17512
のこ	-17513
代は	-17514
奨学	-17515
撃退	-17516
案は	-17517
説が	-17518
105	-17519
あえて	-17520
しくて	-17521
代藩主	-17522
lass	-17523
せんしゅ	-17524
と称した	-17525
ゼルバイ	-17526
のタイトルで	-17527
運行されている	-17528
と断	-17529
を横	-17530
を貫	-17531
ヤの	-17532
一塁	-17533
啓蒙	-17534
売れ	-17535
注射	-17536
谷は	-17537
鉱業	-17538
だして	-17539
の中核	-17540
云つた	-17541
無所属	-17542
体として	-17543
立場から	-17544
そのものの	-17545
に携わった	-17546
クラッシュ	-17547
としての活動	-17548
ということである	-17549
に誘	-17550
城壁	-17551
機密	-17552
民謡	-17553
法務	-17554
直流	-17555
ele	-17556
づける	-17557
ゲリラ	-17558
話して	-17559
スケッチ	-17560
世界初の	-17561
を結成した	-17562
委員会委員	-17563
YS	-17564
世襲	-17565
吉本	-17566
改定	-17567
返答	-17568
違ひ	-17569
難波	-17570
oot	-17571
クラン	-17572
サンプ	-17573
ジャワ	-17574
歌劇場	-17575
スクエア	-17576
セメント	-17577
もう一つの	-17578
プスブルク	-17579
モントリオ	-17580
試合の出場	-17581
フィルハーモニー	-17582
AF	-17583
エナ	-17584
木戸	-17585
』)。	-17586
のよう	-17587
ふしぎ	-17588
クレオ	-17589
ルーン	-17590
最下位	-17591
フォックス	-17592
ベルリンの	-17593
考えている	-17594
アーキテクチャ	-17595
の合	-17596
喫煙	-17597
奪還	-17598
母艦	-17599
祈願	-17600
を掲げ	-17601
サッカ	-17602
最新の	-17603
系列局	-17604
自然な	-17605
っとした	-17606
ウォルト	-17607
ジョニー	-17608
に移転した	-17609
の一種である	-17610
が届	-17611
エグ	-17612
サロ	-17613
ドキ	-17614
上院	-17615
大塚	-17616
専任	-17617
常設	-17618
捕手	-17619
文科	-17620
真相	-17621
0.0	-17622
▁前作	-17623
にもう	-17624
以下に	-17625
構造が	-17626
流れて	-17627
理事会	-17628
面した	-17629
せられて	-17630
の地位を	-17631
は行われ	-17632
づけられた	-17633
ノミネートされた	-17634
TM	-17635
を冠	-17636
ェン	-17637
坊主	-17638
渡る	-17639
真に	-17640
賃金	-17641
を示唆	-17642
に携わる	-17643
ウイング	-17644
ウラジー	-17645
切られた	-17646
▁こうして	-17647
YA	-17648
一歩	-17649
周回	-17650
左派	-17651
歩み	-17652
毛の	-17653
特筆	-17654
』・『	-17655
が進む	-17656
の支配	-17657
発表し	-17658
するほど	-17659
に進んだ	-17660
カードの	-17661
ビタミン	-17662
取られた	-17663
研究開発	-17664
ようとして	-17665
報告された	-17666
サウジアラビア	-17667
を盗	-17668
挑む	-17669
ネスコ	-17670
ビック	-17671
組織は	-17672
が必要な	-17673
学科卒業	-17674
日である	-17675
ができない	-17676
カンボジア	-17677
承認された	-17678
主張している	-17679
あつ	-17680
の為	-17681
人組	-17682
人道	-17683
家具	-17684
無罪	-17685
の機会	-17686
の編集	-17687
消えた	-17688
1932	-17689
ゴシック	-17690
事である	-17691
国である	-17692
大学では	-17693
日本書紀	-17694
にしていた	-17695
ジェイムズ	-17696
以下のように	-17697
ずい	-17698
オム	-17699
ッラ	-17700
ヨシ	-17701
内野	-17702
守る	-17703
摂津	-17704
用品	-17705
真空	-17706
絶賛	-17707
込め	-17708
静止	-17709
103	-17710
JST	-17711
せめて	-17712
スタイ	-17713
ネスト	-17714
チャンス	-17715
レースの	-17716
結婚した	-17717
年にわたって	-17718
公開されている	-17719
を叩	-17720
久留	-17721
伯父	-17722
公卿	-17723
制圧	-17724
帝が	-17725
きます	-17726
サリン	-17727
走した	-17728
を離れた	-17729
後述する	-17730
関係にある	-17731
カスティーリャ	-17732
ニューヨーク市	-17733
おと	-17734
奉納	-17735
掘削	-17736
▁SP	-17737
くとも	-17738
ほんの	-17739
まつり	-17740
アワード	-17741
エリート	-17742
テイラー	-17743
フロリダ州	-17744
予定だった	-17745
フォーマット	-17746
フィギュアスケート	-17747
UM	-17748
勝つ	-17749
吸い	-17750
国旗	-17751
界に	-17752
ere	-17753
は同じ	-17754
伝わる	-17755
小学生	-17756
建物を	-17757
怒りを	-17758
怪しい	-17759
戦いに	-17760
攻撃は	-17761
に拠れば	-17762
ークラブ	-17763
こういった	-17764
込んでいた	-17765
ルーズベルト	-17766
Pa	-17767
丹後	-17768
事象	-17769
四角	-17770
水野	-17771
無論	-17772
福山	-17773
窓の	-17774
雲の	-17775
GHQ	-17776
gen	-17777
とでも	-17778
の製作	-17779
ガンは	-17780
ジェロ	-17781
ムーア	-17782
争いを	-17783
二丁目	-17784
大阪の	-17785
試合では	-17786
シリーズで	-17787
埋葬された	-17788
大学に進学	-17789
ミュージックビデオ	-17790
9,	-17791
ルカ	-17792
駅が	-17793
髪を	-17794
」)。	-17795
りゅう	-17796
ムーン	-17797
位置に	-17798
アドルフ	-17799
ステンレス	-17800
しているのは	-17801
であることは	-17802
ちは	-17803
を配	-17804
古川	-17805
増し	-17806
異議	-17807
豊橋	-17808
附近	-17809
イース	-17810
キュア	-17811
グルー	-17812
路線が	-17813
度の高い	-17814
が認められる	-17815
WE	-17816
フッ	-17817
光明	-17818
待つ	-17819
振付	-17820
摩擦	-17821
秋に	-17822
美人	-17823
自伝	-17824
著者	-17825
西欧	-17826
そうで	-17827
に定着	-17828
の運営	-17829
熱心に	-17830
物質の	-17831
生きた	-17832
過ぎる	-17833
開幕戦	-17834
1933	-17835
を支える	-17836
オールド	-17837
プライム	-17838
焦点を当て	-17839
プの	-17840
並み	-17841
亜科	-17842
小沢	-17843
庇護	-17844
習い	-17845
ませた	-17846
を築き	-17847
ザード	-17848
相手は	-17849
過ごし	-17850
にもなる	-17851
の人口は	-17852
をつくる	-17853
コーディ	-17854
月までは	-17855
番人気に	-17856
。1937	-17857
おじ	-17858
へ通	-17859
ガタ	-17860
主翼	-17861
公会	-17862
同誌	-17863
定員	-17864
岸に	-17865
式が	-17866
彼と	-17867
方も	-17868
松尾	-17869
薄く	-17870
都督	-17871
▁De	-17872
する際	-17873
を終了	-17874
ケルン	-17875
ゴード	-17876
シーク	-17877
下から	-17878
台湾の	-17879
話では	-17880
を開いて	-17881
スターの	-17882
ロジャー	-17883
中央競馬	-17884
楽しめる	-17885
。1949	-17886
大学名誉教授	-17887
に位置している	-17888
プエ	-17889
一見	-17890
三百	-17891
五日	-17892
信玄	-17893
分間	-17894
反転	-17895
寄稿	-17896
感銘	-17897
決済	-17898
直列	-17899
羽の	-17900
キャピ	-17901
山形県	-17902
歴史家	-17903
第一に	-17904
の間には	-17905
オレゴン	-17906
▁1967	-17907
▁によって	-17908
に復帰した	-17909
ストリーム	-17910
世田	-17911
山地	-17912
彼も	-17913
志向	-17914
決戦	-17915
に転換	-17916
もとの	-17917
を着た	-17918
デール	-17919
ポピュ	-17920
南北に	-17921
固有の	-17922
正教会	-17923
を除いた	-17924
ハーゲン	-17925
▁1943	-17926
レイアウト	-17927
インストール	-17928
機動戦士ガンダム	-17929
新幹	-17930
旧姓	-17931
模倣	-17932
と引き	-17933
の設立	-17934
ロッド	-17935
契約で	-17936
意見を	-17937
ジュネー	-17938
ドイツ軍	-17939
駅である	-17940
メンバーとして	-17941
Ex	-17942
を突	-17943
サハ	-17944
支障	-17945
重臣	-17946
rid	-17947
さうな	-17948
も含む	-17949
間にか	-17950
したために	-17951
に所属した	-17952
基督	-17953
招聘	-17954
朝倉	-17955
未遂	-17956
機雷	-17957
視点	-17958
ラーズ	-17959
後楽園	-17960
朝から	-17961
殆んど	-17962
気温は	-17963
飲食店	-17964
▁1930	-17965
事業として	-17966
不二	-17967
感想	-17968
番頭	-17969
軍需	-17970
えるが	-17971
と一致	-17972
シェー	-17973
ハノー	-17974
産業の	-17975
製作の	-17976
非営利	-17977
和歌山県	-17978
旅客鉄道	-17979
資本主義	-17980
、1931	-17981
も行われた	-17982
知っていた	-17983
しかなかった	-17984
とも言われる	-17985
▁[	-17986
▁白	-17987
は行	-17988
を患	-17989
バの	-17990
レの	-17991
人数	-17992
入国	-17993
古河	-17994
夢中	-17995
氏族	-17996
450	-17997
▁23	-17998
』()	-17999
却って	-18000
在住の	-18001
読んだ	-18002
を巡って	-18003
サイバー	-18004
私たちの	-18005
落選した	-18006
ことが可能	-18007
ライオンズ	-18008
対策として	-18009
世俗	-18010
兼任	-18011
半七	-18012
境に	-18013
正の	-18014
皇族	-18015
花序	-18016
▁国際	-18017
▁天正	-18018
が増え	-18019
の多い	-18020
までを	-18021
を強調	-18022
マッカ	-18023
候補者	-18024
周辺に	-18025
教えて	-18026
目には	-18027
高性能	-18028
▁本作の	-18029
から撤退	-18030
ology	-18031
、1934	-18032
はフランス	-18033
号に	-18034
忽ち	-18035
炎症	-18036
王室	-18037
荒川	-18038
ave	-18039
しての	-18040
テンポ	-18041
付いて	-18042
直ぐに	-18043
短距離	-18044
ヨーゼフ	-18045
間もない	-18046
ウィンブル	-18047
を祝	-18048
兄は	-18049
分泌	-18050
厚く	-18051
垂れ	-18052
工廠	-18053
本尊	-18054
松浦	-18055
法と	-18056
番は	-18057
西村	-18058
馬に	-18059
小規模	-18060
期間の	-18061
良好な	-18062
たまたま	-18063
の一部に	-18064
サンプル	-18065
水力発電	-18066
という用語	-18067
アルバニア	-18068
仕方がない	-18069
立っていた	-18070
都市である	-18071
が設けられている	-18072
シミ	-18073
ッて	-18074
失踪	-18075
差が	-18076
腐敗	-18077
調子	-18078
貼り	-18079
釈迦	-18080
ぎょう	-18081
に従軍	-18082
ジャク	-18083
世の中	-18084
契機に	-18085
更なる	-18086
をもった	-18087
シーンの	-18088
デンティ	-18089
プレゼン	-18090
メンタル	-18091
子どもの	-18092
独立して	-18093
起用され	-18094
関係者の	-18095
に住んでいた	-18096
を取り入れた	-18097
フェルディナ	-18098
ことができなかった	-18099
▁初	-18100
カサ	-18101
召喚	-18102
学芸	-18103
藤沢	-18104
なのに	-18105
ひょう	-18106
シンセ	-18107
プラグ	-18108
伸びる	-18109
寄せる	-18110
後者の	-18111
の大部分	-18112
航空機の	-18113
遺伝子の	-18114
候補として	-18115
というものが	-18116
という理由で	-18117
アカデミー賞	-18118
na	-18119
作が	-18120
急ぎ	-18121
社で	-18122
筋の	-18123
ベーション	-18124
準々決勝で	-18125
オープンでは	-18126
マーガレット	-18127
Mi	-18128
〴〵	-18129
に来	-18130
古巣	-18131
年同	-18132
西に	-18133
論的	-18134
どうせ	-18135
の要素	-18136
外交官	-18137
日曜日	-18138
距離が	-18139
1931	-18140
を認めた	-18141
対応する	-18142
準々決勝	-18143
する場合は	-18144
勝ちを収め	-18145
残っていた	-18146
ハプスブルク	-18147
あさ	-18148
ッダ	-18149
必殺	-18150
さずに	-18151
と提携	-18152
どこへ	-18153
にも拘	-18154
の実施	-18155
化合物	-18156
協会は	-18157
この曲は	-18158
を名乗る	-18159
カセット	-18160
(2020	-18161
。1955	-18162
カルチャー	-18163
に収録されている	-18164
ya	-18165
▁ナ	-18166
うす	-18167
レノ	-18168
下野	-18169
命の	-18170
墓地	-18171
姉の	-18172
実の	-18173
漁師	-18174
硫酸	-18175
脆弱	-18176
遊ぶ	-18177
回日本	-18178
管弦楽	-18179
クスピア	-18180
先発出場	-18181
記載された	-18182
可能性もある	-18183
冷戦	-18184
遅い	-18185
集英	-18186
ENT	-18187
WWE	-18188
即座に	-18189
年度は	-18190
当日の	-18191
愛する	-18192
日後に	-18193
逃げた	-18194
シャフト	-18195
かったため	-18196
ウィルソン	-18197
定められている	-18198
//	-18199
ダメ	-18200
可変	-18201
封建	-18202
島を	-18203
幅の	-18204
立方	-18205
簡素	-18206
通告	-18207
代目の	-18208
価値観	-18209
内部に	-18210
向かい	-18211
本線の	-18212
ちゃんは	-18213
ひとりで	-18214
シュトラ	-18215
月までの	-18216
軍司令官	-18217
クイーンズ	-18218
ations	-18219
と思っている	-18220
場合によっては	-18221
封入	-18222
戦果	-18223
田辺	-18224
ERO	-18225
うまい	-18226
がより	-18227
の活動	-18228
を装着	-18229
不可欠	-18230
民営化	-18231
タービン	-18232
ブラウザ	-18233
学校法人	-18234
解散した	-18235
部分的に	-18236
が始まると	-18237
/3	-18238
くせ	-18239
在日	-18240
樹木	-18241
産地	-18242
群が	-18243
が終了	-18244
が誕生	-18245
を保護	-18246
トール	-18247
フォト	-18248
制施行	-18249
通称は	-18250
コンビニ	-18251
フレーズ	-18252
記録した	-18253
。1952	-18254
に任じられ	-18255
をサポート	-18256
ゲームソフト	-18257
プレイヤーは	-18258
新型コロナウイルス感染症	-18259
EA	-18260
UB	-18261
ズマ	-18262
・5	-18263
娘を	-18264
完封	-18265
東に	-18266
汎用	-18267
番地	-18268
秩父	-18269
称賛	-18270
領地	-18271
-22	-18272
の役割	-18273
を聞く	-18274
入りし	-18275
川を渡	-18276
機関が	-18277
で生まれ	-18278
撮影した	-18279
LO	-18280
▁+	-18281
なぐ	-18282
超人	-18283
躊躇	-18284
ROM	-18285
▁by	-18286
切り離	-18287
1922	-18288
が生まれ	-18289
しておく	-18290
とは別の	-18291
作成した	-18292
完全移籍	-18293
の代わりに	-18294
ローマ教皇	-18295
編成された	-18296
うら	-18297
パワ	-18298
弁当	-18299
御所	-18300
慈善	-18301
手前	-18302
棄却	-18303
粘土	-18304
車輌	-18305
と戦う	-18306
を全て	-18307
ニスト	-18308
音楽院	-18309
ほどなく	-18310
立たない	-18311
▁1964	-18312
▁1965	-18313
▁1966	-18314
になりたい	-18315
適用される	-18316
デビューを果たした	-18317
かへ	-18318
に苦	-18319
はだ	-18320
スチ	-18321
レは	-18322
位が	-18323
刀を	-18324
勢は	-18325
湾岸	-18326
炭酸	-18327
福寺	-18328
華族	-18329
館で	-18330
アンチ	-18331
開発は	-18332
を舞台に	-18333
と並行して	-18334
を見ている	-18335
に含	-18336
ふれ	-18337
コメ	-18338
と並ぶ	-18339
は一時	-18340
まさか	-18341
ドゥル	-18342
拡大し	-18343
放射性	-18344
施設が	-18345
行為を	-18346
などには	-18347
エーカー	-18348
近代的な	-18349
オーストリアの	-18350
GR	-18351
且つ	-18352
停滞	-18353
園芸	-18354
星が	-18355
毛皮	-18356
江の	-18357
論は	-18358
170	-18359
に関心	-18360
わると	-18361
を名乗	-18362
を守り	-18363
アルプス	-18364
グラビア	-18365
ホールの	-18366
ストライキ	-18367
ヒム	-18368
在職	-18369
実写	-18370
洗練	-18371
特権	-18372
部員	-18373
陣の	-18374
ゐない	-18375
地理学	-18376
場合も	-18377
時代を	-18378
を成し遂	-18379
。1936	-18380
ビジュアル	-18381
ではあったが	-18382
年に行われた	-18383
と新	-18384
ウの	-18385
利便	-18386
接収	-18387
日蓮	-18388
法政	-18389
財閥	-18390
ute	-18391
が掲載	-18392
の一族	-18393
の下部	-18394
サイク	-18395
合計で	-18396
寄って	-18397
権を握	-18398
相手を	-18399
いずれの	-18400
に合わせ	-18401
ツブルク	-18402
になります	-18403
指定された	-18404
は白	-18405
を走	-18406
外科	-18407
女流	-18408
森の	-18409
権現	-18410
洋服	-18411
消極	-18412
状を	-18413
職を	-18414
訪れ	-18415
費は	-18416
どうだ	-18417
に抜擢	-18418
もいた	-18419
を修了	-18420
細かく	-18421
しないと	-18422
サヨナラ	-18423
ともいえる	-18424
ノーフォーク	-18425
人民共和国の	-18426
戻り	-18427
法華	-18428
羽織	-18429
花火	-18430
辞退	-18431
道中	-18432
酒造	-18433
隆盛	-18434
NWA	-18435
ane	-18436
が予定	-18437
が引き	-18438
と思ひ	-18439
効果は	-18440
号から	-18441
公表した	-18442
アベニュー	-18443
フランスは	-18444
に編入された	-18445
2(	-18446
ばし	-18447
不詳	-18448
乍ら	-18449
到来	-18450
奪取	-18451
、、)	-18452
なのは	-18453
ませて	-18454
を指導	-18455
ホーン	-18456
年末に	-18457
フライト	-18458
レギュラーシーズン	-18459
ねじ	-18460
の旅	-18461
ガの	-18462
フス	-18463
ラバ	-18464
三味	-18465
免除	-18466
外へ	-18467
太は	-18468
膨ら	-18469
郵政	-18470
隔離	-18471
eth	-18472
を借り	-18473
ライス	-18474
ートル	-18475
工事は	-18476
当局は	-18477
聞くと	-18478
記事が	-18479
のテーマ	-18480
ントンの	-18481
出していた	-18482
続いている	-18483
フェルナンド	-18484
ND	-18485
ゴロ	-18486
ネは	-18487
ムン	-18488
再興	-18489
急性	-18490
接合	-18491
文脈	-18492
星野	-18493
棋士	-18494
ATP	-18495
ウズベ	-18496
チウム	-18497
単一の	-18498
原因は	-18499
1600	-18500
万ポンド	-18501
意図的に	-18502
アナウンス	-18503
インパクト	-18504
分からない	-18505
の口	-18506
大輔	-18507
撃ち	-18508
眼は	-18509
20%	-18510
の責任	-18511
プロパ	-18512
ロビー	-18513
活躍し	-18514
神戸市	-18515
週間の	-18516
、1923	-18517
よこ	-18518
協調	-18519
大内	-18520
奇襲	-18521
山で	-18522
急進	-18523
望み	-18524
栄誉	-18525
着と	-18526
を出港	-18527
を差し	-18528
を申請	-18529
シール	-18530
折り返	-18531
最終戦	-18532
申し出	-18533
目立つ	-18534
変更した	-18535
▁Live	-18536
与えられる	-18537
反抗	-18538
大友	-18539
救出	-18540
空手	-18541
ana	-18542
がおり	-18543
に勝利	-18544
パット	-18545
取り扱	-18546
待って	-18547
本部長	-18548
見られ	-18549
に沿った	-18550
殺される	-18551
と考えられ	-18552
所蔵されている	-18553
Be	-18554
に係	-18555
古来	-18556
失礼	-18557
子や	-18558
富田	-18559
巻く	-18560
指数	-18561
掻き	-18562
横た	-18563
源流	-18564
葉を	-18565
()。	-18566
の名誉	-18567
めいた	-18568
を所有	-18569
ハンデ	-18570
非常勤	-18571
▁Tom	-18572
と異なる	-18573
。1954	-18574
を与えられ	-18575
ジャンルの	-18576
ジャーナル	-18577
が発見された	-18578
セントルイス	-18579
▁タ	-18580
火薬	-18581
通の	-18582
といえ	-18583
テイク	-18584
信長の	-18585
多目的	-18586
条件に	-18587
東京で	-18588
えてきた	-18589
えられて	-18590
して以来	-18591
すことで	-18592
と思つた	-18593
フォンソ	-18594
させられる	-18595
アイデンティ	-18596
結果となった	-18597
発売されている	-18598
が図	-18599
ソリ	-18600
ユタ	-18601
仮に	-18602
八は	-18603
参拝	-18604
四つ	-18605
種別	-18606
にとり	-18607
まつた	-18608
ラーゼ	-18609
乗組員	-18610
北条氏	-18611
点では	-18612
▁des	-18613
witch	-18614
が運営する	-18615
ニューオー	-18616
圏の	-18617
対話	-18618
廻り	-18619
当り	-18620
組成	-18621
言動	-18622
バス停	-18623
ベネズ	-18624
ングラ	-18625
准教授	-18626
喜んで	-18627
当たる	-18628
日午後	-18629
社会学	-18630
のを見て	-18631
者だった	-18632
とも言える	-18633
バーチャル	-18634
主婦	-18635
北に	-18636
号で	-18637
変数	-18638
外相	-18639
時も	-18640
生体	-18641
通報	-18642
240	-18643
リーと	-18644
速度が	-18645
するものの	-18646
投入された	-18647
見られない	-18648
イカ	-18649
ロマ	-18650
党派	-18651
発祥	-18652
諮問	-18653
エアロ	-18654
セバス	-18655
を要する	-18656
クロード	-18657
シアトル	-18658
アカデミーの	-18659
を担当している	-18660
IE	-18661
▁ケ	-18662
くわ	-18663
制が	-18664
小牧	-18665
旨の	-18666
曽根	-18667
浮世	-18668
鉄筋	-18669
スクー	-18670
▁Res	-18671
してしま	-18672
みんなの	-18673
採用され	-18674
日本初の	-18675
年に発表した	-18676
gh	-18677
不当	-18678
到底	-18679
平が	-18680
戦前	-18681
月間	-18682
育つ	-18683
VID	-18684
マンと	-18685
上述の	-18686
内閣府	-18687
圧力を	-18688
親しみ	-18689
音楽は	-18690
させたが	-18691
を入れて	-18692
発掘調査	-18693
▁TOUR	-18694
位に終わった	-18695
置かれていた	-18696
っぷ	-18697
に命	-18698
の悪	-18699
バニ	-18700
予報	-18701
先駆	-18702
-25	-18703
ald	-18704
に悩ま	-18705
の上の	-18706
の有無	-18707
ガブリ	-18708
ナート	-18709
ローブ	-18710
合いを	-18711
恐れて	-18712
果して	-18713
演奏会	-18714
軍事的	-18715
命名された	-18716
としての役割	-18717
することもできる	-18718
を汲	-18719
二日	-18720
低温	-18721
政令	-18722
昨日	-18723
登り	-18724
2)、	-18725
▁戦後	-18726
にもと	-18727
に身を	-18728
を踏襲	-18729
ファラ	-18730
遊びに	-18731
というと	-18732
に初めて	-18733
を兼ねた	-18734
ガイドラ	-18735
Wh	-18736
▁』	-18737
クサ	-18738
皇室	-18739
▁et	-18740
でのみ	-18741
を発射	-18742
ランは	-18743
振る舞	-18744
機能の	-18745
発展し	-18746
くなると	-18747
に代わる	-18748
接続する	-18749
限らない	-18750
テレビジョン	-18751
試合に出場した	-18752
くじ	-18753
石に	-18754
総監	-18755
薔薇	-18756
計量	-18757
録画	-18758
たれて	-18759
の名が	-18760
は世界	-18761
を成功	-18762
テリア	-18763
息子が	-18764
月末に	-18765
有効な	-18766
貴族院	-18767
あまりの	-18768
が存在しない	-18769
のキャラクター	-18770
ハヤ	-18771
下手	-18772
准将	-18773
日系	-18774
月が	-18775
落し	-18776
言は	-18777
▁他の	-18778
、、、	-18779
さんで	-18780
の実現	-18781
出すと	-18782
師団の	-18783
抜いた	-18784
期間に	-18785
決める	-18786
王者の	-18787
1924	-18788
まつわる	-18789
ファイア	-18790
位を記録	-18791
共産党の	-18792
明治維新	-18793
考えると	-18794
▁1939	-18795
という概念	-18796
をしており	-18797
をめぐって	-18798
イギリス軍	-18799
を提供している	-18800
アイドルグループ	-18801
▁モ	-18802
まア	-18803
前橋	-18804
山と	-18805
強度	-18806
御覧	-18807
施策	-18808
本に	-18809
超過	-18810
TKO	-18811
▁彼の	-18812
に登場	-18813
を有し	-18814
コロム	-18815
市から	-18816
幾何学	-18817
調子で	-18818
イエロー	-18819
万ユーロ	-18820
型である	-18821
できるだけ	-18822
シリンダー	-18823
ファミコン	-18824
最も重要な	-18825
決定された	-18826
利用されている	-18827
で同	-18828
アテ	-18829
先刻	-18830
壁画	-18831
天津	-18832
密着	-18833
移り	-18834
調教	-18835
0.5	-18836
の共同	-18837
るまで	-18838
を配置	-18839
宮崎県	-18840
が少なく	-18841
なんだか	-18842
のおかげ	-18843
ユネスコ	-18844
リハビリ	-18845
サミュエル	-18846
シェイクスピア	-18847
アソ	-18848
ラビ	-18849
ワト	-18850
売春	-18851
時が	-18852
洗濯	-18853
頼朝	-18854
fer	-18855
▁BO	-18856
▁Ph	-18857
〜』(	-18858
一族の	-18859
優勝し	-18860
参謀長	-18861
えながら	-18862
ゲームを	-18863
リタイア	-18864
▁Love	-18865
ローリング	-18866
にあたっては	-18867
エネルギーの	-18868
が明	-18869
に数	-18870
の心	-18871
クィ	-18872
今井	-18873
元和	-18874
北側	-18875
富裕	-18876
戸籍	-18877
給付	-18878
進水	-18879
遺族	-18880
▁25	-18881
を作曲	-18882
ネック	-18883
レスは	-18884
取れる	-18885
実質的な	-18886
豊臣秀吉	-18887
▁1920	-18888
ファーレン	-18889
ロシア帝国	-18890
契約を結び	-18891
試験に合格	-18892
ホス	-18893
入し	-18894
鉱物	-18895
長女	-18896
したか	-18897
の家臣	-18898
の構成	-18899
両国の	-18900
市では	-18901
1800	-18902
重傷を負	-18903
が開発した	-18904
アクセント	-18905
地域である	-18906
認定された	-18907
▁School	-18908
もろ	-18909
地蔵	-18910
町立	-18911
-29	-18912
の支持	-18913
ムント	-18914
仕事の	-18915
単位で	-18916
評議員	-18917
ことでも	-18918
上がって	-18919
損害賠償	-18920
点として	-18921
SUPER	-18922
リクエスト	-18923
次のような	-18924
スケジュール	-18925
くし	-18926
ツル	-18927
先で	-18928
天明	-18929
換算	-18930
死な	-18931
艦載	-18932
論を	-18933
になら	-18934
ろうか	-18935
ティエ	-18936
訴えた	-18937
配下の	-18938
なのです	-18939
ッティン	-18940
ディープ	-18941
ドラッグ	-18942
ユリウス	-18943
TOKYO	-18944
のアルバム	-18945
っていたため	-18946
イギリスでは	-18947
に参加している	-18948
MG	-18949
▁清	-18950
充電	-18951
探し	-18952
肝臓	-18953
にも関	-18954
の強い	-18955
マルタ	-18956
原作の	-18957
四日市	-18958
Xbox	-18959
を下した	-18960
ヨハネス	-18961
大ヒット	-18962
▁Cent	-18963
が担当した	-18964
アメリカ軍の	-18965
被害を受けた	-18966
Microsoft	-18967
の白	-18968
を討	-18969
ゥル	-18970
万年	-18971
六角	-18972
名鉄	-18973
念仏	-18974
直営	-18975
歳以下	-18976
のライブ	-18977
チームに	-18978
表される	-18979
ution	-18980
ことごとく	-18981
を占めている	-18982
ヨーロッパで	-18983
位にランクイン	-18984
宿舎	-18985
平原	-18986
離陸	-18987
し得る	-18988
のを見	-18989
はより	-18990
オスの	-18991
カザフ	-18992
日本と	-18993
時期の	-18994
からその	-18995
から分離	-18996
この時に	-18997
たいてい	-18998
を招いた	-18999
▁Comm	-19000
。1934	-19001
へ向かった	-19002
アルバート	-19003
を組み合わせた	-19004
つね	-19005
万国	-19006
吹奏	-19007
池の	-19008
豊島	-19009
からと	-19010
とも思	-19011
の撮影	-19012
の人々が	-19013
アラスカ	-19014
コーラス	-19015
客員教授	-19016
社会科学	-19017
してからは	-19018
に違いない	-19019
設定されている	-19020
ウッ	-19021
ワフ	-19022
四方	-19023
国政	-19024
新潮	-19025
近接	-19026
鍛冶	-19027
飛鳥	-19028
が同じ	-19029
の一覧	-19030
は現在	-19031
スクリ	-19032
もう少し	-19033
指摘した	-19034
ぢやないか	-19035
をスタート	-19036
を提出した	-19037
アフリカの	-19038
が建設された	-19039
平方メートル	-19040
My	-19041
やあ	-19042
タグ	-19043
多発	-19044
文久	-19045
発症	-19046
社交	-19047
しくも	-19048
を包囲	-19049
を売り	-19050
を想定	-19051
タバコ	-19052
中世の	-19053
中央に	-19054
異常な	-19055
直した	-19056
警察に	-19057
1919	-19058
この地域	-19059
ぢやない	-19060
まとめて	-19061
クリーン	-19062
されていて	-19063
,0	-19064
Ge	-19065
主宰	-19066
増設	-19067
松原	-19068
眠り	-19069
詩の	-19070
配偶	-19071
マイヤ	-19072
副作用	-19073
歌った	-19074
状態が	-19075
者への	-19076
...」	-19077
John	-19078
を実施し	-19079
レースで	-19080
段階では	-19081
活動する	-19082
用された	-19083
だけであった	-19084
人文	-19085
南側	-19086
夏は	-19087
朗読	-19088
案の	-19089
麻痺	-19090
いくつ	-19091
しさに	-19092
を目標	-19093
ジェー	-19094
チョン	-19095
ディの	-19096
専門の	-19097
替える	-19098
通常盤	-19099
1925	-19100
ティーン	-19101
起こした	-19102
られているが	-19103
に傾	-19104
ハチ	-19105
ママ	-19106
一説	-19107
井沢	-19108
会い	-19109
曲で	-19110
最長	-19111
段に	-19112
皇子	-19113
紙は	-19114
way	-19115
インス	-19116
パリで	-19117
タウンの	-19118
利用して	-19119
競馬場の	-19120
コフスキー	-19121
スペイン語	-19122
が採用された	-19123
されていった	-19124
ウィンブルドン	-19125
家屋	-19126
疲れ	-19127
発酵	-19128
笑ひ	-19129
縁起	-19130
角度	-19131
足立	-19132
達を	-19133
から大	-19134
やりと	-19135
困った	-19136
増えた	-19137
おおむね	-19138
は多くの	-19139
大学文学部	-19140
することができない	-19141
SR	-19142
の聖	-19143
を掴	-19144
イラ	-19145
バオ	-19146
当地	-19147
日比	-19148
次長	-19149
高額	-19150
魚類	-19151
ble	-19152
ウォン	-19153
最高裁	-19154
距離を	-19155
驚いて	-19156
こちらも	-19157
サーバー	-19158
▁1946	-19159
。1953	-19160
が行われたが	-19161
リが	-19162
円形	-19163
号車	-19164
常時	-19165
強硬	-19166
時分	-19167
未成	-19168
おいた	-19169
ザーの	-19170
魔法の	-19171
どうやら	-19172
に敗れて	-19173
シェヴィ	-19174
とほぼ同じ	-19175
不明である	-19176
という言葉は	-19177
を対象とした	-19178
クライマックス	-19179
万葉	-19180
原発	-19181
年中	-19182
捉え	-19183
牛の	-19184
社殿	-19185
COM	-19186
▁特に	-19187
さんだ	-19188
に設置	-19189
を承認	-19190
ダラス	-19191
パナマ	-19192
ブラー	-19193
方式は	-19194
染色体	-19195
は自分の	-19196
スロバキア	-19197
ブラザーズ	-19198
当時としては	-19199
日のダイヤ改正	-19200
VV	-19201
とく	-19202
のス	-19203
を刺	-19204
オズ	-19205
孤児	-19206
幕下	-19207
恰好	-19208
特例	-19209
立川	-19210
返済	-19211
醤油	-19212
飢饉	-19213
ゐると	-19214
半導体	-19215
礼拝堂	-19216
言した	-19217
1900	-19218
ひそかに	-19219
マルティ	-19220
取り入れ	-19221
司令長官	-19222
は出	-19223
ぼる	-19224
休日	-19225
初戦	-19226
村山	-19227
種族	-19228
諜報	-19229
陸地	-19230
ita	-19231
がつく	-19232
が発行	-19233
もんだ	-19234
を提示	-19235
向いて	-19236
大臣の	-19237
映像が	-19238
マクドナルド	-19239
は自	-19240
今回	-19241
作で	-19242
助成	-19243
十年	-19244
大関	-19245
広瀬	-19246
弱体	-19247
日清	-19248
着き	-19249
聴衆	-19250
舗装	-19251
術の	-19252
の家庭	-19253
みよう	-19254
人物は	-19255
だと思う	-19256
っていう	-19257
企業である	-19258
▁神	-19259
のぞ	-19260
斉に	-19261
有様	-19262
ISO	-19263
から数	-19264
映画を	-19265
最大で	-19266
真面目	-19267
例もある	-19268
に昇格した	-19269
ことに成功した	-19270
クリーブランド	-19271
グランドスラム	-19272
していることから	-19273
などが挙げられる	-19274
だち	-19275
主権	-19276
打数	-19277
来い	-19278
桜井	-19279
病原	-19280
築造	-19281
ony	-19282
どっち	-19283
に強い	-19284
を共有	-19285
マスの	-19286
ヴィエ	-19287
左右の	-19288
おもしろ	-19289
のかも知	-19290
インテル	-19291
徹底的に	-19292
ることができ	-19293
プレイヤーが	-19294
▁ヘ	-19295
をす	-19296
コタ	-19297
人目	-19298
店を	-19299
熱狂	-19300
窓口	-19301
すため	-19302
を図り	-19303
ソナタ	-19304
ピート	-19305
収入は	-19306
技術者	-19307
非公式	-19308
騎士団	-19309
、1924	-19310
タイアップ	-19311
することとなる	-19312
日に公開された	-19313
▁花	-19314
きこ	-19315
の対	-19316
ズス	-19317
中へ	-19318
咲き	-19319
夢の	-19320
滑り	-19321
結城	-19322
解答	-19323
退社	-19324
の地下	-19325
を管轄	-19326
母親が	-19327
金曜日	-19328
さわしい	-19329
亡くなる	-19330
[...]
